{
  "0": "<|endoftext|>",
  "1": "!",
  "2": "\"",
  "3": "#",
  "4": "$",
  "5": "%",
  "6": "&",
  "7": "'",
  "8": "(",
  "9": ")",
  "10": "*",
  "11": "+",
  "12": ",",
  "13": "-",
  "14": ".",
  "15": "/",
  "16": "0",
  "17": "1",
  "18": "2",
  "19": "3",
  "20": "4",
  "21": "5",
  "22": "6",
  "23": "7",
  "24": "8",
  "25": "9",
  "26": ":",
  "27": ";",
  "28": "<",
  "29": "=",
  "30": ">",
  "31": "?",
  "32": "@",
  "33": "A",
  "34": "B",
  "35": "C",
  "36": "D",
  "37": "E",
  "38": "F",
  "39": "G",
  "40": "H",
  "41": "I",
  "42": "J",
  "43": "K",
  "44": "L",
  "45": "M",
  "46": "N",
  "47": "O",
  "48": "P",
  "49": "Q",
  "50": "R",
  "51": "S",
  "52": "T",
  "53": "U",
  "54": "V",
  "55": "W",
  "56": "X",
  "57": "Y",
  "58": "Z",
  "59": "[",
  "60": "\\",
  "61": "]",
  "62": "^",
  "63": "_",
  "64": "`",
  "65": "a",
  "66": "b",
  "67": "c",
  "68": "d",
  "69": "e",
  "70": "f",
  "71": "g",
  "72": "h",
  "73": "i",
  "74": "j",
  "75": "k",
  "76": "l",
  "77": "m",
  "78": "n",
  "79": "o",
  "80": "p",
  "81": "q",
  "82": "r",
  "83": "s",
  "84": "t",
  "85": "u",
  "86": "v",
  "87": "w",
  "88": "x",
  "89": "y",
  "90": "z",
  "91": "{",
  "92": "|",
  "93": "}",
  "94": "~",
  "95": "\ufffd",
  "96": "\ufffd",
  "97": "\ufffd",
  "98": "\ufffd",
  "99": "\ufffd",
  "100": "\ufffd",
  "101": "\ufffd",
  "102": "\ufffd",
  "103": "\ufffd",
  "104": "\ufffd",
  "105": "\ufffd",
  "106": "\ufffd",
  "107": "\ufffd",
  "108": "\ufffd",
  "109": "\ufffd",
  "110": "\ufffd",
  "111": "\ufffd",
  "112": "\ufffd",
  "113": "\ufffd",
  "114": "\ufffd",
  "115": "\ufffd",
  "116": "\ufffd",
  "117": "\ufffd",
  "118": "\ufffd",
  "119": "\ufffd",
  "120": "\ufffd",
  "121": "\ufffd",
  "122": "\ufffd",
  "123": "\ufffd",
  "124": "\ufffd",
  "125": "\ufffd",
  "126": "\ufffd",
  "127": "\ufffd",
  "128": "\ufffd",
  "129": "\ufffd",
  "130": "\ufffd",
  "131": "\ufffd",
  "132": "\ufffd",
  "133": "\ufffd",
  "134": "\ufffd",
  "135": "\ufffd",
  "136": "\ufffd",
  "137": "\ufffd",
  "138": "\ufffd",
  "139": "\ufffd",
  "140": "\ufffd",
  "141": "\ufffd",
  "142": "\ufffd",
  "143": "\ufffd",
  "144": "\ufffd",
  "145": "\ufffd",
  "146": "\ufffd",
  "147": "\ufffd",
  "148": "\ufffd",
  "149": "\ufffd",
  "150": "\ufffd",
  "151": "\ufffd",
  "152": "\ufffd",
  "153": "\ufffd",
  "154": "\ufffd",
  "155": "\ufffd",
  "156": "\ufffd",
  "157": "\ufffd",
  "158": "\ufffd",
  "159": "\ufffd",
  "160": "\ufffd",
  "161": "\ufffd",
  "162": "\ufffd",
  "163": "\ufffd",
  "164": "\ufffd",
  "165": "\ufffd",
  "166": "\ufffd",
  "167": "\ufffd",
  "168": "\ufffd",
  "169": "\ufffd",
  "170": "\ufffd",
  "171": "\ufffd",
  "172": "\ufffd",
  "173": "\ufffd",
  "174": "\ufffd",
  "175": "\ufffd",
  "176": "\ufffd",
  "177": "\ufffd",
  "178": "\ufffd",
  "179": "\ufffd",
  "180": "\ufffd",
  "181": "\ufffd",
  "182": "\ufffd",
  "183": "\ufffd",
  "184": "\ufffd",
  "185": "\ufffd",
  "186": "\ufffd",
  "187": "\ufffd",
  "188": "\ufffd",
  "189": "\u0000",
  "190": "\u0001",
  "191": "\u0002",
  "192": "\u0003",
  "193": "\u0004",
  "194": "\u0005",
  "195": "\u0006",
  "196": "\u0007",
  "197": "\b",
  "198": "\t",
  "199": "\n",
  "200": "\u000b",
  "201": "\f",
  "202": "\r",
  "203": "\u000e",
  "204": "\u000f",
  "205": "\u0010",
  "206": "\u0011",
  "207": "\u0012",
  "208": "\u0013",
  "209": "\u0014",
  "210": "\u0015",
  "211": "\u0016",
  "212": "\u0017",
  "213": "\u0018",
  "214": "\u0019",
  "215": "\u001a",
  "216": "\u001b",
  "217": "\u001c",
  "218": "\u001d",
  "219": "\u001e",
  "220": "\u001f",
  "221": " ",
  "222": "\u007f",
  "223": "\ufffd",
  "224": "\ufffd",
  "225": "\ufffd",
  "226": "\ufffd",
  "227": "\ufffd",
  "228": "\ufffd",
  "229": "\ufffd",
  "230": "\ufffd",
  "231": "\ufffd",
  "232": "\ufffd",
  "233": "\ufffd",
  "234": "\ufffd",
  "235": "\ufffd",
  "236": "\ufffd",
  "237": "\ufffd",
  "238": "\ufffd",
  "239": "\ufffd",
  "240": "\ufffd",
  "241": "\ufffd",
  "242": "\ufffd",
  "243": "\ufffd",
  "244": "\ufffd",
  "245": "\ufffd",
  "246": "\ufffd",
  "247": "\ufffd",
  "248": "\ufffd",
  "249": "\ufffd",
  "250": "\ufffd",
  "251": "\ufffd",
  "252": "\ufffd",
  "253": "\ufffd",
  "254": "\ufffd",
  "255": "\ufffd",
  "256": "\ufffd",
  "257": "ng",
  "258": "na",
  "259": "ang",
  "260": " s",
  "261": "an",
  "262": " na",
  "263": " m",
  "264": " p",
  "265": "at",
  "266": " sa",
  "267": " ng",
  "268": "al",
  "269": "ag",
  "270": "ay",
  "271": " k",
  "272": "in",
  "273": "it",
  "274": "il",
  "275": "ar",
  "276": " ang",
  "277": "ga",
  "278": "on",
  "279": "as",
  "280": "is",
  "281": " t",
  "282": "er",
  "283": " mga",
  "284": " b",
  "285": "am",
  "286": "ong",
  "287": "ina",
  "288": " n",
  "289": "ul",
  "290": "ak",
  "291": "ing",
  "292": " d",
  "293": "es",
  "294": ",",
  "295": " at",
  "296": "ah",
  "297": "ap",
  "298": "en",
  "299": "ab",
  "300": "or",
  "301": " P",
  "302": " ay",
  "303": " l",
  "304": " h",
  "305": "um",
  "306": "iy",
  "307": " pag",
  "308": "ik",
  "309": "ad",
  "310": "aw",
  "311": " S",
  "312": " o",
  "313": " M",
  "314": "ig",
  "315": " A",
  "316": "os",
  "317": "un",
  "318": " is",
  "319": " C",
  "320": "us",
  "321": "im",
  "322": "ip",
  "323": "ib",
  "324": "re",
  "325": "ro",
  "326": "ito",
  "327": "ana",
  "328": " ni",
  "329": "ilang",
  "330": "id",
  "331": " B",
  "332": "ol",
  "333": "el",
  "334": "ent",
  "335": "ut",
  "336": " (",
  "337": " @",
  "338": "-@",
  "339": " @-@",
  "340": "ic",
  "341": " g",
  "342": "ur",
  "343": " D",
  "344": " nag",
  "345": " isang",
  "346": "om",
  "347": "yon",
  "348": "ung",
  "349": " c",
  "350": " 1",
  "351": "and",
  "352": " I",
  "353": "iya",
  "354": " R",
  "355": " T",
  "356": "ind",
  "357": " L",
  "358": "Ang",
  "359": " kan",
  "360": "ion",
  "361": " w",
  "362": "ot",
  "363": "ala",
  "364": "he",
  "365": "et",
  "366": "up",
  "367": " K",
  "368": " par",
  "369": " N",
  "370": " pang",
  "371": " mag",
  "372": " r",
  "373": " H",
  "374": "ir",
  "375": "ed",
  "376": "em",
  "377": "ug",
  "378": " G",
  "379": " E",
  "380": " si",
  "381": "uk",
  "382": "od",
  "383": " ito",
  "384": " \"",
  "385": "ant",
  "386": " )",
  "387": " in",
  "388": " 2",
  "389": "una",
  "390": "indi",
  "391": "ub",
  "392": "ya",
  "393": "ist",
  "394": " *",
  "395": " may",
  "396": " nak",
  "397": "ek",
  "398": " =",
  "399": "ac",
  "400": " the",
  "401": "yo",
  "402": "to",
  "403": "ila",
  "404": "sa",
  "405": "ec",
  "406": " of",
  "407": " hindi",
  "408": "ula",
  "409": "ano",
  "410": "ih",
  "411": " pa",
  "412": " f",
  "413": " pam",
  "414": " para",
  "415": " J",
  "416": " kay",
  "417": " kas",
  "418": "uh",
  "419": "ia",
  "420": "yang",
  "421": " ib",
  "422": "ilip",
  "423": "uw",
  "424": "ok",
  "425": "oong",
  "426": "iw",
  "427": " pina",
  "428": "man",
  "429": "le",
  "430": " re",
  "431": "00",
  "432": " ta",
  "433": " F",
  "434": "ob",
  "435": "ep",
  "436": "ahil",
  "437": "est",
  "438": " um",
  "439": " mat",
  "440": "ers",
  "441": " pagk",
  "442": "io",
  "443": " ma",
  "444": "res",
  "445": "op",
  "446": "alang",
  "447": " nang",
  "448": "alaw",
  "449": " O",
  "450": "te",
  "451": " kat",
  "452": " noong",
  "453": "oy",
  "454": " mak",
  "455": "alak",
  "456": "Sa",
  "457": " bilang",
  "458": " dahil",
  "459": " kung",
  "460": "apat",
  "461": "iyang",
  "462": "st",
  "463": "ation",
  "464": " nito",
  "465": " '",
  "466": "og",
  "467": "ud",
  "468": "ity",
  "469": "asyon",
  "470": " it",
  "471": " ar",
  "472": " a",
  "473": "bi",
  "474": "und",
  "475": "nal",
  "476": "inas",
  "477": "iv",
  "478": " and",
  "479": " mula",
  "480": " al",
  "481": "ayan",
  "482": " pro",
  "483": " ka",
  "484": " V",
  "485": " :",
  "486": " U",
  "487": "ita",
  "488": "ans",
  "489": " naman",
  "490": "ika",
  "491": " kanyang",
  "492": " 19",
  "493": "angg",
  "494": "amang",
  "495": " an",
  "496": "ahan",
  "497": "ta",
  "498": "ino",
  "499": "eg",
  "500": "lo",
  "501": " rin",
  "502": " Mar",
  "503": " ga",
  "504": "itan",
  "505": "alag",
  "506": ",\"",
  "507": "ama",
  "508": "ill",
  "509": " bag",
  "510": "ter",
  "511": " mas",
  "512": " up",
  "513": " to",
  "514": " kanilang",
  "515": "ens",
  "516": "ari",
  "517": "ulong",
  "518": "tr",
  "519": "ice",
  "520": " e",
  "521": "awa",
  "522": "apos",
  "523": "apag",
  "524": "yong",
  "525": "qu",
  "526": " pana",
  "527": "yan",
  "528": " mal",
  "529": "ero",
  "530": " sina",
  "531": "aan",
  "532": "ort",
  "533": "inat",
  "534": " nat",
  "535": " kab",
  "536": " tr",
  "537": "mit",
  "538": " ip",
  "539": " siya",
  "540": "ment",
  "541": " W",
  "542": "ine",
  "543": "ena",
  "544": " upang",
  "545": " din",
  "546": "atay",
  "547": " kar",
  "548": "do",
  "549": "iko",
  "550": "imb",
  "551": "ch",
  "552": " th",
  "553": "ial",
  "554": "uan",
  "555": " pagp",
  "556": " Ph",
  "557": "ident",
  "558": " kah",
  "559": " Pang",
  "560": "inal",
  "561": "ating",
  "562": " niya",
  "563": " 3",
  "564": " Ch",
  "565": " 20",
  "566": "ern",
  "567": "av",
  "568": " ban",
  "569": "eb",
  "570": "ain",
  "571": " v",
  "572": "ian",
  "573": "itong",
  "574": "aman",
  "575": "tor",
  "576": "ce",
  "577": "alan",
  "578": " kal",
  "579": "ado",
  "580": " Pilip",
  "581": " In",
  "582": "per",
  "583": " lamang",
  "584": " iba",
  "585": " umano",
  "586": " pags",
  "587": "ilipp",
  "588": " gina",
  "589": " kap",
  "590": " bah",
  "591": "amp",
  "592": "ata",
  "593": "abang",
  "594": "ulo",
  "595": " Philipp",
  "596": "ara",
  "597": "aba",
  "598": "alawang",
  "599": "th",
  "600": " ak",
  "601": " -",
  "602": "unang",
  "603": "aring",
  "604": " Ar",
  "605": "ulat",
  "606": " pagb",
  "607": "oc",
  "608": "idad",
  "609": " tum",
  "610": "iyon",
  "611": "amb",
  "612": " pan",
  "613": " or",
  "614": "Ayon",
  "615": " bansa",
  "616": "ayag",
  "617": "ahat",
  "618": " lab",
  "619": "ili",
  "620": "tat",
  "621": "wa",
  "622": " Al",
  "623": "eng",
  "624": "emb",
  "625": "ism",
  "626": " as",
  "627": "imp",
  "628": "awan",
  "629": "ional",
  "630": " tao",
  "631": "oon",
  "632": " pat",
  "633": " il",
  "634": "MA",
  "635": "alo",
  "636": " nas",
  "637": " mar",
  "638": "ines",
  "639": " City",
  "640": " mah",
  "641": "ra",
  "642": " nasa",
  "643": "angk",
  "644": "ue",
  "645": " pagkak",
  "646": " pagl",
  "647": "abas",
  "648": " nagp",
  "649": "ie",
  "650": " sum",
  "651": "aya",
  "652": "anggang",
  "653": "ust",
  "654": "ha",
  "655": "eks",
  "656": " May",
  "657": "ard",
  "658": "ump",
  "659": "anan",
  "660": "eh",
  "661": " isa",
  "662": "ast",
  "663": "ov",
  "664": "ff",
  "665": "oh",
  "666": " pamam",
  "667": " Pilipinas",
  "668": " lum",
  "669": "isyon",
  "670": "unt",
  "671": "art",
  "672": "ect",
  "673": " hanggang",
  "674": " 201",
  "675": " ibang",
  "676": " maa",
  "677": "apon",
  "678": " pinak",
  "679": "ate",
  "680": " nam",
  "681": "int",
  "682": " nitong",
  "683": "les",
  "684": " hal",
  "685": " kon",
  "686": " for",
  "687": "isy",
  "688": " ilang",
  "689": "agi",
  "690": "uter",
  "691": "ma",
  "692": "agd",
  "693": "ihan",
  "694": "ire",
  "695": "ulad",
  "696": " res",
  "697": "end",
  "698": "asan",
  "699": "arang",
  "700": "ly",
  "701": " pr",
  "702": "unod",
  "703": " 4",
  "704": "ew",
  "705": " nap",
  "706": " Un",
  "707": " matapos",
  "708": " sus",
  "709": "uro",
  "710": " sila",
  "711": " mab",
  "712": "anda",
  "713": "uc",
  "714": "igay",
  "715": " nags",
  "716": "ubl",
  "717": "ary",
  "718": " com",
  "719": "asa",
  "720": "anak",
  "721": " saan",
  "722": "inang",
  "723": " dalawang",
  "724": "ilangan",
  "725": "aga",
  "726": "unit",
  "727": "alik",
  "728": " on",
  "729": "awag",
  "730": " An",
  "731": "uhan",
  "732": "ima",
  "733": "aling",
  "734": " sal",
  "735": "resident",
  "736": " de",
  "737": "aka",
  "738": "ugna",
  "739": " mil",
  "740": " ngay",
  "741": "iz",
  "742": " lo",
  "743": " walang",
  "744": " con",
  "745": " bat",
  "746": " op",
  "747": " magk",
  "748": "ilala",
  "749": " lang",
  "750": " 5",
  "751": " Com",
  "752": " ).",
  "753": "ulang",
  "754": "uhay",
  "755": "ada",
  "756": "uterte",
  "757": "iga",
  "758": "abing",
  "759": "angga",
  "760": " Duterte",
  "761": " ina",
  "762": "igh",
  "763": " nila",
  "764": "ali",
  "765": "hon",
  "766": "alit",
  "767": " sak",
  "768": " habang",
  "769": "unan",
  "770": " pangk",
  "771": " pagt",
  "772": " lahat",
  "773": "sod",
  "774": "igan",
  "775": " ag",
  "776": " ayon",
  "777": " pul",
  "778": "istr",
  "779": "ey",
  "780": "Nag",
  "781": "ura",
  "782": "eral",
  "783": "ungk",
  "784": "ismo",
  "785": " y",
  "786": "ento",
  "787": "alim",
  "788": " maaaring",
  "789": " naging",
  "790": " 200",
  "791": "ago",
  "792": " tat",
  "793": "ins",
  "794": " pal",
  "795": " pos",
  "796": "uri",
  "797": " kaya",
  "798": "ista",
  "799": " kaniyang",
  "800": "orm",
  "801": " kam",
  "802": " ;",
  "803": "port",
  "804": "da",
  "805": " Sena",
  "806": " pinag",
  "807": "Sina",
  "808": " araw",
  "809": "ow",
  "810": " loob",
  "811": " pagpap",
  "812": " bahagi",
  "813": " Man",
  "814": "la",
  "815": "ahala",
  "816": " man",
  "817": "alaga",
  "818": "Ito",
  "819": "agitan",
  "820": " imp",
  "821": "ri",
  "822": " dito",
  "823": "inag",
  "824": "aming",
  "825": " taon",
  "826": "agawa",
  "827": " sin",
  "828": "aroon",
  "829": " Philippines",
  "830": "lat",
  "831": "ure",
  "832": "ahayag",
  "833": "ev",
  "834": " As",
  "835": " dating",
  "836": " ik",
  "837": "gamit",
  "838": "ona",
  "839": "ive",
  "840": " pamamagitan",
  "841": "anag",
  "842": "anong",
  "843": "long",
  "844": " Ing",
  "845": "agdag",
  "846": "alaking",
  "847": "pan",
  "848": "ungsod",
  "849": " Is",
  "850": "uloy",
  "851": " tinat",
  "852": " 6",
  "853": " itong",
  "854": " pak",
  "855": "if",
  "856": "000",
  "857": " Y",
  "858": " Pangulong",
  "859": "Si",
  "860": " tag",
  "861": "ao",
  "862": " laban",
  "863": " pas",
  "864": " Q",
  "865": "iging",
  "866": " unang",
  "867": "Sinabi",
  "868": "alaki",
  "869": " San",
  "870": " be",
  "871": "agk",
  "872": "ikt",
  "873": "our",
  "874": " Ang",
  "875": "iling",
  "876": "pl",
  "877": "ays",
  "878": "IL",
  "879": "ikal",
  "880": "olice",
  "881": " pl",
  "882": " dapat",
  "883": " kina",
  "884": "aran",
  "885": " taong",
  "886": " bu",
  "887": "ingg",
  "888": " gr",
  "889": "oby",
  "890": "ore",
  "891": " bum",
  "892": "uling",
  "893": " Am",
  "894": " Rep",
  "895": "agp",
  "896": " nagb",
  "897": " pagd",
  "898": "era",
  "899": " sh",
  "900": " est",
  "901": "ult",
  "902": " part",
  "903": "co",
  "904": " el",
  "905": " kom",
  "906": " that",
  "907": " nab",
  "908": "ess",
  "909": " Ab",
  "910": " pulis",
  "911": " pagh",
  "912": "ement",
  "913": " susp",
  "914": " ch",
  "915": " panahon",
  "916": " ex",
  "917": "uha",
  "918": "ase",
  "919": "uno",
  "920": "ord",
  "921": "unah",
  "922": "uo",
  "923": "ies",
  "924": " siyang",
  "925": "ez",
  "926": "iwang",
  "927": "dor",
  "928": " dr",
  "929": " bin",
  "930": "ors",
  "931": " Ingles",
  "932": "zon",
  "933": " President",
  "934": "amit",
  "935": " Br",
  "936": "isyal",
  "937": "eo",
  "938": " Tr",
  "939": " po",
  "940": "ugar",
  "941": " map",
  "942": "ahang",
  "943": "uli",
  "944": "nat",
  "945": "ret",
  "946": "akas",
  "947": " gum",
  "948": " hum",
  "949": " Est",
  "950": " bikt",
  "951": "ikang",
  "952": " 18",
  "953": " j",
  "954": "isa",
  "955": " kasama",
  "956": " Philippine",
  "957": "rist",
  "958": " ika",
  "959": " kum",
  "960": "anap",
  "961": " pap",
  "962": " Z",
  "963": "ork",
  "964": " ad",
  "965": " lugar",
  "966": "ikong",
  "967": " baba",
  "968": " sinabi",
  "969": " maging",
  "970": " ap",
  "971": "min",
  "972": " Dep",
  "973": "ansang",
  "974": " New",
  "975": "gr",
  "976": " ser",
  "977": " he",
  "978": "MAN",
  "979": "itang",
  "980": " 7",
  "981": " ngunit",
  "982": "apit",
  "983": "ons",
  "984": "urang",
  "985": " mad",
  "986": " pinakam",
  "987": "imula",
  "988": "ran",
  "989": " nagk",
  "990": " anak",
  "991": " Es",
  "992": "ato",
  "993": " ngayon",
  "994": " Nat",
  "995": "'s",
  "996": " ab",
  "997": "ical",
  "998": " st",
  "999": "bay",
  "1000": "ulan",
  "1001": " Rom",
  "1002": "all",
  "1003": "anang",
  "1004": "igit",
  "1005": "arangay",
  "1006": "anggap",
  "1007": "ugnay",
  "1008": "her",
  "1009": " biktima",
  "1010": " mayro",
  "1011": "ell",
  "1012": "lal",
  "1013": "ight",
  "1014": "ief",
  "1015": " opisyal",
  "1016": "ular",
  "1017": "iyos",
  "1018": "iwala",
  "1019": " Sec",
  "1020": "syon",
  "1021": "use",
  "1022": "inan",
  "1023": " Pr",
  "1024": "etro",
  "1025": "arap",
  "1026": " pamahala",
  "1027": "ekt",
  "1028": "nan",
  "1029": " En",
  "1030": "ami",
  "1031": " bago",
  "1032": " i",
  "1033": " wala",
  "1034": " pum",
  "1035": "Noong",
  "1036": " sub",
  "1037": "ela",
  "1038": "alas",
  "1039": "ibo",
  "1040": " kasal",
  "1041": "lam",
  "1042": " dis",
  "1043": " sp",
  "1044": " Manila",
  "1045": " sar",
  "1046": " are",
  "1047": " 8",
  "1048": "so",
  "1049": "atapos",
  "1050": " suspek",
  "1051": " Police",
  "1052": "ayo",
  "1053": " buhay",
  "1054": "ante",
  "1055": " dum",
  "1056": "abah",
  "1057": "inut",
  "1058": "onom",
  "1059": "..",
  "1060": "ILA",
  "1061": "adong",
  "1062": "akat",
  "1063": " maraming",
  "1064": " pamp",
  "1065": "uwal",
  "1066": " 10",
  "1067": " niyang",
  "1068": "ection",
  "1069": "uku",
  "1070": " sup",
  "1071": "iwanag",
  "1072": " magp",
  "1073": "asal",
  "1074": " Pangulo",
  "1075": "artment",
  "1076": "ipag",
  "1077": "ith",
  "1078": " pin",
  "1079": "ukoy",
  "1080": "ite",
  "1081": " pamil",
  "1082": " pahayag",
  "1083": " oper",
  "1084": "MANILA",
  "1085": "iss",
  "1086": " ter",
  "1087": " di",
  "1088": " Sant",
  "1089": " wh",
  "1090": " kaso",
  "1091": " 9",
  "1092": "erno",
  "1093": " St",
  "1094": "sak",
  "1095": "embre",
  "1096": " mam",
  "1097": "act",
  "1098": " te",
  "1099": " lungsod",
  "1100": " National",
  "1101": "oloh",
  "1102": "igo",
  "1103": "anga",
  "1104": "NP",
  "1105": " buong",
  "1106": "uring",
  "1107": "abot",
  "1108": "umb",
  "1109": "ugan",
  "1110": "inig",
  "1111": " nil",
  "1112": "May",
  "1113": "ilan",
  "1114": "iit",
  "1115": "esp",
  "1116": "agang",
  "1117": "ign",
  "1118": "inaw",
  "1119": " tatlong",
  "1120": "ungan",
  "1121": "mp",
  "1122": "ack",
  "1123": "out",
  "1124": " nakat",
  "1125": " baw",
  "1126": " bagong",
  "1127": " bayan",
  "1128": "ress",
  "1129": " batas",
  "1130": " Ag",
  "1131": " kabilang",
  "1132": " kil",
  "1133": " 15",
  "1134": " kin",
  "1135": " mags",
  "1136": " kahapon",
  "1137": "ayang",
  "1138": "aas",
  "1139": "ide",
  "1140": " GMA",
  "1141": " nasabing",
  "1142": "ema",
  "1143": " Ro",
  "1144": " ko",
  "1145": " Aqu",
  "1146": " tinatawag",
  "1147": " inter",
  "1148": "de",
  "1149": "abag",
  "1150": "ka",
  "1151": "apan",
  "1152": " med",
  "1153": " Department",
  "1154": "aro",
  "1155": " 12",
  "1156": "hi",
  "1157": "idente",
  "1158": "pit",
  "1159": "han",
  "1160": "nap",
  "1161": " we",
  "1162": "amant",
  "1163": " ipina",
  "1164": " pamahalaan",
  "1165": " buw",
  "1166": "abi",
  "1167": "rim",
  "1168": "atang",
  "1169": " co",
  "1170": " goby",
  "1171": "retary",
  "1172": " bar",
  "1173": "Hindi",
  "1174": "ert",
  "1175": "ost",
  "1176": "ibigay",
  "1177": "enc",
  "1178": "ente",
  "1179": "atan",
  "1180": " uri",
  "1181": "ose",
  "1182": " II",
  "1183": " Comm",
  "1184": " babae",
  "1185": " tungk",
  "1186": " gobyerno",
  "1187": "ensiya",
  "1188": "las",
  "1189": " sap",
  "1190": " Gr",
  "1191": " /",
  "1192": "gawa",
  "1193": "alay",
  "1194": "ont",
  "1195": " kag",
  "1196": "ach",
  "1197": " --",
  "1198": " not",
  "1199": " prob",
  "1200": "aral",
  "1201": "bo",
  "1202": "orte",
  "1203": "ril",
  "1204": " katulad",
  "1205": "'t",
  "1206": " pangunah",
  "1207": " bak",
  "1208": "awi",
  "1209": " Sa",
  "1210": "undo",
  "1211": " per",
  "1212": " katawan",
  "1213": "alawa",
  "1214": " pol",
  "1215": "ayun",
  "1216": " lalaki",
  "1217": " ulat",
  "1218": " Aquino",
  "1219": "iyak",
  "1220": " kapag",
  "1221": "estiga",
  "1222": "esto",
  "1223": "ations",
  "1224": "ry",
  "1225": " El",
  "1226": "ence",
  "1227": " Amer",
  "1228": "imbestiga",
  "1229": " publ",
  "1230": "anya",
  "1231": " pagitan",
  "1232": "usyon",
  "1233": " Con",
  "1234": " Sp",
  "1235": " mang",
  "1236": " Pro",
  "1237": "ave",
  "1238": " pagtat",
  "1239": "po",
  "1240": "umang",
  "1241": "ct",
  "1242": " will",
  "1243": " bahay",
  "1244": " hin",
  "1245": "abaho",
  "1246": "nang",
  "1247": " em",
  "1248": " off",
  "1249": "gan",
  "1250": " tulad",
  "1251": "age",
  "1252": "siyon",
  "1253": " ginagamit",
  "1254": " ind",
  "1255": "rom",
  "1256": "iniwala",
  "1257": " ilalim",
  "1258": " sabi",
  "1259": "ere",
  "1260": " sinas",
  "1261": "asok",
  "1262": " aw",
  "1263": "alawigan",
  "1264": "uran",
  "1265": " puw",
  "1266": "nila",
  "1267": " Ap",
  "1268": "andang",
  "1269": " inil",
  "1270": "upo",
  "1271": "agan",
  "1272": "son",
  "1273": " pangunahing",
  "1274": "alat",
  "1275": " ek",
  "1276": " nah",
  "1277": "eneral",
  "1278": " sena",
  "1279": " nagpap",
  "1280": "ond",
  "1281": " with",
  "1282": " gaw",
  "1283": " ring",
  "1284": "agal",
  "1285": " rel",
  "1286": "ible",
  "1287": "ilangang",
  "1288": "lang",
  "1289": " karan",
  "1290": "),",
  "1291": " Le",
  "1292": " nakak",
  "1293": " News",
  "1294": "Is",
  "1295": "ibong",
  "1296": " ins",
  "1297": " Rod",
  "1298": "cos",
  "1299": "alagang",
  "1300": "overn",
  "1301": " us",
  "1302": "atas",
  "1303": " nagt",
  "1304": "arian",
  "1305": "agpuan",
  "1306": "araang",
  "1307": " ant",
  "1308": "bang",
  "1309": " ed",
  "1310": " De",
  "1311": " Sal",
  "1312": " bawat",
  "1313": " pagbab",
  "1314": " pamilya",
  "1315": " Car",
  "1316": " Kat",
  "1317": " kasaluku",
  "1318": " pero",
  "1319": "esus",
  "1320": " Sen",
  "1321": " Maynila",
  "1322": "asyong",
  "1323": " un",
  "1324": "ministr",
  "1325": " pakik",
  "1326": " At",
  "1327": " tub",
  "1328": " pres",
  "1329": ").",
  "1330": "awang",
  "1331": " Or",
  "1332": " nan",
  "1333": " nina",
  "1334": "arawan",
  "1335": "uang",
  "1336": " Sup",
  "1337": "ido",
  "1338": "ge",
  "1339": " Krist",
  "1340": "igt",
  "1341": "utan",
  "1342": " sig",
  "1343": "igyan",
  "1344": " del",
  "1345": "ery",
  "1346": "In",
  "1347": "nak",
  "1348": "NA",
  "1349": " 11",
  "1350": "alth",
  "1351": "yar",
  "1352": "ish",
  "1353": " da",
  "1354": " Ind",
  "1355": "eksuwal",
  "1356": " Pas",
  "1357": " He",
  "1358": "ime",
  "1359": "abilang",
  "1360": " im",
  "1361": " kak",
  "1362": " sam",
  "1363": " kahit",
  "1364": "Dahil",
  "1365": " dagdag",
  "1366": "que",
  "1367": "any",
  "1368": " Ma",
  "1369": " lik",
  "1370": "ador",
  "1371": "anao",
  "1372": " apat",
  "1373": "ungo",
  "1374": " matat",
  "1375": "land",
  "1376": " nilang",
  "1377": "asak",
  "1378": " 199",
  "1379": " Secretary",
  "1380": "ear",
  "1381": "ood",
  "1382": ".\"",
  "1383": "ID",
  "1384": " karam",
  "1385": "iyong",
  "1386": " 16",
  "1387": " Off",
  "1388": "pa",
  "1389": "alis",
  "1390": "upad",
  "1391": ".",
  "1392": " Cor",
  "1393": "ilit",
  "1394": " mayroong",
  "1395": "dig",
  "1396": "ustr",
  "1397": " bil",
  "1398": "aban",
  "1399": "iyan",
  "1400": "alita",
  "1401": "19",
  "1402": " 14",
  "1403": "usan",
  "1404": "anta",
  "1405": "ace",
  "1406": " pagiging",
  "1407": " kanya",
  "1408": " Ed",
  "1409": " Que",
  "1410": " bas",
  "1411": " pamb",
  "1412": "ubuo",
  "1413": " Euro",
  "1414": " isina",
  "1415": " sist",
  "1416": "rol",
  "1417": "elo",
  "1418": "ission",
  "1419": "der",
  "1420": " 198",
  "1421": " lalawigan",
  "1422": "ekto",
  "1423": " bagay",
  "1424": "wang",
  "1425": "ongres",
  "1426": "ira",
  "1427": "ru",
  "1428": " It",
  "1429": "iba",
  "1430": "embro",
  "1431": "Nak",
  "1432": " drug",
  "1433": " am",
  "1434": " yo",
  "1435": " Fran",
  "1436": " Ib",
  "1437": "ict",
  "1438": "ulot",
  "1439": "imog",
  "1440": " The",
  "1441": " Mal",
  "1442": " gaya",
  "1443": " Sh",
  "1444": "royo",
  "1445": "isip",
  "1446": " miy",
  "1447": " silang",
  "1448": "ko",
  "1449": " bansang",
  "1450": " en",
  "1451": " malaking",
  "1452": " dep",
  "1453": "agu",
  "1454": " pangalan",
  "1455": " PNP",
  "1456": " 17",
  "1457": "ataas",
  "1458": " Filip",
  "1459": " ani",
  "1460": "alam",
  "1461": "ise",
  "1462": " Reg",
  "1463": " naka",
  "1464": " naturang",
  "1465": "oto",
  "1466": " gabi",
  "1467": " magb",
  "1468": " nagm",
  "1469": " miyembro",
  "1470": " Mart",
  "1471": "ahe",
  "1472": "imbawa",
  "1473": " pop",
  "1474": "overnment",
  "1475": " lim",
  "1476": " bata",
  "1477": "ati",
  "1478": "inggo",
  "1479": " Ant",
  "1480": "pital",
  "1481": " kaugnay",
  "1482": " gamit",
  "1483": "ich",
  "1484": "ibil",
  "1485": " pagsas",
  "1486": " tungkol",
  "1487": " kump",
  "1488": "ukod",
  "1489": " ngayong",
  "1490": " Co",
  "1491": " karaniwang",
  "1492": " imbestiga",
  "1493": "iwan",
  "1494": " le",
  "1495": " grupo",
  "1496": " 13",
  "1497": " have",
  "1498": "api",
  "1499": " mot",
  "1500": " dire",
  "1501": " prod",
  "1502": "iran",
  "1503": " id",
  "1504": " Rodr",
  "1505": "inam",
  "1506": "ulungan",
  "1507": " gam",
  "1508": " nga",
  "1509": "amantala",
  "1510": " lup",
  "1511": " Ts",
  "1512": " pers",
  "1513": " Pin",
  "1514": "agat",
  "1515": " Hesus",
  "1516": "anas",
  "1517": " milit",
  "1518": "olog",
  "1519": " Quezon",
  "1520": "are",
  "1521": " And",
  "1522": " Ad",
  "1523": "SA",
  "1524": "bis",
  "1525": "ouse",
  "1526": "apang",
  "1527": " ep",
  "1528": "ex",
  "1529": "akita",
  "1530": "sik",
  "1531": " senador",
  "1532": " nakik",
  "1533": "ulasyon",
  "1534": " Gu",
  "1535": "alabas",
  "1536": " inih",
  "1537": " aniya",
  "1538": "ados",
  "1539": " nangy",
  "1540": "igdig",
  "1541": "ake",
  "1542": " tal",
  "1543": " Vill",
  "1544": " Dav",
  "1545": "az",
  "1546": "indanao",
  "1547": "idos",
  "1548": " sakit",
  "1549": " trans",
  "1550": "uld",
  "1551": "ba",
  "1552": "ulta",
  "1553": " mundo",
  "1554": "agamit",
  "1555": "stit",
  "1556": "apa",
  "1557": "uct",
  "1558": " buwan",
  "1559": "iver",
  "1560": " ac",
  "1561": "au",
  "1562": " Pan",
  "1563": " reh",
  "1564": " \".",
  "1565": " Arroyo",
  "1566": " comm",
  "1567": " but",
  "1568": " nagh",
  "1569": " Estados",
  "1570": " out",
  "1571": "gy",
  "1572": " kilala",
  "1573": "ondo",
  "1574": "ber",
  "1575": " Unidos",
  "1576": "abay",
  "1577": " min",
  "1578": "arra",
  "1579": " umaga",
  "1580": " Col",
  "1581": "andid",
  "1582": "lan",
  "1583": " Pilipino",
  "1584": " ev",
  "1585": "air",
  "1586": " Val",
  "1587": " Em",
  "1588": "ugnayan",
  "1589": " Office",
  "1590": "ser",
  "1591": " :.",
  "1592": " Pag",
  "1593": "ulugan",
  "1594": "oro",
  "1595": "anay",
  "1596": " namang",
  "1597": "ikha",
  "1598": "ory",
  "1599": "alip",
  "1600": " umanong",
  "1601": "ris",
  "1602": "Ip",
  "1603": " Inter",
  "1604": " panl",
  "1605": " progr",
  "1606": " alas",
  "1607": " esp",
  "1608": "ual",
  "1609": " reg",
  "1610": "ral",
  "1611": " CO",
  "1612": "bol",
  "1613": " sec",
  "1614": "ivers",
  "1615": "kt",
  "1616": "ilos",
  "1617": "apatid",
  "1618": " ro",
  "1619": " salitang",
  "1620": " Kap",
  "1621": " neg",
  "1622": " organ",
  "1623": "ene",
  "1624": "lad",
  "1625": " Maria",
  "1626": "roup",
  "1627": "ail",
  "1628": " nagd",
  "1629": "olohiya",
  "1630": " Barangay",
  "1631": " qu",
  "1632": "unta",
  "1633": "hang",
  "1634": " bina",
  "1635": " isin",
  "1636": " Hapon",
  "1637": "uns",
  "1638": "abaw",
  "1639": "ayon",
  "1640": " oras",
  "1641": " pre",
  "1642": " Cent",
  "1643": "bing",
  "1644": " Rodrigo",
  "1645": "ihin",
  "1646": "ass",
  "1647": "olo",
  "1648": "get",
  "1649": " wikang",
  "1650": "old",
  "1651": " dro",
  "1652": "agong",
  "1653": " Hud",
  "1654": " mana",
  "1655": " Senado",
  "1656": "aralan",
  "1657": " barangay",
  "1658": " our",
  "1659": "20",
  "1660": "ehong",
  "1661": " Mga",
  "1662": "alawak",
  "1663": "ye",
  "1664": "ilo",
  "1665": " subalit",
  "1666": " paggamit",
  "1667": " Juan",
  "1668": " kanila",
  "1669": " nagl",
  "1670": " tubig",
  "1671": "ius",
  "1672": "able",
  "1673": " 30",
  "1674": "ustice",
  "1675": "ctor",
  "1676": " probl",
  "1677": " partik",
  "1678": " administr",
  "1679": "ayong",
  "1680": "alac",
  "1681": " Ser",
  "1682": " offic",
  "1683": "ick",
  "1684": "irap",
  "1685": " Lu",
  "1686": " ako",
  "1687": " sarili",
  "1688": " by",
  "1689": "ourt",
  "1690": " kasong",
  "1691": " lib",
  "1692": " tagapag",
  "1693": " Marcos",
  "1694": "ty",
  "1695": " milyon",
  "1696": "The",
  "1697": "wal",
  "1698": " des",
  "1699": " wika",
  "1700": " kont",
  "1701": " %",
  "1702": " prot",
  "1703": "eta",
  "1704": " panana",
  "1705": " pangkat",
  "1706": "eno",
  "1707": " China",
  "1708": " rep",
  "1709": "str",
  "1710": " Par",
  "1711": " DO",
  "1712": "hip",
  "1713": "ces",
  "1714": " gan",
  "1715": " tumut",
  "1716": "ilis",
  "1717": " sc",
  "1718": "awak",
  "1719": " Im",
  "1720": " rec",
  "1721": " ding",
  "1722": "ior",
  "1723": "osa",
  "1724": "ions",
  "1725": "igil",
  "1726": "ider",
  "1727": " patuloy",
  "1728": "uel",
  "1729": "itor",
  "1730": " president",
  "1731": " naglal",
  "1732": "Kabilang",
  "1733": " mod",
  "1734": "eop",
  "1735": "amatay",
  "1736": "ahin",
  "1737": " aaral",
  "1738": "alakas",
  "1739": " Republ",
  "1740": " me",
  "1741": "onal",
  "1742": " work",
  "1743": " lalo",
  "1744": " was",
  "1745": "irus",
  "1746": " trabaho",
  "1747": " muling",
  "1748": " dak",
  "1749": " big",
  "1750": " droga",
  "1751": "Samantala",
  "1752": " dahilan",
  "1753": "mitte",
  "1754": " ekonom",
  "1755": "along",
  "1756": " Ta",
  "1757": " pulisya",
  "1758": " tin",
  "1759": "uman",
  "1760": " kamp",
  "1761": " Rob",
  "1762": "uwag",
  "1763": "iwalay",
  "1764": "ipunan",
  "1765": "ome",
  "1766": " kapang",
  "1767": " Jr",
  "1768": " this",
  "1769": " imbestigasyon",
  "1770": "unay",
  "1771": " Mayor",
  "1772": "araan",
  "1773": " sel",
  "1774": "Na",
  "1775": "ft",
  "1776": " pros",
  "1777": " 197",
  "1778": " Metro",
  "1779": " Filipino",
  "1780": " ut",
  "1781": "se",
  "1782": "vest",
  "1783": " can",
  "1784": " Commission",
  "1785": "ugang",
  "1786": " nais",
  "1787": " paraan",
  "1788": "ety",
  "1789": "mittee",
  "1790": "ecut",
  "1791": " ginawa",
  "1792": " makapag",
  "1793": "RM",
  "1794": "iral",
  "1795": " kad",
  "1796": " posible",
  "1797": " US",
  "1798": " kontr",
  "1799": "ham",
  "1800": "inak",
  "1801": " mataas",
  "1802": "ley",
  "1803": "ukan",
  "1804": " siy",
  "1805": "amin",
  "1806": " Ibarra",
  "1807": "50",
  "1808": " pab",
  "1809": "ulay",
  "1810": " karamihan",
  "1811": " Jose",
  "1812": " daw",
  "1813": "udy",
  "1814": "ency",
  "1815": "Nang",
  "1816": "za",
  "1817": "anyos",
  "1818": " natin",
  "1819": "va",
  "1820": " pagkatapos",
  "1821": " panuk",
  "1822": "VID",
  "1823": "ath",
  "1824": " Ex",
  "1825": "onya",
  "1826": " mamam",
  "1827": " nar",
  "1828": " test",
  "1829": " anumang",
  "1830": " Bul",
  "1831": " huling",
  "1832": " Simb",
  "1833": " diyos",
  "1834": " pant",
  "1835": " Chief",
  "1836": "alya",
  "1837": " Senate",
  "1838": " kailangan",
  "1839": "evel",
  "1840": " Dr",
  "1841": " Sur",
  "1842": "eto",
  "1843": " Her",
  "1844": "AN",
  "1845": "ukas",
  "1846": " III",
  "1847": "ee",
  "1848": " rek",
  "1849": " House",
  "1850": "panya",
  "1851": "rit",
  "1852": " milyong",
  "1853": "irang",
  "1854": " partikular",
  "1855": "ember",
  "1856": " magiging",
  "1857": "It",
  "1858": "lor",
  "1859": " simb",
  "1860": "lim",
  "1861": "iwa",
  "1862": "ck",
  "1863": " bangk",
  "1864": " rito",
  "1865": "uti",
  "1866": " report",
  "1867": "ulu",
  "1868": "inay",
  "1869": "An",
  "1870": "uso",
  "1871": "erk",
  "1872": " Malac",
  "1873": "ile",
  "1874": " ah",
  "1875": " Arm",
  "1876": " kaw",
  "1877": "unog",
  "1878": "ne",
  "1879": " sasak",
  "1880": "ida",
  "1881": " nagtat",
  "1882": "ihinal",
  "1883": "ver",
  "1884": "isang",
  "1885": "inggil",
  "1886": " anim",
  "1887": "outh",
  "1888": "unong",
  "1889": " seksuwal",
  "1890": " Prans",
  "1891": " Mindanao",
  "1892": " mon",
  "1893": " produk",
  "1894": " resp",
  "1895": "ept",
  "1896": " }",
  "1897": "30",
  "1898": " populasyon",
  "1899": " Fer",
  "1900": "10",
  "1901": "elec",
  "1902": " Ass",
  "1903": "cho",
  "1904": " Act",
  "1905": " government",
  "1906": "ural",
  "1907": " kons",
  "1908": "uth",
  "1909": "eter",
  "1910": "emang",
  "1911": "Isang",
  "1912": " katao",
  "1913": " kasalukuyang",
  "1914": "egal",
  "1915": " Pinoy",
  "1916": " halos",
  "1917": " Ben",
  "1918": "ld",
  "1919": " from",
  "1920": " tit",
  "1921": " {",
  "1922": "PA",
  "1923": "yal",
  "1924": " bul",
  "1925": "ling",
  "1926": " Diyos",
  "1927": " san",
  "1928": "DA",
  "1929": "aganap",
  "1930": " kuw",
  "1931": " law",
  "1932": "Kung",
  "1933": "Ma",
  "1934": " dalawa",
  "1935": "ority",
  "1936": " halaga",
  "1937": " Mag",
  "1938": "aysayan",
  "1939": "isk",
  "1940": " you",
  "1941": "Gayun",
  "1942": " nakapag",
  "1943": " Bel",
  "1944": "Mar",
  "1945": " uma",
  "1946": " Lungsod",
  "1947": " Med",
  "1948": " tang",
  "1949": "ance",
  "1950": "aso",
  "1951": " For",
  "1952": " Kast",
  "1953": " 25",
  "1954": " Malacanang",
  "1955": " hil",
  "1956": "luran",
  "1957": " Katol",
  "1958": " Bas",
  "1959": "ubre",
  "1960": "amd",
  "1961": "hong",
  "1962": " ini",
  "1963": "ote",
  "1964": " pakikipag",
  "1965": " all",
  "1966": " Mayo",
  "1967": "ould",
  "1968": " mahigit",
  "1969": "hin",
  "1970": "for",
  "1971": "oe",
  "1972": " 24",
  "1973": "yente",
  "1974": " Bar",
  "1975": "Isa",
  "1976": " relih",
  "1977": " mo",
  "1978": " paghah",
  "1979": "ros",
  "1980": " simula",
  "1981": " sab",
  "1982": "ition",
  "1983": " ibin",
  "1984": " pagpapat",
  "1985": " bab",
  "1986": " sund",
  "1987": "fer",
  "1988": " krim",
  "1989": "Kas",
  "1990": " patay",
  "1991": " nakaraang",
  "1992": "anal",
  "1993": "bib",
  "1994": " Davao",
  "1995": " Lac",
  "1996": "ulit",
  "1997": " higit",
  "1998": " Kore",
  "1999": "FW",
  "2000": "rap",
  "2001": " sumus",
  "2002": " namatay",
  "2003": " do",
  "2004": "ayari",
  "2005": "yarihan",
  "2006": " mayroon",
  "2007": " Kam",
  "2008": "ormal",
  "2009": " Justice",
  "2010": " Th",
  "2011": "national",
  "2012": "leg",
  "2013": " posibleng",
  "2014": "iyano",
  "2015": " pagkaka",
  "2016": "alian",
  "2017": "dang",
  "2018": "...",
  "2019": " COVID",
  "2020": "ebr",
  "2021": " estado",
  "2022": "ales",
  "2023": "one",
  "2024": "orth",
  "2025": " sur",
  "2026": "aril",
  "2027": " gus",
  "2028": " dal",
  "2029": "ve",
  "2030": " La",
  "2031": " Enero",
  "2032": " malapit",
  "2033": "iyo",
  "2034": " nana",
  "2035": " pagkakaroon",
  "2036": " tulong",
  "2037": "akbo",
  "2038": "ihim",
  "2039": " limang",
  "2040": "inuturing",
  "2041": "vin",
  "2042": "way",
  "2043": " gawa",
  "2044": "emp",
  "2045": "FP",
  "2046": "yung",
  "2047": " lok",
  "2048": " chief",
  "2049": " nangang",
  "2050": "eksiyon",
  "2051": " kabu",
  "2052": "eople",
  "2053": " General",
  "2054": " aklat",
  "2055": " parehong",
  "2056": " kapatid",
  "2057": "alde",
  "2058": "rat",
  "2059": " matatagpuan",
  "2060": "atid",
  "2061": " ipinag",
  "2062": "UR",
  "2063": "chool",
  "2064": "toridad",
  "2065": " hinggil",
  "2066": "akt",
  "2067": "go",
  "2068": " naw",
  "2069": "agkat",
  "2070": " pis",
  "2071": "ego",
  "2072": " asawa",
  "2073": "ision",
  "2074": " pinap",
  "2075": "ismong",
  "2076": "arating",
  "2077": "low",
  "2078": "anggit",
  "2079": "angkot",
  "2080": " siglo",
  "2081": "anat",
  "2082": "eso",
  "2083": " pangang",
  "2084": " makak",
  "2085": " 21",
  "2086": "ocial",
  "2087": " Ak",
  "2088": "ier",
  "2089": " publiko",
  "2090": " hay",
  "2091": "cis",
  "2092": "rop",
  "2093": "ingi",
  "2094": "uhang",
  "2095": " halimbawa",
  "2096": " Lun",
  "2097": " bus",
  "2098": " pagkain",
  "2099": " marami",
  "2100": " Univers",
  "2101": " Mac",
  "2102": " polit",
  "2103": "ij",
  "2104": " nal",
  "2105": "iang",
  "2106": " problema",
  "2107": "mb",
  "2108": " insidente",
  "2109": " magkaroon",
  "2110": "agad",
  "2111": "ica",
  "2112": " X",
  "2113": "che",
  "2114": "alagay",
  "2115": " election",
  "2116": " ama",
  "2117": " sapagkat",
  "2118": "eho",
  "2119": " eks",
  "2120": " trad",
  "2121": " inc",
  "2122": "ese",
  "2123": "ekl",
  "2124": " put",
  "2125": "san",
  "2126": " cor",
  "2127": "ruz",
  "2128": "ild",
  "2129": "ola",
  "2130": "inangg",
  "2131": " katang",
  "2132": " war",
  "2133": "ugo",
  "2134": " militar",
  "2135": " pagsus",
  "2136": " alam",
  "2137": " pinang",
  "2138": " residente",
  "2139": "ugh",
  "2140": "ipan",
  "2141": " art",
  "2142": " Biy",
  "2143": " hina",
  "2144": "iago",
  "2145": " Europa",
  "2146": " naga",
  "2147": "lay",
  "2148": "alaman",
  "2149": " media",
  "2150": "enta",
  "2151": " stat",
  "2152": " dok",
  "2153": " no",
  "2154": "atat",
  "2155": "form",
  "2156": "unuan",
  "2157": " sy",
  "2158": "ias",
  "2159": "usap",
  "2160": " Mus",
  "2161": " Pad",
  "2162": " Presidential",
  "2163": "orta",
  "2164": "ayos",
  "2165": "eas",
  "2166": " cha",
  "2167": " ass",
  "2168": "ron",
  "2169": "ahati",
  "2170": " public",
  "2171": " Marso",
  "2172": "BA",
  "2173": "ater",
  "2174": " hom",
  "2175": " Qu",
  "2176": "isyembre",
  "2177": "di",
  "2178": " Pab",
  "2179": "ahi",
  "2180": " Griy",
  "2181": "rada",
  "2182": " pati",
  "2183": " halip",
  "2184": " Romano",
  "2185": " pamum",
  "2186": "wn",
  "2187": " Sab",
  "2188": "hel",
  "2189": " Joh",
  "2190": " maaari",
  "2191": "ihang",
  "2192": "illa",
  "2193": " awtoridad",
  "2194": "ikita",
  "2195": ".,",
  "2196": " pagm",
  "2197": " Cast",
  "2198": " agad",
  "2199": "igtas",
  "2200": " 22",
  "2201": "abu",
  "2202": " chair",
  "2203": "agaw",
  "2204": " Kastila",
  "2205": " tauhan",
  "2206": " pand",
  "2207": "ureau",
  "2208": " pans",
  "2209": " teor",
  "2210": " tel",
  "2211": " hang",
  "2212": "inis",
  "2213": " Disyembre",
  "2214": "ibl",
  "2215": " imporm",
  "2216": "ket",
  "2217": " linggo",
  "2218": " nagsas",
  "2219": "ings",
  "2220": "ataan",
  "2221": " magt",
  "2222": " u",
  "2223": " hapon",
  "2224": " ano",
  "2225": " lit",
  "2226": "iano",
  "2227": " negos",
  "2228": " kasaysayan",
  "2229": "aharap",
  "2230": "erc",
  "2231": "ash",
  "2232": " hayop",
  "2233": "ugatan",
  "2234": " panahong",
  "2235": "ute",
  "2236": " Lunes",
  "2237": " Estrada",
  "2238": " OFW",
  "2239": "Siya",
  "2240": " Bo",
  "2241": " deg",
  "2242": " ba",
  "2243": " kapwa",
  "2244": " kada",
  "2245": "Ng",
  "2246": " CE",
  "2247": " pet",
  "2248": " Cl",
  "2249": " kabila",
  "2250": "adala",
  "2251": "orld",
  "2252": "ikasyon",
  "2253": " pangkal",
  "2254": " Senador",
  "2255": "EUR",
  "2256": " sik",
  "2257": " sanhi",
  "2258": " Unit",
  "2259": "ibid",
  "2260": " bal",
  "2261": " nagkaroon",
  "2262": "kas",
  "2263": " presyo",
  "2264": " ating",
  "2265": "ated",
  "2266": "ree",
  "2267": "uwi",
  "2268": " pors",
  "2269": "ks",
  "2270": "anes",
  "2271": "Kin",
  "2272": "bibilangan",
  "2273": " 0",
  "2274": " Mon",
  "2275": " 2019",
  "2276": " their",
  "2277": " madaling",
  "2278": "lamo",
  "2279": " kur",
  "2280": " day",
  "2281": " pagka",
  "2282": "agay",
  "2283": " tuw",
  "2284": "ech",
  "2285": "ernes",
  "2286": "ibers",
  "2287": "isyong",
  "2288": " 194",
  "2289": " ginamit",
  "2290": " punt",
  "2291": " mangg",
  "2292": "undin",
  "2293": " No",
  "2294": " akt",
  "2295": "ebu",
  "2296": " Timog",
  "2297": " taga",
  "2298": "arin",
  "2299": " iyon",
  "2300": " Rey",
  "2301": " pangulo",
  "2302": "RT",
  "2303": "ea",
  "2304": " so",
  "2305": " malawak",
  "2306": "iban",
  "2307": "no",
  "2308": " Bureau",
  "2309": "asang",
  "2310": " act",
  "2311": "irm",
  "2312": " Pal",
  "2313": " bay",
  "2314": " Sam",
  "2315": " Ale",
  "2316": "insan",
  "2317": " binubuo",
  "2318": " Bagong",
  "2319": " Dire",
  "2320": " sasakyan",
  "2321": " Lacson",
  "2322": "ulin",
  "2323": "FA",
  "2324": " Hun",
  "2325": " edad",
  "2326": "ulog",
  "2327": " they",
  "2328": " ilan",
  "2329": " nakab",
  "2330": " nad",
  "2331": " os",
  "2332": " Abril",
  "2333": " Pa",
  "2334": " lokal",
  "2335": " operasyon",
  "2336": "Pero",
  "2337": "oci",
  "2338": " pinuno",
  "2339": " prop",
  "2340": " dakong",
  "2341": "une",
  "2342": "ako",
  "2343": " Francis",
  "2344": "eld",
  "2345": " kl",
  "2346": "alipas",
  "2347": " sent",
  "2348": "urity",
  "2349": " noon",
  "2350": "ys",
  "2351": " kinabibilangan",
  "2352": " kandid",
  "2353": "atayan",
  "2354": " karapat",
  "2355": " raw",
  "2356": " term",
  "2357": "uweb",
  "2358": " national",
  "2359": "aster",
  "2360": "ific",
  "2361": " Pablo",
  "2362": " nangyari",
  "2363": " susunod",
  "2364": " bo",
  "2365": "We",
  "2366": "ental",
  "2367": " 23",
  "2368": " una",
  "2369": " Martes",
  "2370": " kongres",
  "2371": " Kristiyano",
  "2372": " Biyernes",
  "2373": "ikano",
  "2374": "ules",
  "2375": " Health",
  "2376": " personal",
  "2377": "under",
  "2378": "ukat",
  "2379": "Ka",
  "2380": " kasapi",
  "2381": " baril",
  "2382": " Pac",
  "2383": " Re",
  "2384": "bong",
  "2385": " nakal",
  "2386": " paaralan",
  "2387": "ews",
  "2388": "Bag",
  "2389": "igma",
  "2390": " tunay",
  "2391": " desisyon",
  "2392": " br",
  "2393": " South",
  "2394": " kapangyarihan",
  "2395": "yu",
  "2396": "ugat",
  "2397": "antine",
  "2398": "IN",
  "2399": " Rus",
  "2400": "vestig",
  "2401": "ator",
  "2402": " Te",
  "2403": "we",
  "2404": "atlong",
  "2405": "olar",
  "2406": " Go",
  "2407": " puwesto",
  "2408": " doon",
  "2409": " Alem",
  "2410": "udget",
  "2411": "aging",
  "2412": "amat",
  "2413": " str",
  "2414": " Hindi",
  "2415": "itna",
  "2416": "ecial",
  "2417": " nakap",
  "2418": " mapag",
  "2419": " Er",
  "2420": "put",
  "2421": " Lib",
  "2422": " itinat",
  "2423": " Kamara",
  "2424": "Bukod",
  "2425": "anggol",
  "2426": "aliwanag",
  "2427": "esa",
  "2428": "erson",
  "2429": " Asya",
  "2430": " Kan",
  "2431": " Hunyo",
  "2432": " pinam",
  "2433": " police",
  "2434": " kund",
  "2435": "ocal",
  "2436": "ics",
  "2437": "opment",
  "2438": " John",
  "2439": " ne",
  "2440": "Pagk",
  "2441": " Katoliko",
  "2442": " gay",
  "2443": " inaas",
  "2444": " maliit",
  "2445": "omb",
  "2446": "EA",
  "2447": "ibig",
  "2448": " Amerika",
  "2449": " muna",
  "2450": "redo",
  "2451": "ultura",
  "2452": "izal",
  "2453": "wagan",
  "2454": " Cebu",
  "2455": " kol",
  "2456": "ampa",
  "2457": "abatas",
  "2458": " cont",
  "2459": " anyo",
  "2460": "ilosop",
  "2461": " Court",
  "2462": " Bal",
  "2463": "aryo",
  "2464": "into",
  "2465": "tong",
  "2466": " ikalawang",
  "2467": "lob",
  "2468": "uhin",
  "2469": "umpay",
  "2470": " Center",
  "2471": " Part",
  "2472": "amo",
  "2473": "igas",
  "2474": "isyo",
  "2475": "BI",
  "2476": "akan",
  "2477": "iniit",
  "2478": "osto",
  "2479": " has",
  "2480": " Ram",
  "2481": " Hil",
  "2482": " makat",
  "2483": " sinasabing",
  "2484": " itinuturing",
  "2485": "anib",
  "2486": " Miy",
  "2487": " mamamayan",
  "2488": "iyal",
  "2489": " umi",
  "2490": " Di",
  "2491": " biy",
  "2492": " kalag",
  "2493": " 196",
  "2494": "omas",
  "2495": " kahulugan",
  "2496": "eph",
  "2497": " Stat",
  "2498": "ingan",
  "2499": " resulta",
  "2500": "ph",
  "2501": "uwebes",
  "2502": " gu",
  "2503": "ktubre",
  "2504": " 26",
  "2505": "CO",
  "2506": "ria",
  "2507": "erm",
  "2508": "uwa",
  "2509": "ader",
  "2510": " agham",
  "2511": "ete",
  "2512": " Kongres",
  "2513": " University",
  "2514": " batay",
  "2515": " Arab",
  "2516": " pinan",
  "2517": "awala",
  "2518": " ganitong",
  "2519": " Oc",
  "2520": " sumusunod",
  "2521": "inala",
  "2522": " Austr",
  "2523": " Rizal",
  "2524": " Luzon",
  "2525": " Jos",
  "2526": " Ilo",
  "2527": "ution",
  "2528": "inese",
  "2529": " sang",
  "2530": " ulo",
  "2531": " 27",
  "2532": "andaigdig",
  "2533": " Supre",
  "2534": "ower",
  "2535": "ou",
  "2536": " We",
  "2537": "ulyo",
  "2538": " kakay",
  "2539": "--",
  "2540": "unlad",
  "2541": " nasawi",
  "2542": " bill",
  "2543": " pondo",
  "2544": "ebrero",
  "2545": " ospital",
  "2546": " batang",
  "2547": " lupa",
  "2548": " Mor",
  "2549": " maka",
  "2550": "angailangan",
  "2551": " samant",
  "2552": "uot",
  "2553": " magkak",
  "2554": " Director",
  "2555": " pangh",
  "2556": "eth",
  "2557": " ob",
  "2558": " Huwebes",
  "2559": " Gen",
  "2560": " impormasyon",
  "2561": "RJ",
  "2562": " tax",
  "2563": "ukol",
  "2564": " Espanya",
  "2565": "usang",
  "2566": "legal",
  "2567": " sistemang",
  "2568": " Oktubre",
  "2569": " Gre",
  "2570": " distr",
  "2571": "px",
  "2572": "pe",
  "2573": "ones",
  "2574": "bid",
  "2575": " int",
  "2576": "ady",
  "2577": " alk",
  "2578": "ject",
  "2579": "stem",
  "2580": "atuloy",
  "2581": " Miyerk",
  "2582": " mamb",
  "2583": "red",
  "2584": " sistema",
  "2585": "DO",
  "2586": "Nab",
  "2587": " muli",
  "2588": "irahan",
  "2589": " Islam",
  "2590": " coun",
  "2591": "ober",
  "2592": " sapat",
  "2593": "aysay",
  "2594": "bayan",
  "2595": "Mayro",
  "2596": "ulugang",
  "2597": " Luc",
  "2598": "obyembre",
  "2599": " rehiyon",
  "2600": "emon",
  "2601": " 28",
  "2602": " nait",
  "2603": "atin",
  "2604": " huwag",
  "2605": " Comelec",
  "2606": " pasah",
  "2607": " sol",
  "2608": " tak",
  "2609": "sman",
  "2610": " komp",
  "2611": " driver",
  "2612": " dumating",
  "2613": " Pebrero",
  "2614": "Maa",
  "2615": " sinaunang",
  "2616": " nakas",
  "2617": " Hulyo",
  "2618": " nakita",
  "2619": " harap",
  "2620": " ig",
  "2621": " kundi",
  "2622": " ipinang",
  "2623": " kongresista",
  "2624": "win",
  "2625": " high",
  "2626": " kilom",
  "2627": "ny",
  "2628": " kamatayan",
  "2629": "rael",
  "2630": " pagkakata",
  "2631": "isan",
  "2632": "ents",
  "2633": " Kongreso",
  "2634": " Cam",
  "2635": "arm",
  "2636": " Agosto",
  "2637": " his",
  "2638": "ploy",
  "2639": " kasalukuyan",
  "2640": "me",
  "2641": " Israel",
  "2642": " pinal",
  "2643": "log",
  "2644": "etyembre",
  "2645": "ras",
  "2646": " mabilis",
  "2647": " Air",
  "2648": "PO",
  "2649": " labas",
  "2650": " list",
  "2651": "vice",
  "2652": " Papa",
  "2653": " Nobyembre",
  "2654": "cess",
  "2655": " bagaman",
  "2656": "Tinat",
  "2657": "ium",
  "2658": " Lima",
  "2659": "ause",
  "2660": "uga",
  "2661": "arl",
  "2662": " ph",
  "2663": " Makat",
  "2664": " Tsina",
  "2665": "vers",
  "2666": "inding",
  "2667": " official",
  "2668": " kaysa",
  "2669": "zo",
  "2670": "uko",
  "2671": " Muslim",
  "2672": "ther",
  "2673": " Const",
  "2674": " sundalo",
  "2675": " Cruz",
  "2676": " Min",
  "2677": " Per",
  "2678": "inagd",
  "2679": "com",
  "2680": "unity",
  "2681": " tumat",
  "2682": " ekonomiya",
  "2683": " North",
  "2684": "yc",
  "2685": " order",
  "2686": " kasi",
  "2687": " pw",
  "2688": " Bibl",
  "2689": "por",
  "2690": "elik",
  "2691": " Setyembre",
  "2692": "ely",
  "2693": " Distr",
  "2694": "aker",
  "2695": "ospital",
  "2696": "rob",
  "2697": " panay",
  "2698": "rel",
  "2699": " chairman",
  "2700": " tah",
  "2701": " pagbabago",
  "2702": "utang",
  "2703": "olit",
  "2704": " magd",
  "2705": " shabu",
  "2706": "igm",
  "2707": "line",
  "2708": "CE",
  "2709": " Jo",
  "2710": "arangan",
  "2711": "ico",
  "2712": " gamot",
  "2713": " sag",
  "2714": " indibid",
  "2715": " who",
  "2716": " tinut",
  "2717": "unic",
  "2718": " 193",
  "2719": "Ina",
  "2720": "ideo",
  "2721": " Mas",
  "2722": "asaad",
  "2723": " maip",
  "2724": "umbas",
  "2725": " pangy",
  "2726": " net",
  "2727": " Gar",
  "2728": "abagong",
  "2729": " Sy",
  "2730": " samantalang",
  "2731": "TV",
  "2732": " $",
  "2733": " group",
  "2734": "ning",
  "2735": " International",
  "2736": " huk",
  "2737": " nagmula",
  "2738": " Makati",
  "2739": " lin",
  "2740": "ubong",
  "2741": " Cal",
  "2742": "irma",
  "2743": "otto",
  "2744": "ahal",
  "2745": " pah",
  "2746": "ora",
  "2747": "irst",
  "2748": " kinal",
  "2749": "ecutive",
  "2750": " naganap",
  "2751": "otoh",
  "2752": " posisyon",
  "2753": "ven",
  "2754": "uto",
  "2755": "ibang",
  "2756": " 2016",
  "2757": " kaniya",
  "2758": "okes",
  "2759": " gawain",
  "2760": " sit",
  "2761": "isasyon",
  "2762": "12",
  "2763": " sek",
  "2764": " yung",
  "2765": " Panelo",
  "2766": " malakas",
  "2767": " Bayan",
  "2768": " espes",
  "2769": " krimen",
  "2770": " reb",
  "2771": " arm",
  "2772": "list",
  "2773": "ank",
  "2774": " quar",
  "2775": "vestigation",
  "2776": " Lag",
  "2777": "ibigan",
  "2778": "ices",
  "2779": " Santiago",
  "2780": " pera",
  "2781": "usa",
  "2782": "let",
  "2783": "alig",
  "2784": "ican",
  "2785": "cial",
  "2786": " estudy",
  "2787": "taas",
  "2788": " comp",
  "2789": "ega",
  "2790": "Hal",
  "2791": " my",
  "2792": " there",
  "2793": " pinat",
  "2794": "ense",
  "2795": "irapan",
  "2796": "aloob",
  "2797": " any",
  "2798": "alasang",
  "2799": " pinaka",
  "2800": " Law",
  "2801": " korte",
  "2802": "paman",
  "2803": "aresto",
  "2804": "upa",
  "2805": " Anton",
  "2806": " simbahan",
  "2807": "ames",
  "2808": " Simbahang",
  "2809": " paliwanag",
  "2810": " babaeng",
  "2811": " ebid",
  "2812": " layun",
  "2813": " magulang",
  "2814": " pagg",
  "2815": " kaugnayan",
  "2816": " pasahero",
  "2817": " lider",
  "2818": " 100",
  "2819": "itaw",
  "2820": "count",
  "2821": " Sabado",
  "2822": " pangkalahat",
  "2823": "work",
  "2824": " tawag",
  "2825": " Kah",
  "2826": " serbis",
  "2827": " mambabatas",
  "2828": " Norte",
  "2829": " ih",
  "2830": " PA",
  "2831": " es",
  "2832": "istang",
  "2833": " ginagawa",
  "2834": " Trans",
  "2835": "okesman",
  "2836": " Villar",
  "2837": " Region",
  "2838": " impl",
  "2839": " Chinese",
  "2840": "oss",
  "2841": " cons",
  "2842": " Ber",
  "2843": " kabuuang",
  "2844": " nagbibigay",
  "2845": " panayam",
  "2846": " sariling",
  "2847": "11",
  "2848": " timog",
  "2849": " er",
  "2850": " isyu",
  "2851": " Res",
  "2852": "inawag",
  "2853": "gar",
  "2854": " nin",
  "2855": "ca",
  "2856": " Padre",
  "2857": " kalak",
  "2858": "ueva",
  "2859": "uty",
  "2860": " gumagamit",
  "2861": "iro",
  "2862": "alaan",
  "2863": "etr",
  "2864": " 2010",
  "2865": " umabot",
  "2866": "PD",
  "2867": " pagbibigay",
  "2868": " team",
  "2869": " Zamb",
  "2870": " emp",
  "2871": " pangalang",
  "2872": "Gina",
  "2873": " time",
  "2874": "mula",
  "2875": "aly",
  "2876": "ilalim",
  "2877": " surv",
  "2878": " tumutukoy",
  "2879": "Matat",
  "2880": " nagkak",
  "2881": "acan",
  "2882": "aki",
  "2883": "ffair",
  "2884": "IS",
  "2885": " pook",
  "2886": "ade",
  "2887": " dugo",
  "2888": "ahalaga",
  "2889": " magh",
  "2890": " mus",
  "2891": " pagtut",
  "2892": " Cay",
  "2893": "mbud",
  "2894": "ukl",
  "2895": "Ngunit",
  "2896": " Imper",
  "2897": "ask",
  "2898": " Bud",
  "2899": "abog",
  "2900": "mbudsman",
  "2901": " budget",
  "2902": " pilosop",
  "2903": " kailangang",
  "2904": " pagdinig",
  "2905": " pinakamalaking",
  "2906": " nangangah",
  "2907": "ner",
  "2908": "pany",
  "2909": " United",
  "2910": " karagdag",
  "2911": " rad",
  "2912": "illanes",
  "2913": " video",
  "2914": " Roque",
  "2915": "itnang",
  "2916": " pagsis",
  "2917": "ugon",
  "2918": " Griyego",
  "2919": " Vic",
  "2920": " ginaga",
  "2921": "ame",
  "2922": " gayundin",
  "2923": "ua",
  "2924": " sand",
  "2925": " bec",
  "2926": " kamay",
  "2927": "Bilang",
  "2928": "wit",
  "2929": "anteng",
  "2930": " Ombudsman",
  "2931": " wid",
  "2932": "usugan",
  "2933": " Ra",
  "2934": " 29",
  "2935": " Kas",
  "2936": " Mat",
  "2937": " pay",
  "2938": " Brgy",
  "2939": " Trillanes",
  "2940": "banghel",
  "2941": "ced",
  "2942": " huli",
  "2943": " committee",
  "2944": " Kar",
  "2945": "ubalit",
  "2946": " ginawang",
  "2947": " katangian",
  "2948": " pagkakataon",
  "2949": "ensya",
  "2950": "ingin",
  "2951": "amba",
  "2952": "nar",
  "2953": " sana",
  "2954": " Mo",
  "2955": "ffairs",
  "2956": " 50",
  "2957": " Lab",
  "2958": " Christ",
  "2959": "natili",
  "2960": "utos",
  "2961": "unga",
  "2962": "ipon",
  "2963": "hiya",
  "2964": " Cav",
  "2965": "IA",
  "2966": " tanging",
  "2967": "iwasan",
  "2968": "emat",
  "2969": " paglabag",
  "2970": " silangan",
  "2971": " Group",
  "2972": " Bat",
  "2973": " gulang",
  "2974": "rub",
  "2975": " car",
  "2976": " Korea",
  "2977": "amay",
  "2978": " sinabing",
  "2979": " bakit",
  "2980": "evelopment",
  "2981": "ook",
  "2982": "16",
  "2983": "ilalang",
  "2984": "ibay",
  "2985": " width",
  "2986": " salita",
  "2987": " tiyak",
  "2988": " Santos",
  "2989": " Os",
  "2990": "rus",
  "2991": " paglal",
  "2992": "uy",
  "2993": " Pol",
  "2994": "cent",
  "2995": "LE",
  "2996": "atag",
  "2997": "elf",
  "2998": "ander",
  "2999": " 40",
  "3000": " people",
  "3001": " Binay",
  "3002": "xas",
  "3003": "lin",
  "3004": "ungkahi",
  "3005": "net",
  "3006": " kanluran",
  "3007": "alin",
  "3008": "abil",
  "3009": "iment",
  "3010": " kandidato",
  "3011": "ts",
  "3012": "ights",
  "3013": " napak",
  "3014": " Development",
  "3015": " pananal",
  "3016": " antas",
  "3017": "ulak",
  "3018": " proseso",
  "3019": "init",
  "3020": " Bibliya",
  "3021": " estudyante",
  "3022": "kan",
  "3023": "eklara",
  "3024": "Mag",
  "3025": " proy",
  "3026": " Italya",
  "3027": " sibil",
  "3028": " kond",
  "3029": " Pransiya",
  "3030": " illegal",
  "3031": " Ped",
  "3032": "agsak",
  "3033": "irit",
  "3034": "ton",
  "3035": "cia",
  "3036": " Cong",
  "3037": " Da",
  "3038": "ilia",
  "3039": "igmaan",
  "3040": "each",
  "3041": "Gayunpaman",
  "3042": " Ik",
  "3043": " Antonio",
  "3044": "unti",
  "3045": " kulay",
  "3046": "anggapan",
  "3047": "Id",
  "3048": "inagdag",
  "3049": "etano",
  "3050": " ent",
  "3051": "utok",
  "3052": " Roxas",
  "3053": " year",
  "3054": " relihiyon",
  "3055": " hen",
  "3056": "iao",
  "3057": " pe",
  "3058": " operation",
  "3059": " pagpatay",
  "3060": " him",
  "3061": "inap",
  "3062": " gumawa",
  "3063": " World",
  "3064": "15",
  "3065": " Tipan",
  "3066": "inar",
  "3067": " isinas",
  "3068": " epekto",
  "3069": "ilipat",
  "3070": " elections",
  "3071": " sing",
  "3072": " Salv",
  "3073": " cent",
  "3074": " Linggo",
  "3075": " Palas",
  "3076": "inasyon",
  "3077": " tayo",
  "3078": " alkalde",
  "3079": "ates",
  "3080": "igmaang",
  "3081": " AFP",
  "3082": "raft",
  "3083": "amil",
  "3084": "ike",
  "3085": " Fernan",
  "3086": "unayan",
  "3087": " Robredo",
  "3088": " gamitin",
  "3089": "ology",
  "3090": "cil",
  "3091": " namin",
  "3092": "igal",
  "3093": " Apr",
  "3094": " Ba",
  "3095": " komun",
  "3096": " Ros",
  "3097": " Ka",
  "3098": " halalan",
  "3099": " social",
  "3100": " puntos",
  "3101": " pangm",
  "3102": "\".",
  "3103": "isita",
  "3104": " gagaw",
  "3105": "akda",
  "3106": " nanin",
  "3107": "andaan",
  "3108": " sinus",
  "3109": " Rev",
  "3110": " naglalaman",
  "3111": " one",
  "3112": " panukala",
  "3113": " District",
  "3114": "Subalit",
  "3115": " Hudyo",
  "3116": " tut",
  "3117": " vs",
  "3118": " ibig",
  "3119": " magsas",
  "3120": " bit",
  "3121": " pagkab",
  "3122": "tra",
  "3123": " Associ",
  "3124": "nel",
  "3125": " orihinal",
  "3126": "uction",
  "3127": "igr",
  "3128": " kilometro",
  "3129": " kop",
  "3130": " abo",
  "3131": " \\",
  "3132": " arr",
  "3133": "rer",
  "3134": "inga",
  "3135": " kasunod",
  "3136": " nagsis",
  "3137": "ke",
  "3138": " nagsimula",
  "3139": " Bl",
  "3140": " Poe",
  "3141": "oll",
  "3142": "ious",
  "3143": " Miyerkules",
  "3144": " party",
  "3145": "ous",
  "3146": "aranas",
  "3147": " kadalasang",
  "3148": " dip",
  "3149": "CA",
  "3150": "ward",
  "3151": " Batang",
  "3152": " ebol",
  "3153": " health",
  "3154": "vis",
  "3155": "unin",
  "3156": " parang",
  "3157": " Japan",
  "3158": " Cana",
  "3159": " magl",
  "3160": "sp",
  "3161": " PO",
  "3162": "eses",
  "3163": " Fr",
  "3164": " bilyon",
  "3165": " tuwing",
  "3166": " West",
  "3167": "araniwang",
  "3168": "imulan",
  "3169": " Ir",
  "3170": " anti",
  "3171": " Ec",
  "3172": " tama",
  "3173": " industr",
  "3174": " pelik",
  "3175": " Cayetano",
  "3176": "GA",
  "3177": "tain",
  "3178": " lalaking",
  "3179": " sk",
  "3180": "akay",
  "3181": " Sta",
  "3182": " modern",
  "3183": "ella",
  "3184": " Albay",
  "3185": "iwas",
  "3186": " talaga",
  "3187": " Pamp",
  "3188": " Nap",
  "3189": " Sol",
  "3190": "uin",
  "3191": " Sand",
  "3192": "antaon",
  "3193": " Har",
  "3194": "sh",
  "3195": " Kab",
  "3196": "ersa",
  "3197": " resol",
  "3198": " et",
  "3199": "los",
  "3200": "mpal",
  "3201": "ahagi",
  "3202": "ilid",
  "3203": "enteng",
  "3204": " survey",
  "3205": " Palasyo",
  "3206": "iks",
  "3207": "esta",
  "3208": "mon",
  "3209": "uthority",
  "3210": "anagement",
  "3211": "atch",
  "3212": " manlal",
  "3213": " kontra",
  "3214": " hangga",
  "3215": " reklamo",
  "3216": " larangan",
  "3217": "ister",
  "3218": "uch",
  "3219": " tanggapan",
  "3220": " Sc",
  "3221": " programa",
  "3222": " Jud",
  "3223": " virus",
  "3224": "enda",
  "3225": "ization",
  "3226": " Nag",
  "3227": " Supt",
  "3228": " air",
  "3229": "iam",
  "3230": " Dam",
  "3231": " bala",
  "3232": " Affairs",
  "3233": "indol",
  "3234": " unit",
  "3235": "igang",
  "3236": " pananaw",
  "3237": " fl",
  "3238": " inf",
  "3239": " program",
  "3240": " malaki",
  "3241": "ivision",
  "3242": " bot",
  "3243": " lumabas",
  "3244": " respons",
  "3245": "ubo",
  "3246": "oles",
  "3247": " patungo",
  "3248": "unting",
  "3249": "entong",
  "3250": "banghelyo",
  "3251": "utusan",
  "3252": " kala",
  "3253": " panukalang",
  "3254": "reat",
  "3255": " Mate",
  "3256": " gawin",
  "3257": "ikan",
  "3258": " tungkulin",
  "3259": " Ayon",
  "3260": "akit",
  "3261": "lano",
  "3262": "Bagaman",
  "3263": "utin",
  "3264": " bangkay",
  "3265": "ios",
  "3266": " Kal",
  "3267": "Nags",
  "3268": " kw",
  "3269": "entino",
  "3270": "uck",
  "3271": " Bu",
  "3272": " sabihin",
  "3273": " administrasyon",
  "3274": " Kom",
  "3275": "lurang",
  "3276": " nagbigay",
  "3277": " galing",
  "3278": " Jan",
  "3279": " kinat",
  "3280": " Agu",
  "3281": "iklo",
  "3282": " kinas",
  "3283": " paano",
  "3284": " gitna",
  "3285": "ono",
  "3286": " pagtaas",
  "3287": " output",
  "3288": " kawalan",
  "3289": "ahay",
  "3290": " met",
  "3291": "ihirap",
  "3292": " daigdig",
  "3293": "atupad",
  "3294": "amot",
  "3295": " Mateo",
  "3296": " case",
  "3297": "ody",
  "3298": "umpirma",
  "3299": "its",
  "3300": "over",
  "3301": " dagat",
  "3302": "resent",
  "3303": "alala",
  "3304": " ibinigay",
  "3305": "umento",
  "3306": " ari",
  "3307": " legal",
  "3308": "ebisyon",
  "3309": "ardo",
  "3310": " tek",
  "3311": " empley",
  "3312": " det",
  "3313": " sumunod",
  "3314": " [",
  "3315": " seg",
  "3316": "alakay",
  "3317": " 2018",
  "3318": "Aniya",
  "3319": " Hilagang",
  "3320": " pinagm",
  "3321": "iyento",
  "3322": " dem",
  "3323": " dib",
  "3324": " Atty",
  "3325": "unal",
  "3326": " klas",
  "3327": "ublic",
  "3328": " tulu",
  "3329": " beses",
  "3330": "akalawa",
  "3331": "mar",
  "3332": " ipinanganak",
  "3333": " Committee",
  "3334": "aaral",
  "3335": " serbisyo",
  "3336": " palabas",
  "3337": "idel",
  "3338": "Nil",
  "3339": " kami",
  "3340": " mait",
  "3341": " kalihim",
  "3342": " countr",
  "3343": " sangkot",
  "3344": " kinak",
  "3345": "ugis",
  "3346": "oso",
  "3347": "onan",
  "3348": "Th",
  "3349": " ener",
  "3350": "iin",
  "3351": "nd",
  "3352": " Vice",
  "3353": "par",
  "3354": " Nav",
  "3355": " nabanggit",
  "3356": " TV",
  "3357": "araw",
  "3358": " eduk",
  "3359": " paggawa",
  "3360": "inab",
  "3361": " security",
  "3362": " tur",
  "3363": " umiiral",
  "3364": " Party",
  "3365": " exp",
  "3366": "Al",
  "3367": " them",
  "3368": "unduan",
  "3369": " 190",
  "3370": "enez",
  "3371": " school",
  "3372": "here",
  "3373": "Una",
  "3374": " guro",
  "3375": "BS",
  "3376": " go",
  "3377": " 31",
  "3378": "atig",
  "3379": " Roma",
  "3380": "ffic",
  "3381": " laro",
  "3382": " Santa",
  "3383": "upt",
  "3384": "erto",
  "3385": "usay",
  "3386": " mayor",
  "3387": " Tur",
  "3388": "gado",
  "3389": " Joseph",
  "3390": "unto",
  "3391": " katumbas",
  "3392": "antay",
  "3393": " indibidwal",
  "3394": "mpalatay",
  "3395": " naunang",
  "3396": " daan",
  "3397": "ink",
  "3398": " Bor",
  "3399": " system",
  "3400": "ative",
  "3401": " lupain",
  "3402": "IT",
  "3403": "yonal",
  "3404": " papel",
  "3405": "17",
  "3406": " mahalagang",
  "3407": " Ol",
  "3408": " Coun",
  "3409": " base",
  "3410": "ities",
  "3411": "olohikal",
  "3412": " Kristiyan",
  "3413": " pangg",
  "3414": "eaker",
  "3415": " Rosa",
  "3416": " hinah",
  "3417": "Nan",
  "3418": "eksyon",
  "3419": " Be",
  "3420": " more",
  "3421": " should",
  "3422": " lipunan",
  "3423": "Mga",
  "3424": " kinaka",
  "3425": " Abu",
  "3426": " dek",
  "3427": " Dom",
  "3428": " would",
  "3429": "ani",
  "3430": " tinatayang",
  "3431": " empleyado",
  "3432": "now",
  "3433": "esis",
  "3434": "illion",
  "3435": " post",
  "3436": " 195",
  "3437": "ayat",
  "3438": " real",
  "3439": " BCE",
  "3440": " manlalaro",
  "3441": " Pamb",
  "3442": "ets",
  "3443": " Ehip",
  "3444": " sino",
  "3445": "Batay",
  "3446": "rang",
  "3447": " ahensiya",
  "3448": " hel",
  "3449": " Sina",
  "3450": " pari",
  "3451": "At",
  "3452": "uting",
  "3453": "Nagp",
  "3454": " kamakalawa",
  "3455": " pagkamatay",
  "3456": " Tor",
  "3457": " Sept",
  "3458": " pitong",
  "3459": " Ac",
  "3460": "rod",
  "3461": " likod",
  "3462": " sunod",
  "3463": " Army",
  "3464": "ansin",
  "3465": "usin",
  "3466": " maaring",
  "3467": " ukol",
  "3468": "ives",
  "3469": " Batas",
  "3470": "isay",
  "3471": " nagbab",
  "3472": " account",
  "3473": " Rec",
  "3474": " Cap",
  "3475": "emor",
  "3476": "BN",
  "3477": " Bulacan",
  "3478": " kor",
  "3479": "Halimbawa",
  "3480": " Port",
  "3481": "mot",
  "3482": " 2017",
  "3483": "Pagkatapos",
  "3484": " area",
  "3485": " kilalang",
  "3486": "aks",
  "3487": " madalas",
  "3488": " gawaing",
  "3489": "ied",
  "3490": " because",
  "3491": " Amerikano",
  "3492": "ather",
  "3493": "ound",
  "3494": "omo",
  "3495": "ever",
  "3496": " Presidente",
  "3497": " pambansang",
  "3498": " again",
  "3499": " layunin",
  "3500": " nagiging",
  "3501": " if",
  "3502": " matinding",
  "3503": " kaibigan",
  "3504": "akip",
  "3505": "intay",
  "3506": "ale",
  "3507": "unahan",
  "3508": " kampanya",
  "3509": " che",
  "3510": "nas",
  "3511": "oot",
  "3512": " puno",
  "3513": " local",
  "3514": "imulang",
  "3515": " saad",
  "3516": "Ulat",
  "3517": " makab",
  "3518": " patak",
  "3519": " Cavite",
  "3520": "eration",
  "3521": "igpit",
  "3522": " katut",
  "3523": " Pat",
  "3524": " Silangang",
  "3525": "oms",
  "3526": " her",
  "3527": "ugto",
  "3528": " teritor",
  "3529": "point",
  "3530": " tahanan",
  "3531": " press",
  "3532": " lakas",
  "3533": " ug",
  "3534": " samp",
  "3535": "SO",
  "3536": "orsiklo",
  "3537": "law",
  "3538": " Kaharian",
  "3539": "erg",
  "3540": " produkto",
  "3541": "LA",
  "3542": "anaw",
  "3543": " lindol",
  "3544": "oseksuwal",
  "3545": " pangyayari",
  "3546": "kop",
  "3547": "Tum",
  "3548": "iew",
  "3549": " dec",
  "3550": " gas",
  "3551": " kababa",
  "3552": "leng",
  "3553": "ahok",
  "3554": "ukt",
  "3555": " panin",
  "3556": "bispo",
  "3557": "alal",
  "3558": " pumasok",
  "3559": "25",
  "3560": " Regional",
  "3561": " usap",
  "3562": "inong",
  "3563": "Para",
  "3564": "ugod",
  "3565": "45",
  "3566": " kalagayan",
  "3567": "eep",
  "3568": " Camp",
  "3569": " sukat",
  "3570": "agumpay",
  "3571": " bagyo",
  "3572": " Korte",
  "3573": "anggi",
  "3574": "echn",
  "3575": "arez",
  "3576": " import",
  "3577": "yn",
  "3578": " manggagawa",
  "3579": " tinang",
  "3580": "II",
  "3581": "RA",
  "3582": " Latin",
  "3583": " inihayag",
  "3584": " muk",
  "3585": " minsan",
  "3586": "mer",
  "3587": " Pedro",
  "3588": "Kapag",
  "3589": " se",
  "3590": "urs",
  "3591": "yat",
  "3592": " Alex",
  "3593": " Lor",
  "3594": " +",
  "3595": "itibo",
  "3596": "aint",
  "3597": " inaasahang",
  "3598": "ness",
  "3599": " bandang",
  "3600": "uda",
  "3601": "atayo",
  "3602": " Administr",
  "3603": "CC",
  "3604": " Esp",
  "3605": "vincial",
  "3606": "virus",
  "3607": " Mic",
  "3608": " tamang",
  "3609": "yer",
  "3610": " its",
  "3611": " nai",
  "3612": "Nabatid",
  "3613": "perador",
  "3614": " just",
  "3615": " Cab",
  "3616": "unsad",
  "3617": " tar",
  "3618": " idin",
  "3619": "ibilidad",
  "3620": " Mad",
  "3621": "eachment",
  "3622": " Esc",
  "3623": " makikita",
  "3624": " Pero",
  "3625": " proyekto",
  "3626": " director",
  "3627": "Kaya",
  "3628": "Ar",
  "3629": " pagdating",
  "3630": "iyas",
  "3631": " pampubl",
  "3632": "mw",
  "3633": " 2007",
  "3634": " digmaan",
  "3635": " mababang",
  "3636": " sul",
  "3637": " pananak",
  "3638": "ports",
  "3639": " Def",
  "3640": "TO",
  "3641": " paglil",
  "3642": " inilabas",
  "3643": " Glor",
  "3644": " Char",
  "3645": " labis",
  "3646": " Kapitan",
  "3647": "ix",
  "3648": " record",
  "3649": " Mig",
  "3650": "TA",
  "3651": "antong",
  "3652": " Tag",
  "3653": " sas",
  "3654": "iriwang",
  "3655": "lass",
  "3656": " sint",
  "3657": "enz",
  "3658": "ucation",
  "3659": " Public",
  "3660": " manun",
  "3661": "Tinatawag",
  "3662": "ode",
  "3663": " aks",
  "3664": " punong",
  "3665": "ock",
  "3666": " bukas",
  "3667": " Lim",
  "3668": " Pana",
  "3669": "bit",
  "3670": "con",
  "3671": " ide",
  "3672": " hilagang",
  "3673": " makaraang",
  "3674": "fr",
  "3675": "ising",
  "3676": "ention",
  "3677": "ension",
  "3678": " pinaniniwala",
  "3679": " imper",
  "3680": " nakuha",
  "3681": " parser",
  "3682": " iligal",
  "3683": " Republika",
  "3684": " Sing",
  "3685": " hak",
  "3686": " porsiyento",
  "3687": " hangin",
  "3688": " pagga",
  "3689": " High",
  "3690": " teror",
  "3691": "ibersidad",
  "3692": "ortahan",
  "3693": " iyong",
  "3694": " hep",
  "3695": " Britan",
  "3696": " Speaker",
  "3697": "Lum",
  "3698": "ibigyan",
  "3699": "yas",
  "3700": " Batangas",
  "3701": "onavirus",
  "3702": " Sum",
  "3703": "agalog",
  "3704": "robers",
  "3705": " PD",
  "3706": " app",
  "3707": " mangy",
  "3708": "undan",
  "3709": " Senator",
  "3710": "amahala",
  "3711": " nalal",
  "3712": " Kristiyanismo",
  "3713": " bukod",
  "3714": "ungong",
  "3715": " pangkalahatang",
  "3716": "TC",
  "3717": " itinatag",
  "3718": "hen",
  "3719": " Drug",
  "3720": " pulo",
  "3721": " tinawag",
  "3722": " Malays",
  "3723": "rant",
  "3724": "iwalang",
  "3725": " makap",
  "3726": "ikos",
  "3727": "18",
  "3728": " Sotto",
  "3729": "imentel",
  "3730": "asya",
  "3731": " ikatlong",
  "3732": " prib",
  "3733": "bab",
  "3734": " pil",
  "3735": "PNP",
  "3736": " lub",
  "3737": " akda",
  "3738": "istan",
  "3739": "iliit",
  "3740": "aEUR",
  "3741": " imb",
  "3742": " Del",
  "3743": "urong",
  "3744": "ensiyang",
  "3745": ");",
  "3746": "ando",
  "3747": "uporta",
  "3748": " motorsiklo",
  "3749": "ilbing",
  "3750": " Mont",
  "3751": "quiao",
  "3752": "Wala",
  "3753": " Pimentel",
  "3754": " men",
  "3755": "39",
  "3756": " Don",
  "3757": " Republic",
  "3758": " mor",
  "3759": " karapatan",
  "3760": "ope",
  "3761": " court",
  "3762": " pinas",
  "3763": " Tagalog",
  "3764": " nangangahulugang",
  "3765": " Alb",
  "3766": " pamant",
  "3767": "ipiko",
  "3768": " Inc",
  "3769": "agayan",
  "3770": " over",
  "3771": "uon",
  "3772": "awid",
  "3773": "Um",
  "3774": " pinags",
  "3775": " talagang",
  "3776": " tra",
  "3777": "Sin",
  "3778": "22",
  "3779": " sah",
  "3780": "Tr",
  "3781": "hed",
  "3782": " Nov",
  "3783": " been",
  "3784": " Indones",
  "3785": " eh",
  "3786": "enyo",
  "3787": " malaman",
  "3788": "ole",
  "3789": " listahan",
  "3790": "ease",
  "3791": " napatay",
  "3792": " krit",
  "3793": "oma",
  "3794": "inabang",
  "3795": " Ig",
  "3796": " Island",
  "3797": " pagbub",
  "3798": " 189",
  "3799": " ret",
  "3800": "atura",
  "3801": " Pranses",
  "3802": " modernong",
  "3803": "ilbi",
  "3804": "risis",
  "3805": " ugnayan",
  "3806": " Authority",
  "3807": "okesp",
  "3808": "ipat",
  "3809": " Digmaang",
  "3810": "app",
  "3811": " Nagk",
  "3812": " ipinat",
  "3813": "utas",
  "3814": " gusto",
  "3815": " baka",
  "3816": " kabataan",
  "3817": "Habang",
  "3818": "Nap",
  "3819": " nagpapat",
  "3820": " cas",
  "3821": "edeng",
  "3822": "ograp",
  "3823": "akailan",
  "3824": "yag",
  "3825": "otohanan",
  "3826": "istro",
  "3827": "okesperson",
  "3828": " gusali",
  "3829": "isina",
  "3830": " plan",
  "3831": " Say",
  "3832": "akdang",
  "3833": "ull",
  "3834": " Council",
  "3835": " ganap",
  "3836": " Bay",
  "3837": " mismo",
  "3838": " nakah",
  "3839": " FRJ",
  "3840": "CP",
  "3841": " Pacquiao",
  "3842": " motor",
  "3843": " plano",
  "3844": "enn",
  "3845": " ts",
  "3846": " 60",
  "3847": "usahan",
  "3848": "14",
  "3849": " ipinap",
  "3850": "urg",
  "3851": " also",
  "3852": " fund",
  "3853": " were",
  "3854": "forc",
  "3855": "ference",
  "3856": "ede",
  "3857": " project",
  "3858": " sakay",
  "3859": " esk",
  "3860": " paniniwala",
  "3861": " kontrobers",
  "3862": " Gloria",
  "3863": "ukuha",
  "3864": "ibak",
  "3865": " 2013",
  "3866": " presidential",
  "3867": " lumitaw",
  "3868": " employ",
  "3869": " pangung",
  "3870": "ensiyon",
  "3871": "eron",
  "3872": " Angel",
  "3873": " isk",
  "3874": " impeachment",
  "3875": "CR",
  "3876": " kahirapan",
  "3877": " Unang",
  "3878": " quarantine",
  "3879": "rip",
  "3880": " play",
  "3881": " Force",
  "3882": " Reyes",
  "3883": " sunog",
  "3884": " Laguna",
  "3885": " pakikipagt",
  "3886": "Nasa",
  "3887": "dez",
  "3888": " hakbang",
  "3889": " kuryente",
  "3890": " Silangan",
  "3891": " |",
  "3892": " dela",
  "3893": " suporta",
  "3894": " kaagad",
  "3895": "atibo",
  "3896": "olitika",
  "3897": "alia",
  "3898": " human",
  "3899": " naniniwala",
  "3900": "ikayat",
  "3901": " binab",
  "3902": " natatang",
  "3903": " sulat",
  "3904": "isis",
  "3905": "stitusyon",
  "3906": " want",
  "3907": "Gayunman",
  "3908": " pagkakas",
  "3909": "wasyon",
  "3910": " Suprema",
  "3911": "idd",
  "3912": " telebisyon",
  "3913": "anatili",
  "3914": "aksiyon",
  "3915": "dinan",
  "3916": " land",
  "3917": " sens",
  "3918": " Int",
  "3919": " nakalipas",
  "3920": " spec",
  "3921": "ball",
  "3922": "ney",
  "3923": "ipin",
  "3924": " 2009",
  "3925": " sining",
  "3926": " Zambo",
  "3927": "Nat",
  "3928": "Ig",
  "3929": " NA",
  "3930": "Hin",
  "3931": " hari",
  "3932": " percent",
  "3933": " coronavirus",
  "3934": " Vi",
  "3935": " community",
  "3936": "sada",
  "3937": " teritoryo",
  "3938": " other",
  "3939": " sakop",
  "3940": "idong",
  "3941": " contr",
  "3942": "ania",
  "3943": " Miguel",
  "3944": "Naging",
  "3945": " maayos",
  "3946": "amas",
  "3947": "undok",
  "3948": " Aprika",
  "3949": "upong",
  "3950": " hist",
  "3951": " Marawi",
  "3952": "li",
  "3953": "Mayroon",
  "3954": " Constant",
  "3955": "ilio",
  "3956": "oreign",
  "3957": " tila",
  "3958": "Inih",
  "3959": " first",
  "3960": "ange",
  "3961": "ingnan",
  "3962": " dina",
  "3963": " Ge",
  "3964": " matemat",
  "3965": " kultura",
  "3966": " SA",
  "3967": " hinih",
  "3968": " gen",
  "3969": " organismo",
  "3970": " cond",
  "3971": " mais",
  "3972": "natiling",
  "3973": " bro",
  "3974": "itiw",
  "3975": "aha",
  "3976": " abogado",
  "3977": " mata",
  "3978": " makita",
  "3979": " under",
  "3980": " ipinak",
  "3981": " kuwento",
  "3982": " Kons",
  "3983": "bin",
  "3984": "unsod",
  "3985": " assist",
  "3986": " cell",
  "3987": " pangangailangan",
  "3988": "bon",
  "3989": " Simbahan",
  "3990": " &",
  "3991": " Aklat",
  "3992": "apekt",
  "3993": " ipinal",
  "3994": " att",
  "3995": " good",
  "3996": " country",
  "3997": " IV",
  "3998": "insala",
  "3999": "awalan",
  "4000": " Cagayan",
  "4001": "rot",
  "4002": "angh",
  "4003": "udi",
  "4004": " Asia",
  "4005": " balat",
  "4006": " Garcia",
  "4007": " makipag",
  "4008": "erong",
  "4009": " kabis",
  "4010": " All",
  "4011": " dekada",
  "4012": "eda",
  "4013": "ota",
  "4014": " tig",
  "4015": " nau",
  "4016": " Pasay",
  "4017": " Pampanga",
  "4018": " kalusugan",
  "4019": "iyahan",
  "4020": " darating",
  "4021": " pagkakaiba",
  "4022": " kailan",
  "4023": "Matapos",
  "4024": "peo",
  "4025": " sanggol",
  "4026": "amm",
  "4027": " karamd",
  "4028": " Russ",
  "4029": "loob",
  "4030": " Foreign",
  "4031": "IV",
  "4032": " x",
  "4033": " SC",
  "4034": "ush",
  "4035": " hilaga",
  "4036": " patungong",
  "4037": "angkin",
  "4038": " AS",
  "4039": " tatlo",
  "4040": " kinalaman",
  "4041": "usal",
  "4042": " DOH",
  "4043": " mismong",
  "4044": "osisyon",
  "4045": " deb",
  "4046": " workers",
  "4047": "hael",
  "4048": "formation",
  "4049": "ude",
  "4050": " isinulat",
  "4051": "ban",
  "4052": "Tin",
  "4053": "nam",
  "4054": " ABS",
  "4055": " sem",
  "4056": " Bac",
  "4057": " Transport",
  "4058": " sugatan",
  "4059": " Gal",
  "4060": "13",
  "4061": "vel",
  "4062": " maliliit",
  "4063": "umite",
  "4064": " 2008",
  "4065": " So",
  "4066": "upan",
  "4067": " CA",
  "4068": " Isab",
  "4069": "verseas",
  "4070": " Investigation",
  "4071": " diin",
  "4072": "vices",
  "4073": " crim",
  "4074": " Zamboanga",
  "4075": " matagal",
  "4076": "Kasama",
  "4077": "ibidad",
  "4078": " School",
  "4079": " tumukoy",
  "4080": "ector",
  "4081": "ungg",
  "4082": " Ng",
  "4083": "epend",
  "4084": "500",
  "4085": " power",
  "4086": " Management",
  "4087": "ulia",
  "4088": " init",
  "4089": " hepe",
  "4090": "uridad",
  "4091": " likas",
  "4092": " malalaking",
  "4093": "RO",
  "4094": " Na",
  "4095": " hanay",
  "4096": "isayas",
  "4097": " Lucas",
  "4098": "resyon",
  "4099": "ler",
  "4100": "ycle",
  "4101": " karagdagang",
  "4102": "atory",
  "4103": " fac",
  "4104": " partido",
  "4105": " sangay",
  "4106": " Ilocos",
  "4107": "rabaho",
  "4108": " 2011",
  "4109": "Kah",
  "4110": " pamumuno",
  "4111": "ivil",
  "4112": " walong",
  "4113": " warrant",
  "4114": "Mula",
  "4115": "iksik",
  "4116": "40",
  "4117": " buwis",
  "4118": "iri",
  "4119": " Ob",
  "4120": "atong",
  "4121": "ison",
  "4122": " Red",
  "4123": "otoo",
  "4124": " magbigay",
  "4125": " buh",
  "4126": " bigyan",
  "4127": " ibabaw",
  "4128": " panig",
  "4129": " Anti",
  "4130": "fa",
  "4131": " know",
  "4132": "mpalataya",
  "4133": " Spokesman",
  "4134": " dulot",
  "4135": " person",
  "4136": "otel",
  "4137": "ife",
  "4138": " Aleman",
  "4139": " which",
  "4140": "agawang",
  "4141": " papa",
  "4142": " Art",
  "4143": "itiz",
  "4144": "Mas",
  "4145": " only",
  "4146": " Francisco",
  "4147": " Pandaigdig",
  "4148": " magmula",
  "4149": "amihan",
  "4150": "ayaan",
  "4151": "ror",
  "4152": " State",
  "4153": " panit",
  "4154": "amantalang",
  "4155": " Pasig",
  "4156": " salaysay",
  "4157": " Elias",
  "4158": " 2000",
  "4159": "agamot",
  "4160": " head",
  "4161": " klase",
  "4162": "alapit",
  "4163": " compl",
  "4164": "sang",
  "4165": " amb",
  "4166": " tan",
  "4167": " Fa",
  "4168": " Station",
  "4169": " arrest",
  "4170": " namum",
  "4171": "cel",
  "4172": " la",
  "4173": " Pre",
  "4174": " hawak",
  "4175": " Gitnang",
  "4176": " kasarian",
  "4177": " mand",
  "4178": " BI",
  "4179": " Europeo",
  "4180": " Visayas",
  "4181": " mahihirap",
  "4182": "ahanap",
  "4183": " Hospital",
  "4184": "Kaugnay",
  "4185": "adal",
  "4186": " >",
  "4187": " selula",
  "4188": "venue",
  "4189": " Bill",
  "4190": " Nak",
  "4191": " naip",
  "4192": " now",
  "4193": " 35",
  "4194": "ayagan",
  "4195": " ilegal",
  "4196": " Ort",
  "4197": " Je",
  "4198": " Bro",
  "4199": " akus",
  "4200": " siyam",
  "4201": "iham",
  "4202": " malinaw",
  "4203": "Maraming",
  "4204": " bis",
  "4205": " bl",
  "4206": " pasyente",
  "4207": "inah",
  "4208": "omat",
  "4209": "udad",
  "4210": " Association",
  "4211": " natural",
  "4212": " Bang",
  "4213": "ti",
  "4214": " pampolitika",
  "4215": " makas",
  "4216": " puso",
  "4217": " Ehipto",
  "4218": " ec",
  "4219": " pagtatalik",
  "4220": " Santo",
  "4221": " numb",
  "4222": "ilim",
  "4223": " Flor",
  "4224": "alidad",
  "4225": " Alemanya",
  "4226": " ebidensiya",
  "4227": "ahalagang",
  "4228": " Are",
  "4229": "rupt",
  "4230": " DNA",
  "4231": "xt",
  "4232": " tw",
  "4233": " Congress",
  "4234": " Cas",
  "4235": " damd",
  "4236": " ilog",
  "4237": "ectr",
  "4238": "Bin",
  "4239": "ampas",
  "4240": " sery",
  "4241": " negosy",
  "4242": "akaisang",
  "4243": "abayan",
  "4244": " Mah",
  "4245": " edukasyon",
  "4246": " presidente",
  "4247": "Kat",
  "4248": " bers",
  "4249": "ric",
  "4250": "Idinagdag",
  "4251": " 2004",
  "4252": " news",
  "4253": "ektr",
  "4254": " palig",
  "4255": " Kong",
  "4256": "SS",
  "4257": "ize",
  "4258": "dib",
  "4259": " Pangas",
  "4260": " tekn",
  "4261": " napag",
  "4262": " aabot",
  "4263": " officer",
  "4264": "adem",
  "4265": " Fac",
  "4266": "Ed",
  "4267": " Michael",
  "4268": " sm",
  "4269": "hone",
  "4270": "Kinilala",
  "4271": "24",
  "4272": " ulit",
  "4273": "ark",
  "4274": " Tol",
  "4275": " Neg",
  "4276": " pagtit",
  "4277": " kababaihan",
  "4278": " larawan",
  "4279": "iwatig",
  "4280": "apektuhan",
  "4281": " eng",
  "4282": "ocan",
  "4283": "nia",
  "4284": " transport",
  "4285": "ario",
  "4286": "iness",
  "4287": "ule",
  "4288": " rebel",
  "4289": "ping",
  "4290": "rubahan",
  "4291": "olek",
  "4292": " termino",
  "4293": " against",
  "4294": " bumubuo",
  "4295": " nagpapakita",
  "4296": " Hong",
  "4297": "anah",
  "4298": "TF",
  "4299": "lege",
  "4300": "reo",
  "4301": "Iginiit",
  "4302": "ikilala",
  "4303": " pawang",
  "4304": " ED",
  "4305": " labanan",
  "4306": "ination",
  "4307": "imbestigahan",
  "4308": " def",
  "4309": "inanggit",
  "4310": "cus",
  "4311": "kod",
  "4312": "yaf",
  "4313": "yento",
  "4314": " limit",
  "4315": "uklasan",
  "4316": " ben",
  "4317": " say",
  "4318": " pamahalaang",
  "4319": " Alv",
  "4320": " 2020",
  "4321": "ebook",
  "4322": "abl",
  "4323": " natut",
  "4324": "si",
  "4325": " kalik",
  "4326": "uz",
  "4327": "!",
  "4328": "awit",
  "4329": " kampo",
  "4330": " teoriya",
  "4331": " million",
  "4332": "ahulugan",
  "4333": "awal",
  "4334": "anggal",
  "4335": "Walang",
  "4336": " Gab",
  "4337": " Pers",
  "4338": " nanal",
  "4339": "Nauna",
  "4340": " Sayyaf",
  "4341": "uksan",
  "4342": " iss",
  "4343": "yano",
  "4344": " dat",
  "4345": " fr",
  "4346": " mukha",
  "4347": " Central",
  "4348": " pinakamataas",
  "4349": "earch",
  "4350": "asiwa",
  "4351": " Labor",
  "4352": " sinasabi",
  "4353": " pagkakat",
  "4354": "ingat",
  "4355": " panganib",
  "4356": "aloocan",
  "4357": " normal",
  "4358": " sahod",
  "4359": "abawal",
  "4360": " maliban",
  "4361": " what",
  "4362": " mai",
  "4363": " Election",
  "4364": " bigas",
  "4365": " imm",
  "4366": " negosyo",
  "4367": " linya",
  "4368": "lak",
  "4369": " katotohanan",
  "4370": " state",
  "4371": " magsasaka",
  "4372": " magka",
  "4373": " umaabot",
  "4374": " Fel",
  "4375": " kinatawan",
  "4376": "ove",
  "4377": " pisikal",
  "4378": " istr",
  "4379": "reng",
  "4380": " 38",
  "4381": "reet",
  "4382": " PC",
  "4383": " natit",
  "4384": " back",
  "4385": " Samar",
  "4386": " Si",
  "4387": " char",
  "4388": " 2015",
  "4389": "usk",
  "4390": " #",
  "4391": " Sandigan",
  "4392": " pormal",
  "4393": " Tagu",
  "4394": " Aug",
  "4395": "udero",
  "4396": " epekt",
  "4397": " pulit",
  "4398": "berg",
  "4399": " pass",
  "4400": " Prot",
  "4401": "anggun",
  "4402": " direk",
  "4403": " panlipunan",
  "4404": "asaluku",
  "4405": "ustong",
  "4406": " natat",
  "4407": " kakayahan",
  "4408": " Forces",
  "4409": " _",
  "4410": " Men",
  "4411": " India",
  "4412": " Nueva",
  "4413": " kayo",
  "4414": " kalsada",
  "4415": "ini",
  "4416": "umunuan",
  "4417": " mababa",
  "4418": " Board",
  "4419": "jo",
  "4420": " kautusan",
  "4421": " magandang",
  "4422": "pos",
  "4423": "RMir",
  "4424": "impl",
  "4425": "usto",
  "4426": " itin",
  "4427": "imang",
  "4428": " langis",
  "4429": " probins",
  "4430": " Fernando",
  "4431": " Saudi",
  "4432": " pelikula",
  "4433": "onomic",
  "4434": "olf",
  "4435": " ext",
  "4436": " Ver",
  "4437": "pat",
  "4438": "Pinag",
  "4439": "yle",
  "4440": "pak",
  "4441": " lar",
  "4442": " kontrol",
  "4443": "apatay",
  "4444": "yod",
  "4445": " Salvador",
  "4446": " conc",
  "4447": " service",
  "4448": "icol",
  "4449": " kompanya",
  "4450": "lit",
  "4451": " kaka",
  "4452": " need",
  "4453": " kapalit",
  "4454": "aligiran",
  "4455": " direkt",
  "4456": " homoseksuwal",
  "4457": "Naniniwala",
  "4458": " September",
  "4459": "ambing",
  "4460": "ments",
  "4461": " tagapags",
  "4462": " Pl",
  "4463": " Oper",
  "4464": " Dagat",
  "4465": "Maaari",
  "4466": " GMAN",
  "4467": " awit",
  "4468": " bagyong",
  "4469": "als",
  "4470": "abit",
  "4471": " Cust",
  "4472": "ungat",
  "4473": "ILG",
  "4474": "akot",
  "4475": " Government",
  "4476": " operations",
  "4477": "Noy",
  "4478": "day",
  "4479": " ayaw",
  "4480": " Dem",
  "4481": " very",
  "4482": " katawag",
  "4483": " sob",
  "4484": "igong",
  "4485": "uation",
  "4486": "alab",
  "4487": " rate",
  "4488": " dinala",
  "4489": "ampaign",
  "4490": "mas",
  "4491": " Do",
  "4492": "odok",
  "4493": " James",
  "4494": " Sandiganbayan",
  "4495": " Gord",
  "4496": "king",
  "4497": "asyo",
  "4498": "apagal",
  "4499": " pamay",
  "4500": " Maj",
  "4501": " Net",
  "4502": "away",
  "4503": "ayap",
  "4504": " makabagong",
  "4505": " GMANews",
  "4506": "ags",
  "4507": " nahahati",
  "4508": " baybay",
  "4509": " Ter",
  "4510": "ren",
  "4511": "unaw",
  "4512": "igno",
  "4513": " People",
  "4514": "ilikha",
  "4515": " Ori",
  "4516": " dom",
  "4517": " Corpor",
  "4518": "MDA",
  "4519": " pamamaraan",
  "4520": " Cat",
  "4521": " mult",
  "4522": " Chair",
  "4523": " apekt",
  "4524": " Macapagal",
  "4525": " Malaysia",
  "4526": "usalem",
  "4527": "laban",
  "4528": "insip",
  "4529": "pang",
  "4530": " natagpuan",
  "4531": "60",
  "4532": " karaniwan",
  "4533": "rilon",
  "4534": " kabisera",
  "4535": "oper",
  "4536": " Nor",
  "4537": " mahirap",
  "4538": " sir",
  "4539": " Medical",
  "4540": "car",
  "4541": "ahing",
  "4542": " Social",
  "4543": " fire",
  "4544": " Ca",
  "4545": "ikas",
  "4546": " Caloocan",
  "4547": " panalo",
  "4548": " bakter",
  "4549": " But",
  "4550": " pampublikong",
  "4551": "eria",
  "4552": "alakbay",
  "4553": " simp",
  "4554": "eksto",
  "4555": " pangalawang",
  "4556": " Sin",
  "4557": " Pangasinan",
  "4558": "iron",
  "4559": " pagna",
  "4560": "ihinalang",
  "4561": " Kon",
  "4562": "inals",
  "4563": "200",
  "4564": " gagawin",
  "4565": " pagpapa",
  "4566": "pap",
  "4567": " tuloy",
  "4568": "osis",
  "4569": " Escudero",
  "4570": "alarawan",
  "4571": "ishop",
  "4572": " Bon",
  "4573": " EDSA",
  "4574": "?",
  "4575": "ures",
  "4576": " gumamit",
  "4577": "ful",
  "4578": " Drilon",
  "4579": " Sud",
  "4580": "alitan",
  "4581": " end",
  "4582": " military",
  "4583": " bilyong",
  "4584": "Maaaring",
  "4585": "dala",
  "4586": " nagawa",
  "4587": "olc",
  "4588": " OFWs",
  "4589": " Executive",
  "4590": " pandaigdig",
  "4591": " lead",
  "4592": " Tan",
  "4593": " Il",
  "4594": " tot",
  "4595": " Huda",
  "4596": " napap",
  "4597": " Division",
  "4598": "abato",
  "4599": " kumpanya",
  "4600": "tegr",
  "4601": "bas",
  "4602": "ansa",
  "4603": " bih",
  "4604": "awad",
  "4605": " tro",
  "4606": "ubog",
  "4607": "uwel",
  "4608": " boto",
  "4609": "own",
  "4610": " ipag",
  "4611": " dami",
  "4612": " minut",
  "4613": " pribadong",
  "4614": "row",
  "4615": " Comp",
  "4616": " umalis",
  "4617": "igilan",
  "4618": " isip",
  "4619": "nador",
  "4620": " gawing",
  "4621": " Dis",
  "4622": " grupong",
  "4623": "Kar",
  "4624": "gad",
  "4625": " NBI",
  "4626": " magpap",
  "4627": "ahayan",
  "4628": " Nagkakaisang",
  "4629": " liham",
  "4630": "orn",
  "4631": " pagkakak",
  "4632": " pagpapak",
  "4633": " fe",
  "4634": "view",
  "4635": " Dec",
  "4636": " bumalik",
  "4637": " tumaas",
  "4638": " sangk",
  "4639": " bunga",
  "4640": " hangganan",
  "4641": " pagkat",
  "4642": " comune",
  "4643": " tinam",
  "4644": "omba",
  "4645": " balak",
  "4646": "iland",
  "4647": " enerhiya",
  "4648": " center",
  "4649": "uma",
  "4650": " 32",
  "4651": " van",
  "4652": " Avenue",
  "4653": "ekan",
  "4654": "ilitaw",
  "4655": "omen",
  "4656": "ansiya",
  "4657": " medical",
  "4658": "urn",
  "4659": " aut",
  "4660": " kapul",
  "4661": "ilya",
  "4662": "umpis",
  "4663": " kumpara",
  "4664": "uluhan",
  "4665": " col",
  "4666": " banta",
  "4667": "EN",
  "4668": "lus",
  "4669": "eni",
  "4670": " drugs",
  "4671": " barko",
  "4672": " pinamumunuan",
  "4673": " Hapones",
  "4674": "ambak",
  "4675": "ason",
  "4676": " kapit",
  "4677": "anto",
  "4678": "etiko",
  "4679": " inihain",
  "4680": "kin",
  "4681": " Kanluran",
  "4682": " requ",
  "4683": " kamakailan",
  "4684": " kasabay",
  "4685": " Facebook",
  "4686": " kalikasan",
  "4687": "ubok",
  "4688": " had",
  "4689": " pinagmulan",
  "4690": " pumap",
  "4691": " senator",
  "4692": " Cot",
  "4693": "Bago",
  "4694": "dr",
  "4695": " bato",
  "4696": " kaalaman",
  "4697": "eralco",
  "4698": " mass",
  "4699": " DOJ",
  "4700": " mahalaga",
  "4701": "andaang",
  "4702": " Oriental",
  "4703": "ubuhay",
  "4704": " narar",
  "4705": "aliban",
  "4706": "ield",
  "4707": " sitwasyon",
  "4708": " mahigpit",
  "4709": "ababa",
  "4710": " nob",
  "4711": "uris",
  "4712": " Transportation",
  "4713": " palag",
  "4714": " campaign",
  "4715": " kasunduan",
  "4716": " about",
  "4717": " number",
  "4718": " Baut",
  "4719": "fter",
  "4720": " Phil",
  "4721": " pabor",
  "4722": "uwensiya",
  "4723": " himp",
  "4724": " Tha",
  "4725": " Victor",
  "4726": " bang",
  "4727": " isinagawa",
  "4728": " Taguig",
  "4729": " Ur",
  "4730": " dumalo",
  "4731": " papunta",
  "4732": "rile",
  "4733": "gawang",
  "4734": "ape",
  "4735": "ikip",
  "4736": " binigyan",
  "4737": " gumag",
  "4738": " Carlos",
  "4739": "iona",
  "4740": " hiwalay",
  "4741": " Damaso",
  "4742": "gap",
  "4743": " gast",
  "4744": " obispo",
  "4745": " Iloilo",
  "4746": " kita",
  "4747": " Bag",
  "4748": " pinagh",
  "4749": " nangyayari",
  "4750": "ja",
  "4751": " mabuti",
  "4752": " itaas",
  "4753": " Bautista",
  "4754": " 2012",
  "4755": "ikanong",
  "4756": "sam",
  "4757": "osyon",
  "4758": " War",
  "4759": " isas",
  "4760": " pamunuan",
  "4761": "ival",
  "4762": " candid",
  "4763": "aryong",
  "4764": " kilos",
  "4765": " nasugatan",
  "4766": " kondisyon",
  "4767": "iol",
  "4768": " pagsusuri",
  "4769": " balita",
  "4770": "OC",
  "4771": " peace",
  "4772": " host",
  "4773": " manunulat",
  "4774": " resolusyon",
  "4775": "ayapaan",
  "4776": " NPA",
  "4777": " sari",
  "4778": "obernador",
  "4779": " cle",
  "4780": " officials",
  "4781": " hinihinalang",
  "4782": " dantaon",
  "4783": " kasalanan",
  "4784": " Armed",
  "4785": " stand",
  "4786": " stud",
  "4787": " East",
  "4788": " sintomas",
  "4789": "asco",
  "4790": "urch",
  "4791": " Enrile",
  "4792": " Turk",
  "4793": " pagpup",
  "4794": " paa",
  "4795": " Mark",
  "4796": " halaman",
  "4797": "irek",
  "4798": "eason",
  "4799": "emento",
  "4800": "hasa",
  "4801": "onz",
  "4802": " kapanah",
  "4803": " kalayaan",
  "4804": " check",
  "4805": " pangs",
  "4806": "oko",
  "4807": " utak",
  "4808": " Alvarez",
  "4809": "anyang",
  "4810": " March",
  "4811": " tagas",
  "4812": " seguridad",
  "4813": "olohiyang",
  "4814": " 2006",
  "4815": " Education",
  "4816": " Wikang",
  "4817": " Jim",
  "4818": " karamdaman",
  "4819": "80",
  "4820": " interes",
  "4821": " mekan",
  "4822": " 45",
  "4823": " hy",
  "4824": "Dagdag",
  "4825": " sen",
  "4826": " Sulu",
  "4827": "ontrol",
  "4828": " humingi",
  "4829": " asp",
  "4830": "mo",
  "4831": " Rich",
  "4832": "astern",
  "4833": " kim",
  "4834": " totoo",
  "4835": " talaan",
  "4836": "Sum",
  "4837": " Sea",
  "4838": " matery",
  "4839": " kid",
  "4840": " kill",
  "4841": "tober",
  "4842": "anasan",
  "4843": " MRT",
  "4844": "ederal",
  "4845": "rato",
  "4846": "ting",
  "4847": " Dela",
  "4848": "alsik",
  "4849": " Will",
  "4850": "abilit",
  "4851": " Mab",
  "4852": " ref",
  "4853": " Manuel",
  "4854": " special",
  "4855": " King",
  "4856": " pinaniniwalaang",
  "4857": "alu",
  "4858": "aining",
  "4859": "play",
  "4860": " Jer",
  "4861": " kriminal",
  "4862": " Ikalawang",
  "4863": " Benigno",
  "4864": "Nagk",
  "4865": " temp",
  "4866": " target",
  "4867": "nais",
  "4868": " disease",
  "4869": "acio",
  "4870": " lalak",
  "4871": "...",
  "4872": " gumagawa",
  "4873": " pagmam",
  "4874": " Cotabato",
  "4875": " Road",
  "4876": " when",
  "4877": " Crim",
  "4878": "Sinas",
  "4879": " itina",
  "4880": " siyent",
  "4881": " rem",
  "4882": " Ito",
  "4883": " text",
  "4884": " lag",
  "4885": " 80",
  "4886": "ulangan",
  "4887": " isinagawang",
  "4888": "igur",
  "4889": " labor",
  "4890": " distrito",
  "4891": "ES",
  "4892": " Pambansang",
  "4893": "uela",
  "4894": " top",
  "4895": "iber",
  "4896": " Ebanghelyo",
  "4897": " ligtas",
  "4898": "ugtong",
  "4899": "ience",
  "4900": "ugg",
  "4901": " nakar",
  "4902": " iisang",
  "4903": " dati",
  "4904": "ugal",
  "4905": " Herusalem",
  "4906": " sex",
  "4907": "RB",
  "4908": "uklas",
  "4909": "igence",
  "4910": " like",
  "4911": "ija",
  "4912": "witter",
  "4913": " elektr",
  "4914": " kabuuan",
  "4915": "be",
  "4916": "ingis",
  "4917": "Mak",
  "4918": "atake",
  "4919": " level",
  "4920": " magsagawa",
  "4921": " regular",
  "4922": "ected",
  "4923": " km",
  "4924": " lalong",
  "4925": "Base",
  "4926": " mito",
  "4927": " Imperyong",
  "4928": "ugnayang",
  "4929": " 70",
  "4930": " katagang",
  "4931": "ikap",
  "4932": " October",
  "4933": "not",
  "4934": " Magu",
  "4935": "etnam",
  "4936": "men",
  "4937": " political",
  "4938": "alanan",
  "4939": "ipl",
  "4940": "forcement",
  "4941": " 33",
  "4942": " dokumento",
  "4943": " non",
  "4944": "AP",
  "4945": "wiran",
  "4946": " malawakang",
  "4947": " metro",
  "4948": "29",
  "4949": "21",
  "4950": "abaan",
  "4951": "orma",
  "4952": " pinay",
  "4953": " these",
  "4954": " damit",
  "4955": " Leon",
  "4956": "unications",
  "4957": " buy",
  "4958": "amahan",
  "4959": " sis",
  "4960": " sakaling",
  "4961": "pag",
  "4962": " nakilala",
  "4963": "apital",
  "4964": "CBN",
  "4965": " Britanya",
  "4966": " iginiit",
  "4967": " two",
  "4968": " Bong",
  "4969": " serye",
  "4970": " nagmum",
  "4971": "gas",
  "4972": " truck",
  "4973": " Martin",
  "4974": " Peter",
  "4975": " 2005",
  "4976": " Corp",
  "4977": " Indonesia",
  "4978": " naa",
  "4979": " patakaran",
  "4980": " maik",
  "4981": " Ger",
  "4982": "ext",
  "4983": " erop",
  "4984": " dibdib",
  "4985": "Nakat",
  "4986": "iso",
  "4987": "uta",
  "4988": "onia",
  "4989": " general",
  "4990": " kauna",
  "4991": " Hen",
  "4992": " Wh",
  "4993": "cha",
  "4994": " tren",
  "4995": " labi",
  "4996": " katay",
  "4997": "PS",
  "4998": " Union",
  "4999": "inc",
  "5000": "wan",
  "5001": " ple",
  "5002": "illo",
  "5003": "uyo",
  "5004": "angan",
  "5005": " jeep",
  "5006": "ahad",
  "5007": "ots",
  "5008": " Castro",
  "5009": " ugat",
  "5010": "resto",
  "5011": " main",
  "5012": "TI",
  "5013": " gagamit",
  "5014": " gene",
  "5015": " naitala",
  "5016": "omar",
  "5017": "ved",
  "5018": " pagsasal",
  "5019": "ards",
  "5020": "imo",
  "5021": "This",
  "5022": " Agr",
  "5023": "top",
  "5024": " Budd",
  "5025": " Supreme",
  "5026": "round",
  "5027": "atawan",
  "5028": "rong",
  "5029": " your",
  "5030": " trap",
  "5031": "ni",
  "5032": " blo",
  "5033": " siyudad",
  "5034": " Corporation",
  "5035": "Mayroong",
  "5036": " Jesus",
  "5037": " taas",
  "5038": " DFA",
  "5039": " karag",
  "5040": " bumaba",
  "5041": " kult",
  "5042": "Binig",
  "5043": " daang",
  "5044": "ulture",
  "5045": " Special",
  "5046": "Bas",
  "5047": " yugto",
  "5048": "PC",
  "5049": " 36",
  "5050": " York",
  "5051": " relasyon",
  "5052": "avel",
  "5053": " Meralco",
  "5054": " kakayahang",
  "5055": "27",
  "5056": " pun",
  "5057": " pir",
  "5058": "ways",
  "5059": " Gordon",
  "5060": " August",
  "5061": " Ley",
  "5062": " Gonz",
  "5063": "ized",
  "5064": " hugis",
  "5065": " mens",
  "5066": " kinilala",
  "5067": "yun",
  "5068": " Rusya",
  "5069": "Ab",
  "5070": " Senior",
  "5071": " Lumang",
  "5072": " itinak",
  "5073": " College",
  "5074": " call",
  "5075": " pork",
  "5076": "cident",
  "5077": " tem",
  "5078": "less",
  "5079": " diwa",
  "5080": " HIV",
  "5081": " <",
  "5082": "SW",
  "5083": " naninirahan",
  "5084": "latera",
  "5085": " bet",
  "5086": " pagpasok",
  "5087": " Mand",
  "5088": " 2014",
  "5089": " komite",
  "5090": " (@",
  "5091": "dinand",
  "5092": "uportahan",
  "5093": " Hel",
  "5094": " Huk",
  "5095": " tuluyang",
  "5096": "down",
  "5097": " Canada",
  "5098": " anong",
  "5099": "iter",
  "5100": " pagsabog",
  "5101": " Administration",
  "5102": "unahang",
  "5103": "ession",
  "5104": " pagbib",
  "5105": "ipal",
  "5106": "insang",
  "5107": "reak",
  "5108": "RC",
  "5109": " 37",
  "5110": "arami",
  "5111": " tanong",
  "5112": "akyat",
  "5113": " network",
  "5114": " magkakaroon",
  "5115": " pinagk",
  "5116": " paksa",
  "5117": " Mak",
  "5118": " nagaganap",
  "5119": " emb",
  "5120": " citiz",
  "5121": " Lap",
  "5122": "uque",
  "5123": " Ferdinand",
  "5124": " hand",
  "5125": " Jul",
  "5126": " ipinagb",
  "5127": "awalang",
  "5128": "nakaw",
  "5129": "br",
  "5130": "ury",
  "5131": " Heneral",
  "5132": "anyag",
  "5133": " Mis",
  "5134": " usapin",
  "5135": " Bgy",
  "5136": " mangyari",
  "5137": "apekto",
  "5138": " Pala",
  "5139": "unita",
  "5140": "Sabi",
  "5141": "inanggi",
  "5142": " literal",
  "5143": " und",
  "5144": "yarihang",
  "5145": " pagkas",
  "5146": " tagapagsalita",
  "5147": " worker",
  "5148": " Airport",
  "5149": " executive",
  "5150": " stor",
  "5151": " dayuhan",
  "5152": "usulong",
  "5153": " tinutukoy",
  "5154": " kanon",
  "5155": " aking",
  "5156": " Super",
  "5157": " memb",
  "5158": " point",
  "5159": " kakulangan",
  "5160": " natatanging",
  "5161": "Karamihan",
  "5162": " Maguindanao",
  "5163": "ergency",
  "5164": " Chairman",
  "5165": " Taiwan",
  "5166": " katutubong",
  "5167": " Kung",
  "5168": " pagpapatupad",
  "5169": " Ecija",
  "5170": " kasangk",
  "5171": "gor",
  "5172": " conf",
  "5173": " Ronal",
  "5174": " mahabang",
  "5175": "ammad",
  "5176": "engue",
  "5177": "alaya",
  "5178": "by",
  "5179": " posit",
  "5180": " doktor",
  "5181": "FRJ",
  "5182": " damdamin",
  "5183": " ebolusyon",
  "5184": " maiwasan",
  "5185": "iti",
  "5186": " Ortodok",
  "5187": "ehiyo",
  "5188": " kamag",
  "5189": " eksper",
  "5190": " Cr",
  "5191": " support",
  "5192": " alyas",
  "5193": " paghih",
  "5194": " right",
  "5195": "ikl",
  "5196": " magkas",
  "5197": "elligence",
  "5198": " Insp",
  "5199": " show",
  "5200": " Isa",
  "5201": " makik",
  "5202": " statement",
  "5203": " elemento",
  "5204": " cl",
  "5205": "ON",
  "5206": " liwanag",
  "5207": " laman",
  "5208": " datos",
  "5209": " nakikita",
  "5210": " ord",
  "5211": "Inihayag",
  "5212": "onar",
  "5213": " nagpapah",
  "5214": " pray",
  "5215": " Bank",
  "5216": "uet",
  "5217": "33",
  "5218": "He",
  "5219": " leader",
  "5220": "usyong",
  "5221": "ony",
  "5222": "ls",
  "5223": " Se",
  "5224": " tungo",
  "5225": " magtat",
  "5226": " Nin",
  "5227": " office",
  "5228": " pilosopiya",
  "5229": "uka",
  "5230": "abilis",
  "5231": " insp",
  "5232": "26",
  "5233": " money",
  "5234": " 90",
  "5235": " death",
  "5236": " nakaka",
  "5237": "isyu",
  "5238": " element",
  "5239": "WA",
  "5240": " water",
  "5241": " Kanlurang",
  "5242": "lobal",
  "5243": "asalukuyang",
  "5244": " isda",
  "5245": " takot",
  "5246": " produktong",
  "5247": " kalaunang",
  "5248": " process",
  "5249": " mun",
  "5250": "Nana",
  "5251": "rik",
  "5252": "ehan",
  "5253": " international",
  "5254": " umu",
  "5255": " Customs",
  "5256": " karapatang",
  "5257": " Elections",
  "5258": " sentro",
  "5259": "abol",
  "5260": "egong",
  "5261": "atibong",
  "5262": " city",
  "5263": " baboy",
  "5264": "ien",
  "5265": " Tolentino",
  "5266": "bass",
  "5267": " Assist",
  "5268": " 39",
  "5269": " set",
  "5270": "inda",
  "5271": " Organ",
  "5272": " 2001",
  "5273": "bound",
  "5274": " nilalang",
  "5275": "elfare",
  "5276": " suliran",
  "5277": " anya",
  "5278": "isipan",
  "5279": "ensa",
  "5280": " maagang",
  "5281": "vol",
  "5282": "alakad",
  "5283": " long",
  "5284": " Leyte",
  "5285": "nit",
  "5286": "entro",
  "5287": " scam",
  "5288": " Ramon",
  "5289": "ibagong",
  "5290": " ugnayang",
  "5291": " bel",
  "5292": " Vel",
  "5293": "arlac",
  "5294": " halagang",
  "5295": "ram",
  "5296": " display",
  "5297": "osp",
  "5298": "ketball",
  "5299": " Gi",
  "5300": " pangkas",
  "5301": "28",
  "5302": " Land",
  "5303": "apo",
  "5304": " Lo",
  "5305": " Paul",
  "5306": " cap",
  "5307": " kinakailangan",
  "5308": "abalik",
  "5309": " Pagk",
  "5310": "ivate",
  "5311": " David",
  "5312": " handa",
  "5313": " Ne",
  "5314": "utupad",
  "5315": " kumb",
  "5316": " Mang",
  "5317": "mat",
  "5318": " alang",
  "5319": "erya",
  "5320": "inia",
  "5321": "reh",
  "5322": " tour",
  "5323": " Sub",
  "5324": "ird",
  "5325": " Gil",
  "5326": "Inil",
  "5327": "acy",
  "5328": "Nagt",
  "5329": " nanalo",
  "5330": " humih",
  "5331": " even",
  "5332": " pansin",
  "5333": " Gawa",
  "5334": "ender",
  "5335": " puwersa",
  "5336": "adaan",
  "5337": " Cali",
  "5338": " tala",
  "5339": " run",
  "5340": " Unyong",
  "5341": " meet",
  "5342": " lip",
  "5343": " Tim",
  "5344": " Street",
  "5345": " Work",
  "5346": "agot",
  "5347": " petisyon",
  "5348": "Ch",
  "5349": " mabigyan",
  "5350": "As",
  "5351": " Dar",
  "5352": "ilyo",
  "5353": " nakatakdang",
  "5354": " Provincial",
  "5355": " Eastern",
  "5356": " Geor",
  "5357": " don",
  "5358": " masas",
  "5359": "iyahe",
  "5360": " silangang",
  "5361": " Su",
  "5362": " propes",
  "5363": " Bagu",
  "5364": "odo",
  "5365": " nasasak",
  "5366": "icle",
  "5367": "umpati",
  "5368": " bakterya",
  "5369": " nakikipag",
  "5370": "olina",
  "5371": " Pet",
  "5372": "igtasan",
  "5373": " Um",
  "5374": " pakikipagtalik",
  "5375": " temper",
  "5376": "ebenta",
  "5377": "ient",
  "5378": " inal",
  "5379": " cre",
  "5380": "trabaho",
  "5381": "ilinan",
  "5382": " Mel",
  "5383": " adv",
  "5384": " pagdiriwang",
  "5385": " sumuko",
  "5386": " pamamahala",
  "5387": " kontrata",
  "5388": "wel",
  "5389": " mik",
  "5390": " Und",
  "5391": " apoy",
  "5392": " porsyento",
  "5393": "irre",
  "5394": "azar",
  "5395": "bigay",
  "5396": " eff",
  "5397": "isin",
  "5398": " Eng",
  "5399": " artista",
  "5400": " Isang",
  "5401": "udulot",
  "5402": " super",
  "5403": "sy",
  "5404": " lansang",
  "5405": "ingo",
  "5406": " utos",
  "5407": " pulong",
  "5408": " gayon",
  "5409": "aguyod",
  "5410": " Sr",
  "5411": " benep",
  "5412": "Unang",
  "5413": " tanggap",
  "5414": "Nar",
  "5415": "amdam",
  "5416": "anc",
  "5417": " mail",
  "5418": " disk",
  "5419": " manag",
  "5420": " num",
  "5421": "uturing",
  "5422": " dah",
  "5423": " Tondo",
  "5424": "ukin",
  "5425": " teksto",
  "5426": " atom",
  "5427": " add",
  "5428": "stitute",
  "5429": "alawan",
  "5430": " kalaban",
  "5431": " saka",
  "5432": "hy",
  "5433": " Day",
  "5434": "amdaman",
  "5435": "EC",
  "5436": "ipagk",
  "5437": "Kasabay",
  "5438": "iyansa",
  "5439": " viol",
  "5440": "ukot",
  "5441": " administration",
  "5442": "ibing",
  "5443": " oposisyon",
  "5444": " hearing",
  "5445": " skolar",
  "5446": " alagad",
  "5447": "Kahit",
  "5448": " makuha",
  "5449": " kaharian",
  "5450": " Muh",
  "5451": " nangangailangan",
  "5452": "atlo",
  "5453": " Tarlac",
  "5454": "70",
  "5455": "umbayan",
  "5456": "Ap",
  "5457": " saf",
  "5458": "uwest",
  "5459": " ginanap",
  "5460": " operat",
  "5461": " nakasaad",
  "5462": "ants",
  "5463": " unlad",
  "5464": "23",
  "5465": " Security",
  "5466": " Sereno",
  "5467": " second",
  "5468": "Com",
  "5469": " pek",
  "5470": "inado",
  "5471": " species",
  "5472": " Las",
  "5473": "?\"",
  "5474": " think",
  "5475": "kang",
  "5476": " Heb",
  "5477": " 34",
  "5478": " nakikilala",
  "5479": "akal",
  "5480": "igat",
  "5481": " Represent",
  "5482": " mid",
  "5483": " mart",
  "5484": " Commissioner",
  "5485": " sta",
  "5486": " Ilog",
  "5487": " sumas",
  "5488": " industriya",
  "5489": " Buddha",
  "5490": "imum",
  "5491": " Griyegong",
  "5492": " pangkaraniwang",
  "5493": " nangung",
  "5494": "ailalim",
  "5495": "ikit",
  "5496": " malamang",
  "5497": " titi",
  "5498": " Leg",
  "5499": "imugang",
  "5500": " allow",
  "5501": " nagw",
  "5502": " eroplano",
  "5503": "arines",
  "5504": " sinumang",
  "5505": "iguro",
  "5506": " rest",
  "5507": "irc",
  "5508": "ILF",
  "5509": "ted",
  "5510": "wil",
  "5511": "alitang",
  "5512": " Grace",
  "5513": "asalamat",
  "5514": " kong",
  "5515": " magkaka",
  "5516": " maib",
  "5517": "iskubre",
  "5518": " Defense",
  "5519": " Alf",
  "5520": " Local",
  "5521": " kahabaan",
  "5522": "serb",
  "5523": "igyang",
  "5524": " binata",
  "5525": " kapanahunan",
  "5526": " contin",
  "5527": " Esk",
  "5528": " putbol",
  "5529": " Richard",
  "5530": " lumikha",
  "5531": " Robert",
  "5532": "amily",
  "5533": "Nas",
  "5534": " bumagsak",
  "5535": " Albayalde",
  "5536": "GO",
  "5537": " nagsasagawa",
  "5538": "Ik",
  "5539": "abal",
  "5540": "ument",
  "5541": "ustin",
  "5542": " paligid",
  "5543": "ane",
  "5544": "aslang",
  "5545": " espesye",
  "5546": "usapan",
  "5547": " nagkakahalaga",
  "5548": " sektor",
  "5549": "egasyon",
  "5550": " kalam",
  "5551": " gin",
  "5552": " panibagong",
  "5553": " paglikha",
  "5554": " Task",
  "5555": "ugali",
  "5556": "landa",
  "5557": " mapap",
  "5558": "led",
  "5559": "asawa",
  "5560": " pala",
  "5561": " isinasagawa",
  "5562": " Hudaismo",
  "5563": " isla",
  "5564": "Ilan",
  "5565": " online",
  "5566": " Kuwa",
  "5567": " Ina",
  "5568": " Revilla",
  "5569": "agaling",
  "5570": " Lop",
  "5571": " Lin",
  "5572": "tol",
  "5573": " Op",
  "5574": " buto",
  "5575": "Ilang",
  "5576": "ilyong",
  "5577": " dulo",
  "5578": "ukulang",
  "5579": "fore",
  "5580": " akin",
  "5581": "INA",
  "5582": "unyag",
  "5583": " kani",
  "5584": "reement",
  "5585": " prov",
  "5586": "amon",
  "5587": "GU",
  "5588": " humantong",
  "5589": " inaasahan",
  "5590": " Irlanda",
  "5591": " tapos",
  "5592": "ebel",
  "5593": " Eb",
  "5594": "struction",
  "5595": " matagumpay",
  "5596": " Cons",
  "5597": " Asian",
  "5598": " Singap",
  "5599": "ingisda",
  "5600": "Ipinal",
  "5601": " su",
  "5602": "uba",
  "5603": "ohol",
  "5604": " fore",
  "5605": " posibilidad",
  "5606": "usp",
  "5607": "akop",
  "5608": " lumilitaw",
  "5609": "imik",
  "5610": " QC",
  "5611": " Nog",
  "5612": "75",
  "5613": "yuter",
  "5614": " Camarines",
  "5615": " ginagawang",
  "5616": " season",
  "5617": " naaresto",
  "5618": " matiyak",
  "5619": " mabuting",
  "5620": "ources",
  "5621": "ster",
  "5622": " biglang",
  "5623": " staff",
  "5624": "35",
  "5625": " saring",
  "5626": " balik",
  "5627": "ists",
  "5628": " kapak",
  "5629": "100",
  "5630": " coach",
  "5631": " inat",
  "5632": " pamilyang",
  "5633": " pamilihan",
  "5634": "igration",
  "5635": " kapar",
  "5636": " years",
  "5637": " organisasyon",
  "5638": " binat",
  "5639": "Nilinaw",
  "5640": "arka",
  "5641": " Afr",
  "5642": "pekt",
  "5643": " bunt",
  "5644": "viron",
  "5645": " Recto",
  "5646": " Andal",
  "5647": " UN",
  "5648": "gram",
  "5649": " radio",
  "5650": "BC",
  "5651": " ok",
  "5652": " Tok",
  "5653": "antad",
  "5654": "indigan",
  "5655": " Games",
  "5656": " after",
  "5657": "ucle",
  "5658": "ikot",
  "5659": " Angara",
  "5660": " Emperador",
  "5661": " aniyang",
  "5662": " nating",
  "5663": "stitut",
  "5664": "uni",
  "5665": " bint",
  "5666": " ninuno",
  "5667": "ply",
  "5668": "uez",
  "5669": " Manny",
  "5670": " ahensya",
  "5671": " katangiang",
  "5672": " nabubuhay",
  "5673": " biktimang",
  "5674": "intulot",
  "5675": " nakatira",
  "5676": "of",
  "5677": "rales",
  "5678": " munisip",
  "5679": " Pinay",
  "5680": " kabahayan",
  "5681": " doc",
  "5682": "Matatandaang",
  "5683": " Me",
  "5684": "vironment",
  "5685": " Anak",
  "5686": "angkutan",
  "5687": "araniwan",
  "5688": " kumuha",
  "5689": "isi",
  "5690": " galit",
  "5691": " Lopez",
  "5692": "awas",
  "5693": " titik",
  "5694": " Napoles",
  "5695": " bi",
  "5696": "imbang",
  "5697": "obyet",
  "5698": "TFRB",
  "5699": " kumak",
  "5700": " Pilipinong",
  "5701": "acion",
  "5702": " electr",
  "5703": "EAN",
  "5704": "dal",
  "5705": " karagatan",
  "5706": "BP",
  "5707": "bust",
  "5708": " prinsip",
  "5709": " implement",
  "5710": " Ev",
  "5711": " matematika",
  "5712": " aEUR",
  "5713": " Deputy",
  "5714": " win",
  "5715": " Gres",
  "5716": " foreign",
  "5717": " Singapore",
  "5718": " nakipag",
  "5719": "cio",
  "5720": " DILG",
  "5721": " being",
  "5722": " nakatanggap",
  "5723": " histor",
  "5724": " rights",
  "5725": " nakad",
  "5726": "aksyon",
  "5727": " mangang",
  "5728": " pagsasanay",
  "5729": " mur",
  "5730": "iyasat",
  "5731": " exc",
  "5732": "ranch",
  "5733": " 300",
  "5734": " Araw",
  "5735": "ipit",
  "5736": " mess",
  "5737": " aksidente",
  "5738": "ersec",
  "5739": "tle",
  "5740": "agatang",
  "5741": " palay",
  "5742": " Negros",
  "5743": "icial",
  "5744": "Pag",
  "5745": " kesa",
  "5746": "araming",
  "5747": "onel",
  "5748": "anim",
  "5749": " pamumuhay",
  "5750": "Co",
  "5751": "Ginagamit",
  "5752": " tip",
  "5753": "osible",
  "5754": "anar",
  "5755": " aktibidad",
  "5756": " Sobyet",
  "5757": " mapat",
  "5758": " barrel",
  "5759": " pandaigdigang",
  "5760": " tumakas",
  "5761": " kaligtasan",
  "5762": " sobrang",
  "5763": " aff",
  "5764": " own",
  "5765": " pagtanggap",
  "5766": " manana",
  "5767": "ahiwalay",
  "5768": " programang",
  "5769": " Konseho",
  "5770": "ayaring",
  "5771": "iding",
  "5772": " plast",
  "5773": " ipinaga",
  "5774": " Sil",
  "5775": "ars",
  "5776": " utang",
  "5777": " kasamahan",
  "5778": " koponan",
  "5779": " Nograles",
  "5780": " kahal",
  "5781": " Califor",
  "5782": " Venez",
  "5783": "istrado",
  "5784": " relihiyos",
  "5785": " tinanggap",
  "5786": " Muhammad",
  "5787": " Gresya",
  "5788": " pot",
  "5789": " ca",
  "5790": "ilidad",
  "5791": " than",
  "5792": " ginto",
  "5793": " ist",
  "5794": " cash",
  "5795": " minuto",
  "5796": "cidental",
  "5797": " 44",
  "5798": "ences",
  "5799": " panun",
  "5800": " Tsino",
  "5801": " negosyante",
  "5802": " Kalak",
  "5803": " kapaligiran",
  "5804": " polic",
  "5805": " pinsala",
  "5806": " ipinaganak",
  "5807": " California",
  "5808": " dala",
  "5809": " ipinalabas",
  "5810": " jo",
  "5811": " imperyo",
  "5812": " giit",
  "5813": " kinuha",
  "5814": "resulta",
  "5815": " amo",
  "5816": "AC",
  "5817": " gayong",
  "5818": " tug",
  "5819": " Sulat",
  "5820": " akong",
  "5821": " Cris",
  "5822": "ungang",
  "5823": "uwang",
  "5824": " Leni",
  "5825": " tatak",
  "5826": "ky",
  "5827": " Arch",
  "5828": " tugon",
  "5829": "pol",
  "5830": " April",
  "5831": " those",
  "5832": " Inf",
  "5833": " pinatay",
  "5834": " lalake",
  "5835": " MMDA",
  "5836": " inak",
  "5837": " teoriyang",
  "5838": " investigation",
  "5839": "alk",
  "5840": " inang",
  "5841": " gilid",
  "5842": "lyo",
  "5843": "iel",
  "5844": "awat",
  "5845": " alak",
  "5846": " sama",
  "5847": " spokesman",
  "5848": " dengue",
  "5849": " Interior",
  "5850": "ho",
  "5851": " nawawala",
  "5852": "inl",
  "5853": "ille",
  "5854": "usot",
  "5855": " tumulong",
  "5856": "igao",
  "5857": "utong",
  "5858": "ologo",
  "5859": " secretary",
  "5860": " Thailand",
  "5861": " pansamantalang",
  "5862": "PP",
  "5863": "GASA",
  "5864": " kawan",
  "5865": "oli",
  "5866": " best",
  "5867": "sing",
  "5868": "hiyang",
  "5869": "pin",
  "5870": " mensahe",
  "5871": " justice",
  "5872": " dam",
  "5873": "ipas",
  "5874": " BK",
  "5875": " paghahanda",
  "5876": " panloob",
  "5877": "Dum",
  "5878": "icide",
  "5879": " Fre",
  "5880": " katiw",
  "5881": " magsis",
  "5882": " banal",
  "5883": " napat",
  "5884": " kasing",
  "5885": " Ramos",
  "5886": "ired",
  "5887": "orya",
  "5888": " bigla",
  "5889": " Pamant",
  "5890": "AFP",
  "5891": "igaw",
  "5892": " ulan",
  "5893": " Pe",
  "5894": " mapang",
  "5895": " Maute",
  "5896": " rating",
  "5897": " karanasan",
  "5898": "erte",
  "5899": " Valley",
  "5900": " diper",
  "5901": " vice",
  "5902": " depend",
  "5903": "ipe",
  "5904": " tumanggap",
  "5905": " ninyo",
  "5906": " Jun",
  "5907": "noy",
  "5908": "Ni",
  "5909": " Program",
  "5910": "emonte",
  "5911": " maling",
  "5912": "ekswal",
  "5913": " Arabia",
  "5914": " seryeng",
  "5915": " pananampalataya",
  "5916": "ungkulan",
  "5917": " itim",
  "5918": " panlabas",
  "5919": "ungin",
  "5920": " lansangan",
  "5921": "umano",
  "5922": " Banal",
  "5923": " ra",
  "5924": " Pinas",
  "5925": " she",
  "5926": "ipikasyon",
  "5927": "icycle",
  "5928": "ruption",
  "5929": "ayad",
  "5930": " tanyag",
  "5931": " Donya",
  "5932": "ilding",
  "5933": "okrat",
  "5934": "yin",
  "5935": "iting",
  "5936": " market",
  "5937": "idelberg",
  "5938": "edia",
  "5939": " integr",
  "5940": " pad",
  "5941": "ility",
  "5942": "ordinat",
  "5943": "amitan",
  "5944": "utol",
  "5945": " Leader",
  "5946": " opisina",
  "5947": " said",
  "5948": "alawig",
  "5949": " Roc",
  "5950": " then",
  "5951": "arya",
  "5952": "abon",
  "5953": "imbag",
  "5954": " Service",
  "5955": " baybayin",
  "5956": " tangk",
  "5957": "igl",
  "5958": " tradisyon",
  "5959": " dest",
  "5960": " Mir",
  "5961": " Brit",
  "5962": " Av",
  "5963": " Rad",
  "5964": "tok",
  "5965": " mari",
  "5966": " minsang",
  "5967": " Amerikanong",
  "5968": "erasyon",
  "5969": " Palawan",
  "5970": " sos",
  "5971": " Occidental",
  "5972": " gagamitin",
  "5973": " 2003",
  "5974": "panyol",
  "5975": " nagsagawa",
  "5976": " manat",
  "5977": " business",
  "5978": "DP",
  "5979": " matut",
  "5980": " Australia",
  "5981": " LP",
  "5982": " spokesperson",
  "5983": " Europe",
  "5984": "\",",
  "5985": "38",
  "5986": "isc",
  "5987": " Institute",
  "5988": " Bol",
  "5989": " devel",
  "5990": "rec",
  "5991": " terror",
  "5992": " abs",
  "5993": " mainit",
  "5994": " relat",
  "5995": " isinamp",
  "5996": "uary",
  "5997": " world",
  "5998": " Hol",
  "5999": " Iran",
  "6000": " food",
  "6001": "ource",
  "6002": "angkop",
  "6003": " tumakbo",
  "6004": " Angeles",
  "6005": "alok",
  "6006": " Bicol",
  "6007": " Dan",
  "6008": " binanggit",
  "6009": "asailalim",
  "6010": " apl",
  "6011": " Barb",
  "6012": " Ann",
  "6013": " 1990",
  "6014": " Vietnam",
  "6015": " aral",
  "6016": "enida",
  "6017": " bir",
  "6018": " Pangilinan",
  "6019": " Edu",
  "6020": " let",
  "6021": "ungkol",
  "6022": "overnor",
  "6023": " Tomas",
  "6024": "abasa",
  "6025": " spe",
  "6026": " materyal",
  "6027": " dead",
  "6028": " taumbayan",
  "6029": " kumulang",
  "6030": " dipl",
  "6031": " katiwalian",
  "6032": " Sar",
  "6033": "sel",
  "6034": "esh",
  "6035": " Imperyo",
  "6036": " ideya",
  "6037": " Sw",
  "6038": " arke",
  "6039": " Baguio",
  "6040": " Exp",
  "6041": " Ano",
  "6042": "ersecretary",
  "6043": " You",
  "6044": " pantao",
  "6045": " Dak",
  "6046": " gobernador",
  "6047": " Cer",
  "6048": "ertific",
  "6049": " natanggap",
  "6050": " bahaging",
  "6051": " Ven",
  "6052": "antayan",
  "6053": " natuklasan",
  "6054": "anti",
  "6055": " Republikang",
  "6056": "BB",
  "6057": " kinasas",
  "6058": "agdaan",
  "6059": " kababayan",
  "6060": " magkat",
  "6061": " make",
  "6062": " dalub",
  "6063": " web",
  "6064": " William",
  "6065": " anang",
  "6066": "uruan",
  "6067": " kayang",
  "6068": " biyahe",
  "6069": "90",
  "6070": "anueva",
  "6071": " Bus",
  "6072": " masamang",
  "6073": "ending",
  "6074": " kanlurang",
  "6075": " nakakuha",
  "6076": "ugin",
  "6077": " tinag",
  "6078": " station",
  "6079": " pagkaraan",
  "6080": " direktang",
  "6081": " nakakat",
  "6082": " disipl",
  "6083": " kulang",
  "6084": " Bil",
  "6085": "enzuela",
  "6086": " pinagb",
  "6087": " mano",
  "6088": " kura",
  "6089": " krisis",
  "6090": "igi",
  "6091": " Balita",
  "6092": " Wala",
  "6093": "ariang",
  "6094": "osta",
  "6095": " information",
  "6096": " nagsasaad",
  "6097": " Park",
  "6098": " Diego",
  "6099": " month",
  "6100": " Kuwait",
  "6101": " bawal",
  "6102": "antes",
  "6103": " equ",
  "6104": "akasal",
  "6105": " instr",
  "6106": " masel",
  "6107": "inta",
  "6108": "lag",
  "6109": "itis",
  "6110": "oob",
  "6111": " anal",
  "6112": "ikulo",
  "6113": " diumano",
  "6114": " mananal",
  "6115": " nagpa",
  "6116": " bangko",
  "6117": " board",
  "6118": " Agency",
  "6119": "Tiniyak",
  "6120": " new",
  "6121": "awig",
  "6122": "oridad",
  "6123": "obo",
  "6124": " vot",
  "6125": " planong",
  "6126": " kumalat",
  "6127": " emergency",
  "6128": " leg",
  "6129": " unibersidad",
  "6130": " Capital",
  "6131": " game",
  "6132": " Ronald",
  "6133": " prof",
  "6134": " care",
  "6135": " Villanueva",
  "6136": " sil",
  "6137": " conference",
  "6138": " tind",
  "6139": " makapang",
  "6140": " nagtatrabaho",
  "6141": " vis",
  "6142": " traffic",
  "6143": "iod",
  "6144": " here",
  "6145": " asawang",
  "6146": " Pul",
  "6147": " Dahil",
  "6148": " Rol",
  "6149": "iemonte",
  "6150": " Code",
  "6151": "ollow",
  "6152": " netiz",
  "6153": "Pang",
  "6154": "ysical",
  "6155": " itinal",
  "6156": " Memor",
  "6157": " papasok",
  "6158": " 2002",
  "6159": " Mendo",
  "6160": "omp",
  "6161": " kinikilala",
  "6162": " masus",
  "6163": " body",
  "6164": " still",
  "6165": "uhit",
  "6166": " Espanyol",
  "6167": "Nah",
  "6168": "style",
  "6169": " Mr",
  "6170": " pagsasagawa",
  "6171": "akatawan",
  "6172": " Ninoy",
  "6173": "lon",
  "6174": " last",
  "6175": "'m",
  "6176": "bahay",
  "6177": " prim",
  "6178": " iniulat",
  "6179": " apektado",
  "6180": " 120",
  "6181": "agna",
  "6182": "ipot",
  "6183": "enya",
  "6184": " PDEA",
  "6185": " personnel",
  "6186": " Meh",
  "6187": " salapi",
  "6188": " Kalakhang",
  "6189": "ahas",
  "6190": " parte",
  "6191": "gen",
  "6192": " cer",
  "6193": "epto",
  "6194": " CIT",
  "6195": " nararapat",
  "6196": " represent",
  "6197": "ally",
  "6198": "tatalik",
  "6199": " American",
  "6200": " nilikha",
  "6201": " nagtatag",
  "6202": " puwedeng",
  "6203": " nawalan",
  "6204": "ibot",
  "6205": " nail",
  "6206": " Ana",
  "6207": "omm",
  "6208": " hiniling",
  "6209": "WH",
  "6210": "amig",
  "6211": " Ay",
  "6212": "atu",
  "6213": "rek",
  "6214": " Heidelberg",
  "6215": " Harry",
  "6216": " members",
  "6217": " pus",
  "6218": " petro",
  "6219": " siyentipiko",
  "6220": "pas",
  "6221": "Nitong",
  "6222": " senior",
  "6223": " Sm",
  "6224": " pagpili",
  "6225": " nawala",
  "6226": " pinab",
  "6227": " Marc",
  "6228": " murder",
  "6229": "ues",
  "6230": "islat",
  "6231": " Haring",
  "6232": " Camb",
  "6233": " trapiko",
  "6234": "apawid",
  "6235": " overseas",
  "6236": " CC",
  "6237": " Alan",
  "6238": "ipa",
  "6239": "alakal",
  "6240": " Trump",
  "6241": " Valenzuela",
  "6242": "55",
  "6243": "ze",
  "6244": " Po",
  "6245": " PS",
  "6246": " Ha",
  "6247": "agdagan",
  "6248": " box",
  "6249": "Inaas",
  "6250": " Vir",
  "6251": " acc",
  "6252": " bol",
  "6253": " pinagt",
  "6254": " Mary",
  "6255": " masa",
  "6256": " paglalakbay",
  "6257": "TE",
  "6258": " ens",
  "6259": " talumpati",
  "6260": " libingan",
  "6261": "Paliwanag",
  "6262": "anaque",
  "6263": " inaresto",
  "6264": " trip",
  "6265": "ensiyal",
  "6266": " cases",
  "6267": " nangg",
  "6268": " katayuan",
  "6269": "rough",
  "6270": " dumaan",
  "6271": "bal",
  "6272": "Dapat",
  "6273": "oph",
  "6274": " plat",
  "6275": "alagahan",
  "6276": " tagumpay",
  "6277": " Aguirre",
  "6278": "abor",
  "6279": " pagkap",
  "6280": "gaw",
  "6281": " ear",
  "6282": " pagbabalik",
  "6283": " conv",
  "6284": " mina",
  "6285": "Marami",
  "6286": " sinal",
  "6287": "dom",
  "6288": "ki",
  "6289": " ala",
  "6290": " Nang",
  "6291": " Jimenez",
  "6292": " unti",
  "6293": " val",
  "6294": " kopya",
  "6295": " rebelde",
  "6296": "filo",
  "6297": " sw",
  "6298": " class",
  "6299": " pinakamat",
  "6300": " Sisa",
  "6301": "Mah",
  "6302": " tricycle",
  "6303": " bunsod",
  "6304": " Lalawigan",
  "6305": " iisip",
  "6306": " karagdagan",
  "6307": " lumal",
  "6308": "ages",
  "6309": " 48",
  "6310": " senso",
  "6311": "ibility",
  "6312": " ipagp",
  "6313": " independ",
  "6314": " sat",
  "6315": "pr",
  "6316": " meron",
  "6317": " sabay",
  "6318": "ready",
  "6319": "cer",
  "6320": " Surigao",
  "6321": " sikat",
  "6322": " halamang",
  "6323": " Merc",
  "6324": "inago",
  "6325": "isya",
  "6326": " did",
  "6327": "lav",
  "6328": "Ipinaliwanag",
  "6329": " maganda",
  "6330": "nitude",
  "6331": " paglul",
  "6332": " Employ",
  "6333": " anyong",
  "6334": " kompl",
  "6335": "hing",
  "6336": " tunog",
  "6337": " nucle",
  "6338": " Mendoza",
  "6339": " impluwensiya",
  "6340": " mahusay",
  "6341": " band",
  "6342": " Apost",
  "6343": "ective",
  "6344": " Rosario",
  "6345": " bisa",
  "6346": "ensive",
  "6347": " panawagan",
  "6348": " ebanghelyo",
  "6349": "quez",
  "6350": "tm",
  "6351": " line",
  "6352": " Li",
  "6353": "atchalian",
  "6354": "ele",
  "6355": " pinah",
  "6356": " champ",
  "6357": "inoon",
  "6358": "ikina",
  "6359": "alakihan",
  "6360": " ipat",
  "6361": " Teod",
  "6362": " musika",
  "6363": "abak",
  "6364": " ipinah",
  "6365": " matukoy",
  "6366": "bayad",
  "6367": " Kh",
  "6368": " Cant",
  "6369": " travel",
  "6370": " Jack",
  "6371": " 500",
  "6372": "inos",
  "6373": " testing",
  "6374": " nagpak",
  "6375": "ulatan",
  "6376": "uya",
  "6377": " binigyang",
  "6378": " Frank",
  "6379": "olic",
  "6380": "aysayang",
  "6381": " Pant",
  "6382": "iles",
  "6383": " Star",
  "6384": " makakuha",
  "6385": "analo",
  "6386": " temperatura",
  "6387": "Uma",
  "6388": " Paranaque",
  "6389": " alb",
  "6390": " Kapulungan",
  "6391": " sagot",
  "6392": " pund",
  "6393": "tion",
  "6394": " haba",
  "6395": " sampung",
  "6396": " November",
  "6397": " PNoy",
  "6398": "umpiska",
  "6399": " rice",
  "6400": "ares",
  "6401": "awasan",
  "6402": "olid",
  "6403": " private",
  "6404": " Pasko",
  "6405": "otse",
  "6406": " salarin",
  "6407": "umpa",
  "6408": " suplay",
  "6409": "itness",
  "6410": "apela",
  "6411": " January",
  "6412": "etong",
  "6413": " sumasak",
  "6414": " ipatupad",
  "6415": " daantaon",
  "6416": " hotel",
  "6417": "ugong",
  "6418": "ague",
  "6419": " get",
  "6420": " bahag",
  "6421": "angat",
  "6422": " gagawing",
  "6423": " Sinaunang",
  "6424": " hospital",
  "6425": " Welfare",
  "6426": " Feb",
  "6427": " palitan",
  "6428": " nangyaring",
  "6429": "tt",
  "6430": "omenda",
  "6431": " namam",
  "6432": " Hudas",
  "6433": " displaystyle",
  "6434": " LRT",
  "6435": " sugat",
  "6436": "Agad",
  "6437": " On",
  "6438": " kalaunan",
  "6439": "raq",
  "6440": " Italy",
  "6441": "alye",
  "6442": "esyon",
  "6443": " itlog",
  "6444": " sumailalim",
  "6445": "col",
  "6446": "alon",
  "6447": " isipan",
  "6448": " Enforcement",
  "6449": "Isina",
  "6450": " lebel",
  "6451": "insunod",
  "6452": "stitution",
  "6453": " every",
  "6454": "Ipinag",
  "6455": " Hebreo",
  "6456": " manga",
  "6457": "isismo",
  "6458": " arest",
  "6459": "Karaniwang",
  "6460": " already",
  "6461": "uriang",
  "6462": " well",
  "6463": "IC",
  "6464": "ilanlan",
  "6465": " krus",
  "6466": " techn",
  "6467": "riend",
  "6468": " road",
  "6469": " Pen",
  "6470": "dy",
  "6471": " molek",
  "6472": " Gatchalian",
  "6473": " complaint",
  "6474": " during",
  "6475": " pagbili",
  "6476": " eleksyon",
  "6477": "ahanda",
  "6478": "abuso",
  "6479": " ul",
  "6480": " ur",
  "6481": "67",
  "6482": " Suw",
  "6483": " kapayapaan",
  "6484": " some",
  "6485": " lumang",
  "6486": "enef",
  "6487": " CITY",
  "6488": " yan",
  "6489": " politika",
  "6490": " dz",
  "6491": " maituturing",
  "6492": " Panfilo",
  "6493": " cal",
  "6494": " nagsasal",
  "6495": " konsepto",
  "6496": " Gregor",
  "6497": "loy",
  "6498": " kasamang",
  "6499": " prosecut",
  "6500": " Bishop",
  "6501": " Lt",
  "6502": " Ze",
  "6503": "amali",
  "6504": " child",
  "6505": " Nations",
  "6506": "uksiyon",
  "6507": "unicipal",
  "6508": " happ",
  "6509": " Vicente",
  "6510": " Rafa",
  "6511": " kritiko",
  "6512": " himpilan",
  "6513": "ardy",
  "6514": "Dito",
  "6515": " klaseng",
  "6516": "uki",
  "6517": " form",
  "6518": " impeksiyon",
  "6519": " solusyon",
  "6520": " activ",
  "6521": "esong",
  "6522": " Loren",
  "6523": "Pin",
  "6524": " tayong",
  "6525": "uke",
  "6526": " establ",
  "6527": "ED",
  "6528": " Bis",
  "6529": "alos",
  "6530": " Card",
  "6531": " Iraq",
  "6532": " libreng",
  "6533": "48",
  "6534": "ott",
  "6535": "iwaan",
  "6536": " NAIA",
  "6537": "65",
  "6538": "vent",
  "6539": " Corona",
  "6540": " Section",
  "6541": " mahahalagang",
  "6542": "Ini",
  "6543": "pio",
  "6544": " Max",
  "6545": "ilaw",
  "6546": " pinakah",
  "6547": " Rena",
  "6548": "phone",
  "6549": "acter",
  "6550": " Erap",
  "6551": " Nic",
  "6552": " menor",
  "6553": "song",
  "6554": "yadong",
  "6555": " way",
  "6556": " Alej",
  "6557": " lal",
  "6558": " SO",
  "6559": " oil",
  "6560": " Mong",
  "6561": " gustong",
  "6562": "Isin",
  "6563": " bibig",
  "6564": " leh",
  "6565": "uana",
  "6566": " most",
  "6567": "inet",
  "6568": "ello",
  "6569": " vol",
  "6570": " Order",
  "6571": "isyonal",
  "6572": "order",
  "6573": " Eduardo",
  "6574": "anayan",
  "6575": " itinut",
  "6576": "amis",
  "6577": " Rafael",
  "6578": " singil",
  "6579": " Marikina",
  "6580": "ultan",
  "6581": "pot",
  "6582": "ffer",
  "6583": " kinasuhan",
  "6584": " three",
  "6585": " ASEAN",
  "6586": "atao",
  "6587": " Punong",
  "6588": " imin",
  "6589": " help",
  "6590": "aari",
  "6591": "buhay",
  "6592": " SM",
  "6593": " kaguluhan",
  "6594": " sangkap",
  "6595": "ises",
  "6596": "ersang",
  "6597": " ship",
  "6598": "back",
  "6599": " Bir",
  "6600": " paghahanap",
  "6601": " politiko",
  "6602": " poss",
  "6603": "eklarang",
  "6604": " take",
  "6605": "HA",
  "6606": "ats",
  "6607": " Duque",
  "6608": " States",
  "6609": " Lou",
  "6610": " guard",
  "6611": "umer",
  "6612": "kl",
  "6613": " Ingg",
  "6614": " Isabela",
  "6615": " suliranin",
  "6616": " Tang",
  "6617": "irer",
  "6618": " tropa",
  "6619": " Lond",
  "6620": " Pu",
  "6621": " cong",
  "6622": " samahan",
  "6623": " Magd",
  "6624": " nakatuon",
  "6625": " butas",
  "6626": " domest",
  "6627": " kalahati",
  "6628": " baha",
  "6629": " kahil",
  "6630": " tab",
  "6631": "ulf",
  "6632": " Bonif",
  "6633": " maj",
  "6634": " meeting",
  "6635": "uho",
  "6636": " karne",
  "6637": "agip",
  "6638": " Alto",
  "6639": "ified",
  "6640": " brief",
  "6641": " System",
  "6642": "cue",
  "6643": "ulto",
  "6644": " First",
  "6645": " bakuna",
  "6646": " product",
  "6647": "uong",
  "6648": "sis",
  "6649": " MILF",
  "6650": " Trial",
  "6651": " Communications",
  "6652": " emperador",
  "6653": " DepEd",
  "6654": " Imm",
  "6655": "Hum",
  "6656": "amt",
  "6657": " Mind",
  "6658": "iving",
  "6659": " Agric",
  "6660": " hard",
  "6661": " parusa",
  "6662": "ondena",
  "6663": "ening",
  "6664": " exper",
  "6665": " elektron",
  "6666": " bumuo",
  "6667": " bundok",
  "6668": " nagrer",
  "6669": " pagkilala",
  "6670": "yunal",
  "6671": " cur",
  "6672": " Ga",
  "6673": "ester",
  "6674": "uts",
  "6675": " Tab",
  "6676": "inde",
  "6677": " look",
  "6678": " bababa",
  "6679": " Russia",
  "6680": " pagbagsak",
  "6681": "bihan",
  "6682": " Hall",
  "6683": " Leila",
  "6684": "arilyo",
  "6685": " isinampa",
  "6686": " UP",
  "6687": " contract",
  "6688": "unayang",
  "6689": " interp",
  "6690": " matanda",
  "6691": " Kol",
  "6692": " December",
  "6693": " Bonifacio",
  "6694": "pi",
  "6695": " mut",
  "6696": " malayang",
  "6697": " Cup",
  "6698": " usapan",
  "6699": " magbibigay",
  "6700": " Basilio",
  "6701": " gun",
  "6702": " jud",
  "6703": "the",
  "6704": " Human",
  "6705": " pinakamah",
  "6706": " Pinag",
  "6707": " alp",
  "6708": " Bin",
  "6709": " humah",
  "6710": " hold",
  "6711": " pamagat",
  "6712": " supply",
  "6713": "alangkas",
  "6714": "erous",
  "6715": " ikaapat",
  "6716": " sandaling",
  "6717": " Islamic",
  "6718": "daang",
  "6719": "isag",
  "6720": " red",
  "6721": " tangh",
  "6722": " must",
  "6723": "rian",
  "6724": " pamayanan",
  "6725": " Lat",
  "6726": " job",
  "6727": " kawani",
  "6728": "val",
  "6729": "igla",
  "6730": "agda",
  "6731": "yonar",
  "6732": " Panahon",
  "6733": "MP",
  "6734": "ills",
  "6735": "SWD",
  "6736": " kata",
  "6737": "ann",
  "6738": " lingg",
  "6739": " lumalabas",
  "6740": " 1991",
  "6741": "ruary",
  "6742": " Sto",
  "6743": "ampo",
  "6744": " PH",
  "6745": "monte",
  "6746": " Pagp",
  "6747": " follow",
  "6748": "athala",
  "6749": " punto",
  "6750": " pamamaril",
  "6751": " interest",
  "6752": " apos",
  "6753": " kaanak",
  "6754": "inaldo",
  "6755": "ensor",
  "6756": "ll",
  "6757": " Nar",
  "6758": "upunta",
  "6759": " pagbaba",
  "6760": " Apostol",
  "6761": "AS",
  "6762": " tapat",
  "6763": "alingan",
  "6764": " Saligang",
  "6765": "Ginawa",
  "6766": " regional",
  "6767": "garya",
  "6768": "wat",
  "6769": "uktura",
  "6770": " bub",
  "6771": " album",
  "6772": " Bur",
  "6773": " kinasasangkutan",
  "6774": " June",
  "6775": " kumakatawan",
  "6776": "uparan",
  "6777": " Pil",
  "6778": " foss",
  "6779": " Constantine",
  "6780": "idence",
  "6781": " inj",
  "6782": "Napag",
  "6783": " Ip",
  "6784": " into",
  "6785": " magkapatid",
  "6786": " Cel",
  "6787": " z",
  "6788": "sin",
  "6789": " inap",
  "6790": " hanap",
  "6791": " really",
  "6792": "dis",
  "6793": " concern",
  "6794": " pagkuha",
  "6795": "Upang",
  "6796": " Kapul",
  "6797": " akusado",
  "6798": " bangka",
  "6799": " Techn",
  "6800": " billion",
  "6801": "arong",
  "6802": " espesyal",
  "6803": " bulak",
  "6804": " daanan",
  "6805": "ipikong",
  "6806": " humigit",
  "6807": " mamamahayag",
  "6808": "utulong",
  "6809": " Network",
  "6810": "inom",
  "6811": " naghih",
  "6812": " terorista",
  "6813": " Church",
  "6814": "uhayan",
  "6815": " alegasyon",
  "6816": " ikinas",
  "6817": " result",
  "6818": " 1986",
  "6819": " karah",
  "6820": " pen",
  "6821": " unibers",
  "6822": " tiniyak",
  "6823": " Liberal",
  "6824": "iat",
  "6825": " ipa",
  "6826": " how",
  "6827": "esisyon",
  "6828": " inab",
  "6829": "Nais",
  "6830": " finan",
  "6831": " proper",
  "6832": " Walang",
  "6833": "Patuloy",
  "6834": " Award",
  "6835": " daloy",
  "6836": "Ph",
  "6837": "leto",
  "6838": " pagkawala",
  "6839": " nananatiling",
  "6840": " tingnan",
  "6841": " evac",
  "6842": " If",
  "6843": " 46",
  "6844": " 1980",
  "6845": " assistance",
  "6846": " kulungan",
  "6847": " lap",
  "6848": " life",
  "6849": "99",
  "6850": " Ama",
  "6851": " Lup",
  "6852": "akong",
  "6853": " galaw",
  "6854": " pantay",
  "6855": " pangunguna",
  "6856": " kotse",
  "6857": " pangl",
  "6858": " kumpirm",
  "6859": " magpapat",
  "6860": "uf",
  "6861": "LO",
  "6862": "ND",
  "6863": "alif",
  "6864": "usulat",
  "6865": " Paris",
  "6866": " pagbubukas",
  "6867": "inea",
  "6868": "eneo",
  "6869": "alou",
  "6870": " Cath",
  "6871": " Tro",
  "6872": " Fernandez",
  "6873": "Kilala",
  "6874": "ough",
  "6875": "Sila",
  "6876": "ves",
  "6877": " mitolo",
  "6878": "agon",
  "6879": " tulay",
  "6880": " pangt",
  "6881": " kilo",
  "6882": " heneral",
  "6883": "icilia",
  "6884": " grad",
  "6885": " Grand",
  "6886": "unas",
  "6887": " Leo",
  "6888": " Unibersidad",
  "6889": " Eskos",
  "6890": "88",
  "6891": " lat",
  "6892": "ensyon",
  "6893": " katawagan",
  "6894": " meas",
  "6895": " mamatay",
  "6896": " dad",
  "6897": " pagkal",
  "6898": " makakat",
  "6899": " family",
  "6900": " pananaliksik",
  "6901": " Ep",
  "6902": " matatag",
  "6903": "daan",
  "6904": " komunidad",
  "6905": " exam",
  "6906": " member",
  "6907": " tinamaan",
  "6908": " ipinagbabawal",
  "6909": " February",
  "6910": "tas",
  "6911": "ici",
  "6912": " pangkalahatan",
  "6913": "intulad",
  "6914": "ektahan",
  "6915": "vince",
  "6916": " Front",
  "6917": "enos",
  "6918": "ding",
  "6919": " tamb",
  "6920": " company",
  "6921": " iskolar",
  "6922": "aham",
  "6923": " fossil",
  "6924": " magnitude",
  "6925": " Undersecretary",
  "6926": " kapitan",
  "6927": " nom",
  "6928": "uwid",
  "6929": " vac",
  "6930": " aari",
  "6931": " payak",
  "6932": "44",
  "6933": " card",
  "6934": " Gov",
  "6935": " Water",
  "6936": " relihiyoso",
  "6937": " dist",
  "6938": "istiko",
  "6939": " Spokesperson",
  "6940": " apostol",
  "6941": "amahalaan",
  "6942": " kem",
  "6943": " Wil",
  "6944": " kahoy",
  "6945": " hih",
  "6946": " Basilan",
  "6947": " Fire",
  "6948": " pagkalat",
  "6949": "ross",
  "6950": " dalaga",
  "6951": " Prin",
  "6952": "aliit",
  "6953": " babala",
  "6954": " Northern",
  "6955": " nagsimulang",
  "6956": " rehabilit",
  "6957": " Oscar",
  "6958": "ardinia",
  "6959": " protesta",
  "6960": " before",
  "6961": " ganito",
  "6962": " PAGASA",
  "6963": "ication",
  "6964": " Belmonte",
  "6965": "ily",
  "6966": "Em",
  "6967": "ji",
  "6968": " diy",
  "6969": "oke",
  "6970": "BG",
  "6971": " nauna",
  "6972": " etn",
  "6973": "Sinasabing",
  "6974": "iksiyon",
  "6975": " diyan",
  "6976": " masama",
  "6977": " tinukoy",
  "6978": " Sch",
  "6979": " Inglatera",
  "6980": "arda",
  "6981": " graft",
  "6982": " inilagay",
  "6983": "acay",
  "6984": " Southern",
  "6985": " liderato",
  "6986": " nagdulot",
  "6987": " front",
  "6988": "aktura",
  "6989": "ruzzo",
  "6990": " 1981",
  "6991": " depresyon",
  "6992": " cust",
  "6993": " inhin",
  "6994": " pananakop",
  "6995": " kalalakihan",
  "6996": " kapakanan",
  "6997": "angka",
  "6998": "NPA",
  "6999": " PBA",
  "7000": " 43",
  "7001": " 1992",
  "7002": "ilic",
  "7003": "agas",
  "7004": " Rail",
  "7005": " benef",
  "7006": "ually",
  "7007": "edya",
  "7008": "iolog",
  "7009": " basehan",
  "7010": "anch",
  "7011": " cellphone",
  "7012": "apal",
  "7013": " libong",
  "7014": " Tin",
  "7015": " Ele",
  "7016": " umaasa",
  "7017": " paglalarawan",
  "7018": "Pina",
  "7019": "inop",
  "7020": " pampas",
  "7021": " could",
  "7022": " martial",
  "7023": "anghal",
  "7024": " mall",
  "7025": " malinis",
  "7026": "Nagsimula",
  "7027": " prosesong",
  "7028": "raz",
  "7029": "umo",
  "7030": "ilik",
  "7031": "tatag",
  "7032": " Quir",
  "7033": " basta",
  "7034": " armas",
  "7035": "dige",
  "7036": "iveros",
  "7037": " through",
  "7038": "inanong",
  "7039": " event",
  "7040": " pagkakakilanlan",
  "7041": " economic",
  "7042": "unawaan",
  "7043": "untok",
  "7044": " Adige",
  "7045": "ogo",
  "7046": " Pon",
  "7047": " ipap",
  "7048": " services",
  "7049": " respond",
  "7050": "ikadong",
  "7051": "anapan",
  "7052": " basura",
  "7053": " sinundan",
  "7054": " Industr",
  "7055": " Venezia",
  "7056": " gastos",
  "7057": "ruit",
  "7058": " manok",
  "7059": " kaaly",
  "7060": " nagresulta",
  "7061": " Lee",
  "7062": " bilis",
  "7063": " panitikan",
  "7064": " VI",
  "7065": " silid",
  "7066": " kalapit",
  "7067": " kidnap",
  "7068": " tulungan",
  "7069": " kompyuter",
  "7070": " mahal",
  "7071": " Sudti",
  "7072": " fre",
  "7073": " Sudtirol",
  "7074": "usob",
  "7075": " God",
  "7076": " Koreano",
  "7077": " mapagk",
  "7078": " kinakailangang",
  "7079": " nagsasabing",
  "7080": " Coast",
  "7081": " Roman",
  "7082": " Offic",
  "7083": " epektibo",
  "7084": " plunder",
  "7085": "ombardy",
  "7086": "mena",
  "7087": " Team",
  "7088": " briefing",
  "7089": " memor",
  "7090": "36",
  "7091": " Babil",
  "7092": "agpuang",
  "7093": " Ern",
  "7094": "otiko",
  "7095": " incre",
  "7096": "lex",
  "7097": "ER",
  "7098": "olise",
  "7099": " Ngayon",
  "7100": " Kim",
  "7101": " infl",
  "7102": " pekeng",
  "7103": "ilitan",
  "7104": " senatorial",
  "7105": " period",
  "7106": " model",
  "7107": " Lit",
  "7108": "ahatid",
  "7109": " bib",
  "7110": " cannot",
  "7111": " sun",
  "7112": " Ej",
  "7113": "mang",
  "7114": " Intsik",
  "7115": " Moro",
  "7116": "ternat",
  "7117": " batayan",
  "7118": " pumunta",
  "7119": " candidate",
  "7120": " Kaya",
  "7121": " nahuli",
  "7122": "ialam",
  "7123": "ification",
  "7124": "ionary",
  "7125": " 55",
  "7126": " Jac",
  "7127": "mbria",
  "7128": "stiyang",
  "7129": "untinl",
  "7130": "azio",
  "7131": "ercito",
  "7132": " Hang",
  "7133": " nagpahayag",
  "7134": "ungkot",
  "7135": "ilin",
  "7136": " napa",
  "7137": " Assistant",
  "7138": " nagpapak",
  "7139": "Magug",
  "7140": "untinlupa",
  "7141": "tso",
  "7142": "ositibo",
  "7143": " Ja",
  "7144": " tinit",
  "7145": " Teodoro",
  "7146": " aso",
  "7147": "ineb",
  "7148": " pelikulang",
  "7149": "ims",
  "7150": " nabuo",
  "7151": "uble",
  "7152": " doktr",
  "7153": " naapektuhan",
  "7154": " trop",
  "7155": "eneto",
  "7156": " kagamitan",
  "7157": " katimugang",
  "7158": " nagsabing",
  "7159": " VII",
  "7160": " tagap",
  "7161": "Matatagpuan",
  "7162": " kwant",
  "7163": " webs",
  "7164": "49",
  "7165": "iram",
  "7166": "oundation",
  "7167": "ger",
  "7168": " Eslob",
  "7169": "ukunan",
  "7170": " Joy",
  "7171": " Islands",
  "7172": " munisipalidad",
  "7173": " tirahan",
  "7174": "37",
  "7175": " pagtatapos",
  "7176": " pananakit",
  "7177": "tein",
  "7178": "Binigyang",
  "7179": "vo",
  "7180": " piso",
  "7181": " makapagp",
  "7182": "erb",
  "7183": " Lanao",
  "7184": " Aosta",
  "7185": " petrolyo",
  "7186": "atol",
  "7187": " lis",
  "7188": " down",
  "7189": "heast",
  "7190": " Bello",
  "7191": "46",
  "7192": " kahulugang",
  "7193": " Sib",
  "7194": " low",
  "7195": " NBA",
  "7196": "Calab",
  "7197": " Oly",
  "7198": " wa",
  "7199": "inango",
  "7200": "inh",
  "7201": "ym",
  "7202": "impluw",
  "7203": " pabalik",
  "7204": " simpleng",
  "7205": "pound",
  "7206": "diin",
  "7207": " Mindoro",
  "7208": " free",
  "7209": " maikling",
  "7210": "uwento",
  "7211": " Ortodokso",
  "7212": " pip",
  "7213": "asanib",
  "7214": " dayuhang",
  "7215": " paggamot",
  "7216": " armadong",
  "7217": " Gol",
  "7218": " inu",
  "7219": "uskanya",
  "7220": " 65",
  "7221": "itnaan",
  "7222": "rito",
  "7223": "reg",
  "7224": " Los",
  "7225": " My",
  "7226": " session",
  "7227": "iusap",
  "7228": " agrik",
  "7229": " popular",
  "7230": " Crist",
  "7231": " tumama",
  "7232": " sasakyang",
  "7233": "ikado",
  "7234": "umentong",
  "7235": " Guard",
  "7236": " Bos",
  "7237": " ibaba",
  "7238": "rastr",
  "7239": "iisa",
  "7240": " buk",
  "7241": " ibigay",
  "7242": " karahasan",
  "7243": " Ejercito",
  "7244": " bank",
  "7245": " probinsiya",
  "7246": "BO",
  "7247": "non",
  "7248": " Tiago",
  "7249": "Nagkaroon",
  "7250": " parir",
  "7251": " alert",
  "7252": " CH",
  "7253": " fact",
  "7254": " Romagna",
  "7255": " pagtuturo",
  "7256": " palaging",
  "7257": "xia",
  "7258": "orter",
  "7259": "abat",
  "7260": " Muntinlupa",
  "7261": " kinakaharap",
  "7262": " dalaw",
  "7263": " madali",
  "7264": " malub",
  "7265": " saklaw",
  "7266": " naniniwalang",
  "7267": " pangyayaring",
  "7268": " 47",
  "7269": " Monte",
  "7270": " payo",
  "7271": " Employment",
  "7272": " tinatanggap",
  "7273": "agsik",
  "7274": " provincial",
  "7275": " pagsubok",
  "7276": " Giulia",
  "7277": "omer",
  "7278": " LTFRB",
  "7279": " 1987",
  "7280": "abayad",
  "7281": "osong",
  "7282": " sibilyan",
  "7283": " 42",
  "7284": "vention",
  "7285": "inary",
  "7286": " Bangk",
  "7287": " Services",
  "7288": " kapuluan",
  "7289": "Camp",
  "7290": " sinasalita",
  "7291": "tanggol",
  "7292": " modelo",
  "7293": "kat",
  "7294": "Kinumpirma",
  "7295": "oman",
  "7296": "eldon",
  "7297": " nagpas",
  "7298": " round",
  "7299": " petsa",
  "7300": " Crame",
  "7301": "inggoy",
  "7302": "stitutional",
  "7303": "romos",
  "7304": "Gay",
  "7305": " tinangg",
  "7306": "ekta",
  "7307": " fight",
  "7308": " kawalang",
  "7309": " paglago",
  "7310": " mangingisda",
  "7311": " responsable",
  "7312": " ipinadala",
  "7313": "ps",
  "7314": "alagyan",
  "7315": " 150",
  "7316": " Pres",
  "7317": " Sports",
  "7318": "riuli",
  "7319": "ides",
  "7320": " Conc",
  "7321": "andro",
  "7322": "85",
  "7323": " tinap",
  "7324": " RA",
  "7325": "AR",
  "7326": " Mags",
  "7327": " ugali",
  "7328": "unl",
  "7329": " Edgar",
  "7330": " Theod",
  "7331": " Sit",
  "7332": "plan",
  "7333": "iguria",
  "7334": " angkop",
  "7335": "apatan",
  "7336": "thur",
  "7337": " testigo",
  "7338": "CRPO",
  "7339": "ership",
  "7340": " den",
  "7341": "hem",
  "7342": "ugalian",
  "7343": " bilanggo",
  "7344": " Pacific",
  "7345": "uros",
  "7346": " hour",
  "7347": " Mc",
  "7348": " certific",
  "7349": "bakan",
  "7350": "zer",
  "7351": "aluyong",
  "7352": "ektong",
  "7353": " nagtut",
  "7354": "ineer",
  "7355": "anakan",
  "7356": " Mehiko",
  "7357": "Nagb",
  "7358": " plastic",
  "7359": " anime",
  "7360": " permit",
  "7361": "kw",
  "7362": "asiwaan",
  "7363": "iyanong",
  "7364": "adang",
  "7365": " kahilingan",
  "7366": "ilicata",
  "7367": " botante",
  "7368": " Ko",
  "7369": " field",
  "7370": "ambal",
  "7371": " pampag",
  "7372": " inilalarawan",
  "7373": "Abruzzo",
  "7374": "olution",
  "7375": " kalakalan",
  "7376": "udo",
  "7377": " Lakas",
  "7378": "iven",
  "7379": "Lombardy",
  "7380": " lock",
  "7381": "politan",
  "7382": "angalan",
  "7383": "anada",
  "7384": "siya",
  "7385": " loh",
  "7386": " motibo",
  "7387": "SIS",
  "7388": "abo",
  "7389": "urance",
  "7390": " hon",
  "7391": " Gonzales",
  "7392": " Sultan",
  "7393": "uthor",
  "7394": " termin",
  "7395": " internet",
  "7396": "apusan",
  "7397": " Can",
  "7398": " Olimp",
  "7399": "Umbria",
  "7400": " atake",
  "7401": " mapa",
  "7402": "Emilia",
  "7403": " sind",
  "7404": " pint",
  "7405": "Lambak",
  "7406": " salin",
  "7407": " teknolohiya",
  "7408": "Basilicata",
  "7409": "Friuli",
  "7410": "Lazio",
  "7411": "Liguria",
  "7412": "Molise",
  "7413": "Piemonte",
  "7414": "Sicilia",
  "7415": "Sardinia",
  "7416": "Tuskanya",
  "7417": "Veneto",
  "7418": " Wikip",
  "7419": "Marche",
  "7420": "riaCamp",
  "7421": " Navy",
  "7422": "Trentino",
  "7423": "aniaEmilia",
  "7424": "uliaBasilicata",
  "7425": "ApuliaBasilicata",
  "7426": " SudtirolTuskanya",
  "7427": " AostaApuliaBasilicata",
  "7428": "CalabriaCamp",
  "7429": " RomagnaFriuli",
  "7430": "AbruzzoLambak",
  "7431": "LombardyMarche",
  "7432": "UmbriaVeneto",
  "7433": "LazioLiguria",
  "7434": "MolisePiemonte",
  "7435": "SardiniaSicilia",
  "7436": " SudtirolTuskanyaUmbriaVeneto",
  "7437": "CalabriaCampaniaEmilia",
  "7438": "LazioLiguriaLombardyMarche",
  "7439": "MolisePiemonteSardiniaSicilia",
  "7440": " Tel",
  "7441": "ubos",
  "7442": "kanilang",
  "7443": "dan",
  "7444": " puting",
  "7445": " Boracay",
  "7446": " natitirang",
  "7447": "redit",
  "7448": " Andres",
  "7449": "gin",
  "7450": " mahistrado",
  "7451": " Judge",
  "7452": " issue",
  "7453": " anat",
  "7454": " Som",
  "7455": " Luis",
  "7456": " deal",
  "7457": " Str",
  "7458": " inisyal",
  "7459": " Aguinaldo",
  "7460": " sl",
  "7461": " makal",
  "7462": "ulation",
  "7463": " Agriculture",
  "7464": " Tour",
  "7465": " itinanggi",
  "7466": " alok",
  "7467": " incl",
  "7468": " Domingo",
  "7469": "Am",
  "7470": " Pros",
  "7471": "asura",
  "7472": " naglabas",
  "7473": " Faeldon",
  "7474": " nakitang",
  "7475": "uluwa",
  "7476": "andum",
  "7477": " pulitika",
  "7478": " problem",
  "7479": "aralang",
  "7480": "ulasyong",
  "7481": "ilingkod",
  "7482": " paputok",
  "7483": "hanced",
  "7484": " Israelita",
  "7485": " pwesto",
  "7486": "imon",
  "7487": "uyan",
  "7488": " suppl",
  "7489": " ID",
  "7490": "awaran",
  "7491": "orts",
  "7492": " 75",
  "7493": " magm",
  "7494": " suspect",
  "7495": " advis",
  "7496": " Salvi",
  "7497": "iddle",
  "7498": " tod",
  "7499": "inasura",
  "7500": " paraang",
  "7501": " Hit",
  "7502": " control",
  "7503": "ees",
  "7504": " mach",
  "7505": " pagbisita",
  "7506": " estadong",
  "7507": "unawa",
  "7508": " Legarda",
  "7509": "esar",
  "7510": "ahada",
  "7511": " pagkilos",
  "7512": "tal",
  "7513": " bulaklak",
  "7514": " binal",
  "7515": "ibusyon",
  "7516": " bomb",
  "7517": " Organization",
  "7518": "47",
  "7519": " Samp",
  "7520": " patungkol",
  "7521": " Abenida",
  "7522": "ilitis",
  "7523": " nagkakaroon",
  "7524": " flight",
  "7525": " pic",
  "7526": "alasan",
  "7527": " tangg",
  "7528": "antala",
  "7529": "aping",
  "7530": " natapos",
  "7531": " development",
  "7532": " Company",
  "7533": " totoong",
  "7534": " Christian",
  "7535": " Fort",
  "7536": " Isabel",
  "7537": "tors",
  "7538": "Binubuo",
  "7539": "Pinas",
  "7540": "ux",
  "7541": "des",
  "7542": " nakasal",
  "7543": " 1989",
  "7544": " Joel",
  "7545": "ability",
  "7546": "udit",
  "7547": " Vol",
  "7548": "encies",
  "7549": "ges",
  "7550": " relihiyong",
  "7551": " gitnang",
  "7552": " message",
  "7553": " CCTV",
  "7554": " institusyon",
  "7555": "ontiveros",
  "7556": " Arabo",
  "7557": " units",
  "7558": " misis",
  "7559": " nagmumula",
  "7560": " such",
  "7561": "ibre",
  "7562": " Andanar",
  "7563": "amutan",
  "7564": " Para",
  "7565": " nagpat",
  "7566": " George",
  "7567": "chet",
  "7568": " Western",
  "7569": " Dina",
  "7570": "'.",
  "7571": " bise",
  "7572": " Konstitusyon",
  "7573": " mist",
  "7574": "tim",
  "7575": "atives",
  "7576": "other",
  "7577": " intelligence",
  "7578": " nauugnay",
  "7579": " binuo",
  "7580": " policy",
  "7581": "abuti",
  "7582": " maganap",
  "7583": " sinimulan",
  "7584": " org",
  "7585": " Mandaluyong",
  "7586": " mong",
  "7587": " coll",
  "7588": " Pak",
  "7589": " kalim",
  "7590": " uniberso",
  "7591": "har",
  "7592": " administrasyong",
  "7593": "NG",
  "7594": "abe",
  "7595": " crisis",
  "7596": " subst",
  "7597": " invest",
  "7598": " numero",
  "7599": " li",
  "7600": " palip",
  "7601": "uhat",
  "7602": " kalinang",
  "7603": "ungkahing",
  "7604": "etto",
  "7605": " produksiyon",
  "7606": " taxi",
  "7607": "'re",
  "7608": "ilahok",
  "7609": "Bum",
  "7610": "hek",
  "7611": " Branch",
  "7612": " France",
  "7613": " pagbabagong",
  "7614": " pwedeng",
  "7615": " home",
  "7616": " perman",
  "7617": " face",
  "7618": " Overseas",
  "7619": "osm",
  "7620": " metal",
  "7621": " benepisyo",
  "7622": " opin",
  "7623": "roll",
  "7624": " nanawagan",
  "7625": " Express",
  "7626": " pagpupulong",
  "7627": " motorista",
  "7628": "Wh",
  "7629": "ukuyin",
  "7630": " basketball",
  "7631": " This",
  "7632": "hika",
  "7633": "imok",
  "7634": " Sinabi",
  "7635": "utukan",
  "7636": "ading",
  "7637": "urse",
  "7638": " yunit",
  "7639": " estasyon",
  "7640": " layo",
  "7641": "ship",
  "7642": " smugg",
  "7643": "asakit",
  "7644": " rit",
  "7645": "uhunan",
  "7646": " labing",
  "7647": " Deng",
  "7648": " yaman",
  "7649": " diplomat",
  "7650": " Sir",
  "7651": " Det",
  "7652": " espirit",
  "7653": " Ung",
  "7654": " Charles",
  "7655": " Ateneo",
  "7656": "intul",
  "7657": " kinumpirma",
  "7658": " positibo",
  "7659": " Palaiolog",
  "7660": "asing",
  "7661": "omend",
  "7662": " radyo",
  "7663": " kulturang",
  "7664": " Boy",
  "7665": " Hontiveros",
  "7666": "idge",
  "7667": " maliwanag",
  "7668": " nasasakupan",
  "7669": " Jess",
  "7670": " inamin",
  "7671": " dakilang",
  "7672": " Benj",
  "7673": " Mex",
  "7674": "heng",
  "7675": " nadakip",
  "7676": "aaralan",
  "7677": " pisika",
  "7678": " attack",
  "7679": " tiwala",
  "7680": " same",
  "7681": " gasolina",
  "7682": " alternat",
  "7683": " detalye",
  "7684": "ette",
  "7685": " expl",
  "7686": "Mat",
  "7687": "RMM",
  "7688": " Palaiologos",
  "7689": "ires",
  "7690": " turista",
  "7691": "Arroyo",
  "7692": " joint",
  "7693": " mater",
  "7694": "ugaliang",
  "7695": " pagtatayo",
  "7696": " Guinea",
  "7697": " sports",
  "7698": "time",
  "7699": " paniniwalang",
  "7700": " binaw",
  "7701": " Abella",
  "7702": "ferrato",
  "7703": " Atl",
  "7704": " kemikal",
  "7705": "uktor",
  "7706": " pananag",
  "7707": " Monferrato",
  "7708": " buwang",
  "7709": " hiling",
  "7710": " Dum",
  "7711": "ukasan",
  "7712": " pagamutan",
  "7713": " SSS",
  "7714": " agency",
  "7715": " bakal",
  "7716": " Olymp",
  "7717": "iation",
  "7718": " pagpapas",
  "7719": " magkakas",
  "7720": " ibinibigay",
  "7721": "iguez",
  "7722": " malalim",
  "7723": " senadora",
  "7724": "SP",
  "7725": " ibalik",
  "7726": " kalagitnaan",
  "7727": "SC",
  "7728": " alpab",
  "7729": "Patay",
  "7730": "alungat",
  "7731": "iyente",
  "7732": " matataas",
  "7733": " eleksiyon",
  "7734": " gl",
  "7735": " tindahan",
  "7736": "ift",
  "7737": " inatasan",
  "7738": " hukbong",
  "7739": " lubos",
  "7740": " nahaharap",
  "7741": " Son",
  "7742": "samoro",
  "7743": " vide",
  "7744": " agreement",
  "7745": " nagtungo",
  "7746": " buhok",
  "7747": "usyonar",
  "7748": " Gold",
  "7749": " Constantino",
  "7750": " sumali",
  "7751": " kinab",
  "7752": " week",
  "7753": " kalakal",
  "7754": " kaalyado",
  "7755": " lima",
  "7756": " Hari",
  "7757": "tand",
  "7758": " ark",
  "7759": " tagasunod",
  "7760": "ipo",
  "7761": " Drugs",
  "7762": " July",
  "7763": " bersiyon",
  "7764": "ocrat",
  "7765": "Mad",
  "7766": " sign",
  "7767": " holid",
  "7768": " 1995",
  "7769": " piraso",
  "7770": " pamantayan",
  "7771": " suport",
  "7772": " Academ",
  "7773": "kuw",
  "7774": "att",
  "7775": " force",
  "7776": " veh",
  "7777": " pangangalaga",
  "7778": " ten",
  "7779": " four",
  "7780": " Oro",
  "7781": " kahalagahan",
  "7782": "ANG",
  "7783": "If",
  "7784": "iman",
  "7785": "ops",
  "7786": " Green",
  "7787": " alinsunod",
  "7788": "Cor",
  "7789": "imili",
  "7790": "ustuhan",
  "7791": "Comelec",
  "7792": " amin",
  "7793": " rebol",
  "7794": " mainam",
  "7795": " rekord",
  "7796": "my",
  "7797": " Han",
  "7798": " 1998",
  "7799": " bulkan",
  "7800": " Bataan",
  "7801": " nakabatay",
  "7802": " Miyerkoles",
  "7803": "amam",
  "7804": " bumili",
  "7805": " Filipinos",
  "7806": " nangangahulugan",
  "7807": " manatili",
  "7808": "af",
  "7809": " baga",
  "7810": " PCSO",
  "7811": " petition",
  "7812": " cam",
  "7813": " Oras",
  "7814": " pagkaing",
  "7815": "RRM",
  "7816": " amp",
  "7817": " aspeto",
  "7818": " pangkasarian",
  "7819": " hous",
  "7820": " rebound",
  "7821": " anatom",
  "7822": " source",
  "7823": "ultural",
  "7824": " tuluyan",
  "7825": " ident",
  "7826": " airport",
  "7827": " Operations",
  "7828": " disc",
  "7829": " manager",
  "7830": "juana",
  "7831": " parusang",
  "7832": " tanda",
  "7833": "upit",
  "7834": " Estado",
  "7835": " Panginoon",
  "7836": " suso",
  "7837": " sigur",
  "7838": " tinaguriang",
  "7839": "zone",
  "7840": " dahon",
  "7841": " change",
  "7842": " nilalaman",
  "7843": "eldeng",
  "7844": " interpret",
  "7845": " dol",
  "7846": " threat",
  "7847": "CQ",
  "7848": " full",
  "7849": "kh",
  "7850": "okras",
  "7851": " mister",
  "7852": "imento",
  "7853": " German",
  "7854": " magagamit",
  "7855": " Bangsamoro",
  "7856": " Black",
  "7857": " panel",
  "7858": "cc",
  "7859": " Governor",
  "7860": " refer",
  "7861": "vaxia",
  "7862": " ngipin",
  "7863": " Officer",
  "7864": " page",
  "7865": " tingin",
  "7866": "ilty",
  "7867": "lease",
  "7868": " Power",
  "7869": " katutubo",
  "7870": "avit",
  "7871": " trib",
  "7872": "abase",
  "7873": "urok",
  "7874": "aph",
  "7875": "dong",
  "7876": " training",
  "7877": "van",
  "7878": " areas",
  "7879": "KA",
  "7880": "til",
  "7881": "ilitang",
  "7882": "uev",
  "7883": " gawi",
  "7884": " Press",
  "7885": "term",
  "7886": " price",
  "7887": " naghain",
  "7888": " sad",
  "7889": " kapanganakan",
  "7890": " Disaster",
  "7891": " fil",
  "7892": " idina",
  "7893": " Pand",
  "7894": "ampi",
  "7895": "ebol",
  "7896": " Miss",
  "7897": " lumipat",
  "7898": " Immigration",
  "7899": "atak",
  "7900": " Hal",
  "7901": " netizen",
  "7902": " days",
  "7903": " Seb",
  "7904": "There",
  "7905": " see",
  "7906": " One",
  "7907": " Let",
  "7908": "utom",
  "7909": "outheast",
  "7910": "uing",
  "7911": " panging",
  "7912": "unsyo",
  "7913": " penal",
  "7914": " Panl",
  "7915": "ugtog",
  "7916": "Pinak",
  "7917": " made",
  "7918": " commander",
  "7919": "ikat",
  "7920": " final",
  "7921": " Nas",
  "7922": " Beng",
  "7923": " marijuana",
  "7924": " kaganapan",
  "7925": " indibiduwal",
  "7926": "iance",
  "7927": " nilinaw",
  "7928": " sentim",
  "7929": " tiyan",
  "7930": " imbestigahan",
  "7931": "arilin",
  "7932": "BCP",
  "7933": "akad",
  "7934": "ikilos",
  "7935": "urora",
  "7936": " kromos",
  "7937": "peres",
  "7938": " kapal",
  "7939": " Kristo",
  "7940": "Matatandaan",
  "7941": "NC",
  "7942": " sundalong",
  "7943": " personalidad",
  "7944": "ring",
  "7945": " kaunting",
  "7946": "yum",
  "7947": " ibon",
  "7948": "kad",
  "7949": " gulay",
  "7950": " gaganap",
  "7951": "ieve",
  "7952": " internas",
  "7953": "idae",
  "7954": " data",
  "7955": "adist",
  "7956": " unahang",
  "7957": "ahating",
  "7958": " nation",
  "7959": " terminal",
  "7960": " aming",
  "7961": " bant",
  "7962": " ipakita",
  "7963": " tap",
  "7964": "edom",
  "7965": "ulatory",
  "7966": " pagbuo",
  "7967": " lahi",
  "7968": " layuning",
  "7969": "idro",
  "7970": " Ruso",
  "7971": "ulok",
  "7972": " lord",
  "7973": " Sem",
  "7974": " arg",
  "7975": "action",
  "7976": " tempor",
  "7977": "angerous",
  "7978": " paliparan",
  "7979": " nanatili",
  "7980": "iki",
  "7981": " Ste",
  "7982": "alagaan",
  "7983": "twitter",
  "7984": " matandang",
  "7985": " ipinas",
  "7986": " naglalarawan",
  "7987": " santo",
  "7988": "ihas",
  "7989": " flo",
  "7990": "59",
  "7991": " past",
  "7992": "umi",
  "7993": " Austria",
  "7994": "arungan",
  "7995": " hinaharap",
  "7996": "agsa",
  "7997": "aym",
  "7998": "Gum",
  "7999": " start",
  "8000": " nagkas",
  "8001": "zar",
  "8002": " alin",
  "8003": "ining",
  "8004": "Pum",
  "8005": " kaukulang",
  "8006": "89",
  "8007": "ariling",
  "8008": " pamamaraang",
  "8009": " Food",
  "8010": " alitan",
  "8011": "ction",
  "8012": " Catholic",
  "8013": " Trade",
  "8014": " naitalang",
  "8015": "32",
  "8016": " magamit",
  "8017": "weet",
  "8018": " appro",
  "8019": " Finan",
  "8020": "intahan",
  "8021": " Memorial",
  "8022": " foot",
  "8023": " Fund",
  "8024": "lands",
  "8025": " napagk",
  "8026": " kolehiyo",
  "8027": " pagw",
  "8028": "ograpiya",
  "8029": " ikaw",
  "8030": "orso",
  "8031": "ometr",
  "8032": " suk",
  "8033": "rez",
  "8034": " Hon",
  "8035": " estim",
  "8036": " imahe",
  "8037": " mask",
  "8038": " paglalagay",
  "8039": " Hind",
  "8040": " pinakahuling",
  "8041": "itim",
  "8042": "ahanan",
  "8043": " rebeldeng",
  "8044": " makina",
  "8045": "But",
  "8046": "ii",
  "8047": "itahan",
  "8048": "IDG",
  "8049": "okratikong",
  "8050": " hinat",
  "8051": " crime",
  "8052": " porm",
  "8053": "nance",
  "8054": " quarter",
  "8055": "ibabaw",
  "8056": "astos",
  "8057": " organis",
  "8058": "omon",
  "8059": "lock",
  "8060": " kapangyarihang",
  "8061": " many",
  "8062": " Budget",
  "8063": " signal",
  "8064": "aktan",
  "8065": "aria",
  "8066": " Sara",
  "8067": " nakakulong",
  "8068": " banggit",
  "8069": "awing",
  "8070": "idera",
  "8071": "etikong",
  "8072": " pack",
  "8073": " BOC",
  "8074": "ukump",
  "8075": " nagsasalita",
  "8076": " gag",
  "8077": " mabigat",
  "8078": " Henry",
  "8079": "69",
  "8080": "Tinawag",
  "8081": " Franklin",
  "8082": "olfo",
  "8083": " terminong",
  "8084": " seleksiyon",
  "8085": " Lina",
  "8086": " tumanggi",
  "8087": " moral",
  "8088": " Him",
  "8089": " Arg",
  "8090": " ikin",
  "8091": " Global",
  "8092": "87",
  "8093": " Moises",
  "8094": " masyadong",
  "8095": " mali",
  "8096": " pagsisimula",
  "8097": "Mal",
  "8098": "zman",
  "8099": " miss",
  "8100": " gaanong",
  "8101": " tubong",
  "8102": "MC",
  "8103": " Foundation",
  "8104": " negatibong",
  "8105": "amento",
  "8106": " Portugal",
  "8107": " Mil",
  "8108": " student",
  "8109": " Mesa",
  "8110": " Martial",
  "8111": " isinal",
  "8112": " ball",
  "8113": " commit",
  "8114": "lamong",
  "8115": " pinakama",
  "8116": "sob",
  "8117": "ionship",
  "8118": " tukuyin",
  "8119": " tumatanggap",
  "8120": " pagnanais",
  "8121": " Gamb",
  "8122": "olcs",
  "8123": "inst",
  "8124": " nagpapahiwatig",
  "8125": "hala",
  "8126": " Fil",
  "8127": " Ampat",
  "8128": "Maliban",
  "8129": " binabay",
  "8130": " Serb",
  "8131": " give",
  "8132": " Ban",
  "8133": " idinagdag",
  "8134": " Constantinop",
  "8135": " SPO",
  "8136": " Ener",
  "8137": " pampang",
  "8138": " away",
  "8139": " beh",
  "8140": " reprod",
  "8141": " bibl",
  "8142": "aheng",
  "8143": " kaloob",
  "8144": " pagpapahalaga",
  "8145": " Tri",
  "8146": "uwestiyon",
  "8147": " bomba",
  "8148": "ET",
  "8149": " Abd",
  "8150": "angguniang",
  "8151": " naib",
  "8152": " sumulat",
  "8153": " mahina",
  "8154": " banda",
  "8155": " rehiyong",
  "8156": " minimum",
  "8157": " pinangalanan",
  "8158": " agrikultura",
  "8159": " kontrobersiyal",
  "8160": "ilian",
  "8161": " where",
  "8162": " kasulatan",
  "8163": " kaay",
  "8164": " ipinakita",
  "8165": " Southeast",
  "8166": " maw",
  "8167": " nuk",
  "8168": " bihag",
  "8169": " Bernar",
  "8170": " Homo",
  "8171": " Erm",
  "8172": " kabig",
  "8173": " interview",
  "8174": "emic",
  "8175": "ustisya",
  "8176": "Nanawagan",
  "8177": " aawit",
  "8178": "identeng",
  "8179": " Hangul",
  "8180": "ayaw",
  "8181": " layong",
  "8182": " Polonya",
  "8183": " katawagang",
  "8184": " nagsabi",
  "8185": "anggunian",
  "8186": " buo",
  "8187": " pumayag",
  "8188": " naglalayong",
  "8189": " Metropolitan",
  "8190": " Aurora",
  "8191": "oble",
  "8192": "onomiya",
  "8193": " safety",
  "8194": " Game",
  "8195": " Protection",
  "8196": " aksiyon",
  "8197": "Yung",
  "8198": " Cy",
  "8199": " Nig",
  "8200": " trade",
  "8201": " Perez",
  "8202": " bibigyan",
  "8203": " Syria",
  "8204": " Sak",
  "8205": " nagtapos",
  "8206": "akter",
  "8207": " Alas",
  "8208": " UE",
  "8209": " leeg",
  "8210": " partic",
  "8211": "DOH",
  "8212": " Jinggoy",
  "8213": " groups",
  "8214": " Dengvaxia",
  "8215": " Digong",
  "8216": " bituin",
  "8217": "abae",
  "8218": "angkang",
  "8219": " suportahan",
  "8220": " Antip",
  "8221": " funds",
  "8222": "ukay",
  "8223": " disiplina",
  "8224": "aron",
  "8225": " alisin",
  "8226": " nagsisilbing",
  "8227": "34",
  "8228": " Conference",
  "8229": " pagtitipon",
  "8230": " Defensor",
  "8231": " Ampatuan",
  "8232": " treat",
  "8233": " Guzman",
  "8234": " Kor",
  "8235": "eri",
  "8236": " relief",
  "8237": " piling",
  "8238": " Morales",
  "8239": " timbang",
  "8240": " civil",
  "8241": " 41",
  "8242": " 187",
  "8243": " tina",
  "8244": "aon",
  "8245": " araling",
  "8246": " Carpio",
  "8247": " congress",
  "8248": " Quirino",
  "8249": "ampok",
  "8250": "kong",
  "8251": " nakasak",
  "8252": " Christmas",
  "8253": " Daang",
  "8254": "abago",
  "8255": "rep",
  "8256": " Lang",
  "8257": " ir",
  "8258": "..",
  "8259": " pumanaw",
  "8260": "**",
  "8261": "ivolcs",
  "8262": "impapawid",
  "8263": " NFA",
  "8264": " Hes",
  "8265": "Kap",
  "8266": "yl",
  "8267": " pasilidad",
  "8268": " demon",
  "8269": "angging",
  "8270": " homoseksuwalidad",
  "8271": " pinayagan",
  "8272": " Sitio",
  "8273": " Sat",
  "8274": "ogon",
  "8275": " 1960",
  "8276": "ENR",
  "8277": " pagpapag",
  "8278": " saksak",
  "8279": " nilal",
  "8280": "berto",
  "8281": " decision",
  "8282": " som",
  "8283": " aasal",
  "8284": "aking",
  "8285": " tula",
  "8286": "ingay",
  "8287": " gre",
  "8288": " pagsapit",
  "8289": " 1997",
  "8290": "iktima",
  "8291": " preso",
  "8292": " watch",
  "8293": " debate",
  "8294": " tumagal",
  "8295": " tu",
  "8296": " itinakda",
  "8297": " Chan",
  "8298": "liga",
  "8299": " kapat",
  "8300": " nilagdaan",
  "8301": " kontin",
  "8302": "langin",
  "8303": " Igles",
  "8304": "ped",
  "8305": " Gabri",
  "8306": "?]",
  "8307": " idineklara",
  "8308": " points",
  "8309": " live",
  "8310": " Malay",
  "8311": " Aga",
  "8312": " Academy",
  "8313": "fe",
  "8314": " nanana",
  "8315": "Ag",
  "8316": " rum",
  "8317": "alawakan",
  "8318": " alperes",
  "8319": " ipinahayag",
  "8320": "urisd",
  "8321": "cion",
  "8322": "ugb",
  "8323": " dalubhasa",
  "8324": "obile",
  "8325": " visit",
  "8326": " inilarawan",
  "8327": " Zambales",
  "8328": "rotesta",
  "8329": " Prosecut",
  "8330": " panitikang",
  "8331": " lockdown",
  "8332": "uit",
  "8333": " aangkin",
  "8334": "66",
  "8335": " mosyon",
  "8336": " cour",
  "8337": " pariralang",
  "8338": " itinalaga",
  "8339": " ibat",
  "8340": "alikha",
  "8341": "iate",
  "8342": " Uk",
  "8343": " Dakilang",
  "8344": "bar",
  "8345": " aktor",
  "8346": " Puerto",
  "8347": "31",
  "8348": " Reh",
  "8349": " natagpuang",
  "8350": "aniel",
  "8351": "iet",
  "8352": "osc",
  "8353": " pareho",
  "8354": " search",
  "8355": " Lev",
  "8356": "ercial",
  "8357": "ournal",
  "8358": " pagbabarilin",
  "8359": " Blue",
  "8360": "saad",
  "8361": "kus",
  "8362": "inosa",
  "8363": "iyera",
  "8364": " kapulungan",
  "8365": " Bohol",
  "8366": "Dalawang",
  "8367": " kilusang",
  "8368": "apangulo",
  "8369": " 1978",
  "8370": "ociety",
  "8371": " kunin",
  "8372": " Maur",
  "8373": "pet",
  "8374": "ayagang",
  "8375": "angal",
  "8376": " Rem",
  "8377": " Riv",
  "8378": " bigat",
  "8379": " katamt",
  "8380": "ble",
  "8381": " Mona",
  "8382": " Benjamin",
  "8383": " ana",
  "8384": " pasok",
  "8385": "Inamin",
  "8386": " hukbo",
  "8387": " Embass",
  "8388": " mov",
  "8389": "ington",
  "8390": " nakapagt",
  "8391": " isagawa",
  "8392": " hukuman",
  "8393": "unduang",
  "8394": "eneg",
  "8395": "abong",
  "8396": "istahan",
  "8397": " kataga",
  "8398": "landes",
  "8399": " citizen",
  "8400": " 57",
  "8401": "char",
  "8402": " nagtamo",
  "8403": " operatiba",
  "8404": " vacc",
  "8405": " website",
  "8406": "jud",
  "8407": "58",
  "8408": "amanan",
  "8409": " atomo",
  "8410": "ihing",
  "8411": " palat",
  "8412": "Ib",
  "8413": " kang",
  "8414": "ING",
  "8415": " Ric",
  "8416": "zano",
  "8417": " subs",
  "8418": " mi",
  "8419": " kateg",
  "8420": " dalhin",
  "8421": " Roy",
  "8422": " kolon",
  "8423": " Bundok",
  "8424": " dzBB",
  "8425": "Pinang",
  "8426": " bagamat",
  "8427": "irmahan",
  "8428": "aligt",
  "8429": "ibbon",
  "8430": " Term",
  "8431": "ueteng",
  "8432": " fut",
  "8433": " Pasipiko",
  "8434": " litro",
  "8435": " due",
  "8436": " binaril",
  "8437": "pong",
  "8438": " Embassy",
  "8439": "cr",
  "8440": "ilipas",
  "8441": " Muna",
  "8442": " Protest",
  "8443": "unahing",
  "8444": " why",
  "8445": " light",
  "8446": "angkat",
  "8447": " kadalasan",
  "8448": "uj",
  "8449": " ground",
  "8450": " 1993",
  "8451": " nalalaman",
  "8452": "EL",
  "8453": " Sun",
  "8454": " farm",
  "8455": " construction",
  "8456": " pagpapatuloy",
  "8457": " Sent",
  "8458": " trial",
  "8459": " inaprubahan",
  "8460": "antimp",
  "8461": " magpah",
  "8462": "wide",
  "8463": " kalidad",
  "8464": " Kingdom",
  "8465": "ulaanan",
  "8466": " count",
  "8467": " nurse",
  "8468": " alon",
  "8469": " depende",
  "8470": " videos",
  "8471": " ray",
  "8472": " fish",
  "8473": "ubund",
  "8474": "Muling",
  "8475": " protest",
  "8476": " 56",
  "8477": "abagsak",
  "8478": " simbahang",
  "8479": " Energy",
  "8480": " witness",
  "8481": " Padilla",
  "8482": "uweldo",
  "8483": " checkpoint",
  "8484": " paulit",
  "8485": " kaisipan",
  "8486": "bert",
  "8487": "anon",
  "8488": " cr",
  "8489": " Lady",
  "8490": "iwasang",
  "8491": " district",
  "8492": "LEX",
  "8493": "ulus",
  "8494": "indihan",
  "8495": " Obispo",
  "8496": " Jackson",
  "8497": " British",
  "8498": "DFA",
  "8499": " pong",
  "8500": " presyon",
  "8501": " kasanayan",
  "8502": " katunayan",
  "8503": "ilitar",
  "8504": "hal",
  "8505": " Mall",
  "8506": " short",
  "8507": " Reform",
  "8508": " nagdudulot",
  "8509": "mi",
  "8510": " anom",
  "8511": " Carl",
  "8512": "otohan",
  "8513": "ugot",
  "8514": " positibong",
  "8515": " kul",
  "8516": " dona",
  "8517": " Top",
  "8518": " pinili",
  "8519": "aho",
  "8520": "oca",
  "8521": " langit",
  "8522": " nagbabago",
  "8523": " makamit",
  "8524": "isyunal",
  "8525": " cover",
  "8526": "asanhi",
  "8527": " They",
  "8528": " criminal",
  "8529": " Class",
  "8530": "anana",
  "8531": "hana",
  "8532": " Civil",
  "8533": "ecia",
  "8534": " kagand",
  "8535": " sinasak",
  "8536": " conduct",
  "8537": " larong",
  "8538": " citizens",
  "8539": " nakikitang",
  "8540": " Moreno",
  "8541": " lawa",
  "8542": "300",
  "8543": " tim",
  "8544": " hamon",
  "8545": " come",
  "8546": "inidad",
  "8547": "uag",
  "8548": " lawak",
  "8549": " Pags",
  "8550": " tradisyonal",
  "8551": " includ",
  "8552": " guilty",
  "8553": "das",
  "8554": " hap",
  "8555": " 400",
  "8556": "umin",
  "8557": "adc",
  "8558": "ential",
  "8559": " inirek",
  "8560": " tumungo",
  "8561": "angkisa",
  "8562": " 1945",
  "8563": " hab",
  "8564": " vict",
  "8565": " author",
  "8566": "alisay",
  "8567": " motion",
  "8568": "rado",
  "8569": "ropri",
  "8570": " Ermita",
  "8571": " magagawa",
  "8572": " rally",
  "8573": "yr",
  "8574": "ubukan",
  "8575": "untahan",
  "8576": " Ika",
  "8577": " Karagatang",
  "8578": "ying",
  "8579": " sekswal",
  "8580": "ektang",
  "8581": " Gregorio",
  "8582": " Saint",
  "8583": "atoryo",
  "8584": " Alc",
  "8585": " itinayo",
  "8586": " She",
  "8587": "Nagl",
  "8588": "Halos",
  "8589": " pagsisiyasat",
  "8590": " nanggaling",
  "8591": " Pulo",
  "8592": "ided",
  "8593": " Tay",
  "8594": " iminungkahi",
  "8595": "iklab",
  "8596": " Ebreo",
  "8597": " Command",
  "8598": " Rodriguez",
  "8599": " pandar",
  "8600": "intulutan",
  "8601": " Rel",
  "8602": "ended",
  "8603": " uring",
  "8604": " Gales",
  "8605": "chez",
  "8606": " ov",
  "8607": "igkas",
  "8608": "akwil",
  "8609": "ened",
  "8610": " paggalaw",
  "8611": " nakalagay",
  "8612": " nakilalang",
  "8613": " umuwi",
  "8614": " Bansa",
  "8615": "stong",
  "8616": " bayad",
  "8617": "Pinan",
  "8618": " matibay",
  "8619": " Rolando",
  "8620": " niyo",
  "8621": " paghahari",
  "8622": "AT",
  "8623": " gaano",
  "8624": " Korean",
  "8625": " artikulo",
  "8626": " Hindu",
  "8627": " malaya",
  "8628": " sinag",
  "8629": " corruption",
  "8630": "esulta",
  "8631": "pok",
  "8632": " av",
  "8633": " paglilitis",
  "8634": " magpa",
  "8635": " Zub",
  "8636": "Ipinang",
  "8637": " manggagamot",
  "8638": "cing",
  "8639": "isp",
  "8640": "ekober",
  "8641": " pinagbab",
  "8642": "inung",
  "8643": "ffick",
  "8644": " appoint",
  "8645": " Taon",
  "8646": " prinsipyo",
  "8647": " bent",
  "8648": " plant",
  "8649": " pinalitan",
  "8650": "umbong",
  "8651": "ijing",
  "8652": " kimikal",
  "8653": " 49",
  "8654": " tanungin",
  "8655": "Health",
  "8656": "nil",
  "8657": " pagpapalabas",
  "8658": " sinis",
  "8659": "edy",
  "8660": "unsiyo",
  "8661": " hope",
  "8662": "untunan",
  "8663": " Yap",
  "8664": "amental",
  "8665": "ugunan",
  "8666": "Katulad",
  "8667": " Mike",
  "8668": "ensiyahan",
  "8669": " Cantos",
  "8670": " Resp",
  "8671": " franch",
  "8672": "hay",
  "8673": "gu",
  "8674": " hirap",
  "8675": " DP",
  "8676": " pinip",
  "8677": " nakapagp",
  "8678": " natalo",
  "8679": " Ali",
  "8680": " terorismo",
  "8681": "iwalat",
  "8682": "42",
  "8683": " projects",
  "8684": " Salle",
  "8685": " harapan",
  "8686": " jack",
  "8687": " 1970",
  "8688": " BC",
  "8689": "ukang",
  "8690": " tanggapin",
  "8691": "Dep",
  "8692": " sachet",
  "8693": " sesyon",
  "8694": "aland",
  "8695": " Rights",
  "8696": "iaz",
  "8697": " appl",
  "8698": "arto",
  "8699": " building",
  "8700": " ministro",
  "8701": ".--",
  "8702": "lacion",
  "8703": " Daniel",
  "8704": " Pagb",
  "8705": " increase",
  "8706": " akusasyon",
  "8707": " probinsya",
  "8708": " pangako",
  "8709": "essional",
  "8710": "sunod",
  "8711": " circ",
  "8712": " nung",
  "8713": " saligang",
  "8714": "ahambing",
  "8715": " rape",
  "8716": "akatuparan",
  "8717": " Beijing",
  "8718": " prangkisa",
  "8719": " apar",
  "8720": " Mer",
  "8721": " Far",
  "8722": " deputy",
  "8723": " dolyar",
  "8724": " Noy",
  "8725": " disenyo",
  "8726": " Tokyo",
  "8727": "rd",
  "8728": "Kasunod",
  "8729": " inhinyer",
  "8730": " Sah",
  "8731": " kalamidad",
  "8732": " Sanchez",
  "8733": " ty",
  "8734": " does",
  "8735": " Hitler",
  "8736": " Taal",
  "8737": " monitor",
  "8738": " makatulong",
  "8739": "alyang",
  "8740": " Municipal",
  "8741": "otas",
  "8742": " lumilikha",
  "8743": "aliksik",
  "8744": " pagbabayad",
  "8745": " Resources",
  "8746": " jeepney",
  "8747": " Bilibid",
  "8748": "Umabot",
  "8749": " Twitter",
  "8750": " kalahating",
  "8751": "osyo",
  "8752": " pagtukoy",
  "8753": "antiko",
  "8754": " Palomar",
  "8755": "edic",
  "8756": "Gayundin",
  "8757": "yenteng",
  "8758": " republ",
  "8759": " That",
  "8760": " ber",
  "8761": " pagpapah",
  "8762": " DOLE",
  "8763": " Zubiri",
  "8764": " Tanak",
  "8765": " Minister",
  "8766": " kaluluwa",
  "8767": " left",
  "8768": " roon",
  "8769": " aktibong",
  "8770": " Darwin",
  "8771": "Di",
  "8772": "untang",
  "8773": " bahagyang",
  "8774": " trust",
  "8775": "Giit",
  "8776": "yanong",
  "8777": " continue",
  "8778": " ipin",
  "8779": " Kin",
  "8780": " tradisyong",
  "8781": " use",
  "8782": "arili",
  "8783": " BIR",
  "8784": " require",
  "8785": "ids",
  "8786": " Nazar",
  "8787": " 1984",
  "8788": "UV",
  "8789": " proto",
  "8790": " pagbebenta",
  "8791": "onang",
  "8792": " without",
  "8793": " Malabon",
  "8794": " Italyano",
  "8795": "tar",
  "8796": " prom",
  "8797": " rekomend",
  "8798": " hustisya",
  "8799": "elle",
  "8800": " pinakak",
  "8801": " Ron",
  "8802": " Vit",
  "8803": " umakyat",
  "8804": " naghahanap",
  "8805": " Alexand",
  "8806": " yari",
  "8807": "iesel",
  "8808": " Regulatory",
  "8809": " Espinosa",
  "8810": "wood",
  "8811": " payagan",
  "8812": "ampung",
  "8813": "enzana",
  "8814": " kumbento",
  "8815": "evision",
  "8816": " Rog",
  "8817": " Sor",
  "8818": " LTO",
  "8819": " Guev",
  "8820": " nakarating",
  "8821": " nagpositibo",
  "8822": " region",
  "8823": "ST",
  "8824": " palak",
  "8825": "ontra",
  "8826": " inilipat",
  "8827": " bagkus",
  "8828": " Information",
  "8829": " problemang",
  "8830": "break",
  "8831": "ked",
  "8832": " Renato",
  "8833": " katapusan",
  "8834": " domestic",
  "8835": "onic",
  "8836": " puwede",
  "8837": " Lega",
  "8838": " holiday",
  "8839": " har",
  "8840": "iyonal",
  "8841": " nakalilipas",
  "8842": "ianismo",
  "8843": " squ",
  "8844": "ational",
  "8845": " aalis",
  "8846": " Kristiyanong",
  "8847": " Venecia",
  "8848": " Tre",
  "8849": " kant",
  "8850": " extra",
  "8851": " Associate",
  "8852": " pup",
  "8853": "landiya",
  "8854": "inamon",
  "8855": "adali",
  "8856": " ebidensya",
  "8857": " mom",
  "8858": " laki",
  "8859": " sector",
  "8860": " buhat",
  "8861": " Eskosya",
  "8862": " Ah",
  "8863": " pinagd",
  "8864": " commission",
  "8865": " Clark",
  "8866": "libong",
  "8867": " clos",
  "8868": "anded",
  "8869": " VP",
  "8870": "aktong",
  "8871": " status",
  "8872": "68",
  "8873": " Tam",
  "8874": "Nagmula",
  "8875": " ehers",
  "8876": " Ernesto",
  "8877": "apitan",
  "8878": "udar",
  "8879": " tuwirang",
  "8880": "inaryong",
  "8881": " makapasok",
  "8882": "LBG",
  "8883": " nananatili",
  "8884": "agn",
  "8885": " Constitution",
  "8886": "Bagama",
  "8887": "Simula",
  "8888": " self",
  "8889": "okrasya",
  "8890": "alayan",
  "8891": " kaming",
  "8892": " tawagin",
  "8893": " iyan",
  "8894": " rescue",
  "8895": " poll",
  "8896": "burg",
  "8897": "DOJ",
  "8898": " kapital",
  "8899": "ray",
  "8900": " kalye",
  "8901": "ampanya",
  "8902": "mpanan",
  "8903": "Tinatayang",
  "8904": " lut",
  "8905": " taunang",
  "8906": "ensity",
  "8907": " manl",
  "8908": "gio",
  "8909": " sch",
  "8910": " employer",
  "8911": " ann",
  "8912": "alition",
  "8913": " jueteng",
  "8914": " mes",
  "8915": " never",
  "8916": " AC",
  "8917": "rect",
  "8918": " management",
  "8919": " lot",
  "8920": "etang",
  "8921": " Arena",
  "8922": "gi",
  "8923": " sev",
  "8924": "ayaman",
  "8925": " Us",
  "8926": "ataang",
  "8927": " position",
  "8928": " evacuation",
  "8929": " ha",
  "8930": "ulfo",
  "8931": "hib",
  "8932": " Zar",
  "8933": " Mes",
  "8934": " trah",
  "8935": "',",
  "8936": " simbolo",
  "8937": " Puno",
  "8938": " manip",
  "8939": " testim",
  "8940": " nadiskubre",
  "8941": " indi",
  "8942": " laging",
  "8943": " cla",
  "8944": "Nakita",
  "8945": " Lan",
  "8946": "antry",
  "8947": " direct",
  "8948": " incident",
  "8949": "ipment",
  "8950": "ume",
  "8951": "enue",
  "8952": "urian",
  "8953": "agpo",
  "8954": " Minority",
  "8955": " compet",
  "8956": "ibal",
  "8957": "ektor",
  "8958": " present",
  "8959": " rebounds",
  "8960": " deter",
  "8961": " napaka",
  "8962": " third",
  "8963": " much",
  "8964": " misyon",
  "8965": "etisyon",
  "8966": " malayo",
  "8967": " tiy",
  "8968": "resp",
  "8969": " 59",
  "8970": "lio",
  "8971": " Teor",
  "8972": "maneho",
  "8973": "intong",
  "8974": " Abad",
  "8975": " history",
  "8976": " Environment",
  "8977": " tanghali",
  "8978": "RP",
  "8979": " Jail",
  "8980": "edo",
  "8981": " Enri",
  "8982": " proteksiyon",
  "8983": " pamayanang",
  "8984": "rehensive",
  "8985": "tay",
  "8986": "organ",
  "8987": " DA",
  "8988": " nagsisimula",
  "8989": "okno",
  "8990": "tram",
  "8991": " pagsasa",
  "8992": " rece",
  "8993": " sirk",
  "8994": "atras",
  "8995": " Pope",
  "8996": " hinango",
  "8997": " inilunsad",
  "8998": " Major",
  "8999": " bon",
  "9000": "Maging",
  "9001": " Jay",
  "9002": "ceed",
  "9003": " nagpadala",
  "9004": " single",
  "9005": "met",
  "9006": " DSWD",
  "9007": " pagpapalit",
  "9008": "igting",
  "9009": "drug",
  "9010": " Cla",
  "9011": " paglipas",
  "9012": " magkahiwalay",
  "9013": " pinaniniwalaan",
  "9014": " Guevarra",
  "9015": " bidd",
  "9016": "urp",
  "9017": " kaunti",
  "9018": " standard",
  "9019": "OFW",
  "9020": " Hin",
  "9021": " batong",
  "9022": " nasas",
  "9023": " certificate",
  "9024": " tatanggap",
  "9025": "Pagkaraan",
  "9026": " 52",
  "9027": " pahayagan",
  "9028": " pagsunod",
  "9029": " reklamong",
  "9030": " Tum",
  "9031": " Nation",
  "9032": "bat",
  "9033": " Risk",
  "9034": " pagkakab",
  "9035": " Dal",
  "9036": " ND",
  "9037": " Wash",
  "9038": " Area",
  "9039": " Eth",
  "9040": "loc",
  "9041": " iisa",
  "9042": " konseho",
  "9043": "upaan",
  "9044": " inst",
  "9045": " pinagtat",
  "9046": " pagdad",
  "9047": "hain",
  "9048": " NK",
  "9049": " medyo",
  "9050": "Nakasaad",
  "9051": " kaayusan",
  "9052": "die",
  "9053": "pro",
  "9054": " Jav",
  "9055": "istry",
  "9056": " tradisyunal",
  "9057": " Sebast",
  "9058": "ibilang",
  "9059": " tumataas",
  "9060": "wer",
  "9061": " bur",
  "9062": " agencies",
  "9063": " ho",
  "9064": " Brune",
  "9065": " Reduction",
  "9066": " Tal",
  "9067": " pamamaga",
  "9068": ",'",
  "9069": "ological",
  "9070": "COVID",
  "9071": " pinans",
  "9072": " going",
  "9073": " Madr",
  "9074": "din",
  "9075": " synd",
  "9076": " lands",
  "9077": " Jej",
  "9078": " Majority",
  "9079": " Community",
  "9080": "empt",
  "9081": "Kailangan",
  "9082": " rekomendasyon",
  "9083": "56",
  "9084": "oth",
  "9085": " isinama",
  "9086": "osibleng",
  "9087": "neg",
  "9088": " ekonomiko",
  "9089": " Loc",
  "9090": " Justin",
  "9091": " kagawad",
  "9092": " enhanced",
  "9093": " log",
  "9094": " far",
  "9095": " kasiyahan",
  "9096": "ataong",
  "9097": " magpat",
  "9098": " leave",
  "9099": " COA",
  "9100": "BM",
  "9101": "IDS",
  "9102": " transportasyon",
  "9103": " extension",
  "9104": "ukid",
  "9105": "untis",
  "9106": "akasuhan",
  "9107": " Rodolfo",
  "9108": " Economic",
  "9109": " kapitbahay",
  "9110": " komunikasyon",
  "9111": " karakter",
  "9112": "sych",
  "9113": "forman",
  "9114": " Diokno",
  "9115": " kust",
  "9116": " katuruan",
  "9117": "ambang",
  "9118": " kinik",
  "9119": " nakaligtas",
  "9120": " detention",
  "9121": " Africa",
  "9122": " Sob",
  "9123": "inabangan",
  "9124": " Alexander",
  "9125": "RRMC",
  "9126": " gatas",
  "9127": " pagkam",
  "9128": "abilidad",
  "9129": " kabut",
  "9130": " Navotas",
  "9131": " prem",
  "9132": " Clara",
  "9133": " Partido",
  "9134": "Hiniling",
  "9135": " gano",
  "9136": " Jona",
  "9137": " hall",
  "9138": "ression",
  "9139": " magkatulad",
  "9140": " malubhang",
  "9141": "kis",
  "9142": "ital",
  "9143": " katalik",
  "9144": " sumama",
  "9145": "person",
  "9146": " Lum",
  "9147": " Nob",
  "9148": "eman",
  "9149": " paglaki",
  "9150": " Staff",
  "9151": ")-",
  "9152": " house",
  "9153": " seksuwalidad",
  "9154": " modelong",
  "9155": "rem",
  "9156": " women",
  "9157": "lar",
  "9158": "akuha",
  "9159": " Andre",
  "9160": " bumoto",
  "9161": " aplikasyon",
  "9162": " Ke",
  "9163": " patakarang",
  "9164": " natatangi",
  "9165": " merk",
  "9166": " Pangk",
  "9167": " reporma",
  "9168": " kasangkapang",
  "9169": " pamantasan",
  "9170": " Ins",
  "9171": " pangkalusugan",
  "9172": " Lorenzana",
  "9173": " digmaang",
  "9174": "akes",
  "9175": " Volc",
  "9176": " bagama",
  "9177": " pagtulong",
  "9178": " kuwentong",
  "9179": " telep",
  "9180": " husto",
  "9181": " Highway",
  "9182": " mangyayari",
  "9183": " Turkiya",
  "9184": "akbay",
  "9185": " medikal",
  "9186": "ilao",
  "9187": " Dinastiyang",
  "9188": "iple",
  "9189": " Brunei",
  "9190": " pista",
  "9191": "els",
  "9192": "alimang",
  "9193": " education",
  "9194": " pagsalakay",
  "9195": " sumapit",
  "9196": " kasangkapan",
  "9197": " Qui",
  "9198": " misa",
  "9199": " River",
  "9200": "unggali",
  "9201": "unte",
  "9202": " bayang",
  "9203": " obserb",
  "9204": " Washington",
  "9205": "ogn",
  "9206": "lines",
  "9207": "siyong",
  "9208": " Tiy",
  "9209": " invol",
  "9210": " probisyon",
  "9211": " ebolb",
  "9212": "aong",
  "9213": "arte",
  "9214": " kaaway",
  "9215": " medisina",
  "9216": " Tax",
  "9217": " Thomas",
  "9218": "alleng",
  "9219": " Vat",
  "9220": "naldo",
  "9221": " paglabas",
  "9222": " pilosopiyang",
  "9223": "ienza",
  "9224": " pangangasiwa",
  "9225": " franchise",
  "9226": "AM",
  "9227": "uters",
  "9228": "ilities",
  "9229": " nagdaang",
  "9230": " series",
  "9231": " tabi",
  "9232": " bantay",
  "9233": " katan",
  "9234": " Gng",
  "9235": " nabigyan",
  "9236": " Finance",
  "9237": "ateg",
  "9238": "osh",
  "9239": "road",
  "9240": "nes",
  "9241": " papuntang",
  "9242": " neut",
  "9243": " sto",
  "9244": "imbento",
  "9245": "onasan",
  "9246": " rob",
  "9247": " reporter",
  "9248": " Mediter",
  "9249": "86",
  "9250": "asagawa",
  "9251": " balangkas",
  "9252": " diesel",
  "9253": "ordan",
  "9254": " site",
  "9255": " dim",
  "9256": " fo",
  "9257": " nagawang",
  "9258": " pressure",
  "9259": " Portug",
  "9260": " kanang",
  "9261": "ahain",
  "9262": " pagpapakita",
  "9263": " pader",
  "9264": " Tib",
  "9265": " impro",
  "9266": "eryo",
  "9267": " kinuk",
  "9268": "encio",
  "9269": " pangungusap",
  "9270": " kagawaran",
  "9271": "alooban",
  "9272": "54",
  "9273": "Lahat",
  "9274": "rent",
  "9275": " hati",
  "9276": "ukal",
  "9277": " fa",
  "9278": " ikal",
  "9279": " Wikipedia",
  "9280": "ving",
  "9281": " Arthur",
  "9282": " Hotel",
  "9283": " lam",
  "9284": " SEA",
  "9285": "eke",
  "9286": "intend",
  "9287": " nabigo",
  "9288": " siguro",
  "9289": " consider",
  "9290": " analisis",
  "9291": " ayuda",
  "9292": " Tac",
  "9293": " kabihas",
  "9294": " computer",
  "9295": " Smart",
  "9296": " Mexico",
  "9297": " prost",
  "9298": " pinakamatandang",
  "9299": "taong",
  "9300": "hekut",
  "9301": " humarap",
  "9302": "FF",
  "9303": " magtrabaho",
  "9304": " Honasan",
  "9305": "ihiyon",
  "9306": " henetiko",
  "9307": " Shi",
  "9308": " games",
  "9309": " kalooban",
  "9310": "isenyo",
  "9311": " komisyon",
  "9312": "mitan",
  "9313": " kalibre",
  "9314": " penalty",
  "9315": " direksiyon",
  "9316": "roseso",
  "9317": " financial",
  "9318": " kinabukasan",
  "9319": " Tanakh",
  "9320": "aing",
  "9321": " dag",
  "9322": " cause",
  "9323": "gang",
  "9324": "iyam",
  "9325": "thing",
  "9326": " ever",
  "9327": " DPWH",
  "9328": "iop",
  "9329": " partner",
  "9330": " Big",
  "9331": " sinapit",
  "9332": " nahih",
  "9333": " isinusulong",
  "9334": " London",
  "9335": " height",
  "9336": " kampe",
  "9337": "tiko",
  "9338": "NBI",
  "9339": " kasab",
  "9340": "pres",
  "9341": " 1988",
  "9342": " turn",
  "9343": " pagpapakamatay",
  "9344": " 54",
  "9345": " paghuh",
  "9346": " next",
  "9347": " nagsilbing",
  "9348": "erba",
  "9349": " birus",
  "9350": "onde",
  "9351": " patong",
  "9352": " tubo",
  "9353": " To",
  "9354": "opher",
  "9355": " pangkap",
  "9356": " Katipunan",
  "9357": " pinamunuan",
  "9358": " hah",
  "9359": " Bato",
  "9360": " magag",
  "9361": " tuk",
  "9362": " bid",
  "9363": "inalik",
  "9364": " heter",
  "9365": "panies",
  "9366": " ekw",
  "9367": " Summit",
  "9368": " pagbabawal",
  "9369": " selulang",
  "9370": " Alaska",
  "9371": " Anth",
  "9372": " titulo",
  "9373": " Liberation",
  "9374": " monar",
  "9375": " ginang",
  "9376": " astr",
  "9377": " bigkas",
  "9378": " alamin",
  "9379": " total",
  "9380": " estadist",
  "9381": "yunan",
  "9382": " nakatat",
  "9383": " tagapagt",
  "9384": "iazon",
  "9385": "undong",
  "9386": " pinangunahan",
  "9387": " Workers",
  "9388": " Gin",
  "9389": " Ponce",
  "9390": " manusk",
  "9391": " Japanese",
  "9392": " sindik",
  "9393": " Dinam",
  "9394": " Valte",
  "9395": " patayin",
  "9396": " lagnat",
  "9397": " inalis",
  "9398": " Miriam",
  "9399": " palapag",
  "9400": "ulate",
  "9401": " sinibak",
  "9402": "WWA",
  "9403": " 51",
  "9404": " pangamba",
  "9405": " maaga",
  "9406": "alaganap",
  "9407": "!\"",
  "9408": " milya",
  "9409": "rin",
  "9410": " isama",
  "9411": "Or",
  "9412": " stop",
  "9413": "Itinat",
  "9414": "ibersaryo",
  "9415": " anyos",
  "9416": " Virg",
  "9417": "ford",
  "9418": " trak",
  "9419": "NL",
  "9420": " antib",
  "9421": "Inaasahan",
  "9422": "uklok",
  "9423": " Des",
  "9424": "Ipina",
  "9425": "ilaan",
  "9426": " Atienza",
  "9427": " nakatakda",
  "9428": " Infantry",
  "9429": "olanda",
  "9430": " Diaz",
  "9431": "oka",
  "9432": "mission",
  "9433": " patas",
  "9434": " wanted",
  "9435": "rey",
  "9436": " manalo",
  "9437": "tulungan",
  "9438": " trono",
  "9439": " 1975",
  "9440": " matit",
  "9441": " pwede",
  "9442": " hinihintay",
  "9443": " ilagay",
  "9444": " Antipolo",
  "9445": " MA",
  "9446": " nagpakita",
  "9447": " shop",
  "9448": " espasyo",
  "9449": " working",
  "9450": " atin",
  "9451": "den",
  "9452": " giyera",
  "9453": "stos",
  "9454": " Castell",
  "9455": " Fed",
  "9456": " 1973",
  "9457": " paglilinaw",
  "9458": " Criminal",
  "9459": " kawal",
  "9460": "Hanggang",
  "9461": " Ten",
  "9462": " akadem",
  "9463": " while",
  "9464": "ordinates",
  "9465": " binibigyan",
  "9466": " Salced",
  "9467": " Noynoy",
  "9468": " kaarawan",
  "9469": " open",
  "9470": " yun",
  "9471": " since",
  "9472": " Nau",
  "9473": " kasags",
  "9474": "araos",
  "9475": " GDP",
  "9476": " bumisita",
  "9477": " bilihin",
  "9478": " naglalaro",
  "9479": " killings",
  "9480": " Pap",
  "9481": "vi",
  "9482": " propos",
  "9483": " material",
  "9484": " bidding",
  "9485": " Grab",
  "9486": "tory",
  "9487": " Mur",
  "9488": " Ambass",
  "9489": "aherong",
  "9490": " Rap",
  "9491": " always",
  "9492": "cy",
  "9493": "olekta",
  "9494": " address",
  "9495": "intendent",
  "9496": "usig",
  "9497": " Leb",
  "9498": " doktrina",
  "9499": " Var",
  "9500": " Felipe",
  "9501": "Do",
  "9502": "SU",
  "9503": " hul",
  "9504": " Mundo",
  "9505": "emonya",
  "9506": "itas",
  "9507": " Dor",
  "9508": " nagpatuloy",
  "9509": " kasuhan",
  "9510": "alanang",
  "9511": " hinal",
  "9512": " pagkatao",
  "9513": " depart",
  "9514": " sagisag",
  "9515": " kasagsagan",
  "9516": "formance",
  "9517": "onood",
  "9518": " Ek",
  "9519": " bayani",
  "9520": "rero",
  "9521": " table",
  "9522": " LGU",
  "9523": "odes",
  "9524": " nakasulat",
  "9525": "ipp",
  "9526": "insalang",
  "9527": " 67",
  "9528": "Kina",
  "9529": "iction",
  "9530": " petsang",
  "9531": " Daigdig",
  "9532": " crew",
  "9533": "yaw",
  "9534": " wage",
  "9535": " Ul",
  "9536": " mabawasan",
  "9537": " testimonya",
  "9538": "abahala",
  "9539": " AD",
  "9540": " putok",
  "9541": "For",
  "9542": "riya",
  "9543": " unting",
  "9544": " gar",
  "9545": "fire",
  "9546": " Biazon",
  "9547": " rules",
  "9548": "98",
  "9549": " boy",
  "9550": "ababang",
  "9551": "awaan",
  "9552": "babala",
  "9553": "eksiyong",
  "9554": " Kastilang",
  "9555": " player",
  "9556": " black",
  "9557": "tramuros",
  "9558": " responsibilidad",
  "9559": " kritikal",
  "9560": "ectoral",
  "9561": " Industry",
  "9562": " pananalita",
  "9563": " iniimbestigahan",
  "9564": " nanguna",
  "9565": "chn",
  "9566": " Mased",
  "9567": " Eleazar",
  "9568": "fect",
  "9569": " sim",
  "9570": " Mod",
  "9571": " bany",
  "9572": " 1950",
  "9573": " Tiyago",
  "9574": " Gam",
  "9575": " bakbakan",
  "9576": " mitolohiyang",
  "9577": " ire",
  "9578": " Jejomar",
  "9579": "ui",
  "9580": " action",
  "9581": "ipi",
  "9582": " ikatlo",
  "9583": " nukle",
  "9584": " federal",
  "9585": " Aut",
  "9586": " Nino",
  "9587": "CM",
  "9588": " anibersaryo",
  "9589": " malamig",
  "9590": "iza",
  "9591": " Science",
  "9592": " champion",
  "9593": "ukaw",
  "9594": " Transit",
  "9595": " port",
  "9596": " Cub",
  "9597": " simbol",
  "9598": "nate",
  "9599": " polis",
  "9600": " Petron",
  "9601": "eus",
  "9602": " katinig",
  "9603": " Joey",
  "9604": "irasyon",
  "9605": " shoot",
  "9606": " Kagaw",
  "9607": " iniwan",
  "9608": " kaparehong",
  "9609": "aang",
  "9610": " kausap",
  "9611": " yum",
  "9612": " lubhang",
  "9613": "Binanggit",
  "9614": " Castillo",
  "9615": ".'",
  "9616": "inct",
  "9617": "ilig",
  "9618": "inans",
  "9619": " dalang",
  "9620": "Kanyang",
  "9621": " pulang",
  "9622": " pataas",
  "9623": " paring",
  "9624": "apar",
  "9625": "wika",
  "9626": " iral",
  "9627": " Pena",
  "9628": "arters",
  "9629": " 1999",
  "9630": " Russian",
  "9631": " Bam",
  "9632": " reaksiyon",
  "9633": " makaka",
  "9634": "asawang",
  "9635": " pagbaha",
  "9636": " hukom",
  "9637": " Christopher",
  "9638": " Hukuman",
  "9639": " agarang",
  "9640": "ennis",
  "9641": " blood",
  "9642": " Dinamarka",
  "9643": " gabin",
  "9644": " 1996",
  "9645": "angalang",
  "9646": " Az",
  "9647": " Braz",
  "9648": " Rico",
  "9649": " 1982",
  "9650": " commercial",
  "9651": " pangkatawan",
  "9652": " Reynaldo",
  "9653": " ceremon",
  "9654": "abanan",
  "9655": " hot",
  "9656": "natasan",
  "9657": " activities",
  "9658": " munang",
  "9659": " Birhen",
  "9660": " ekonomika",
  "9661": "position",
  "9662": "ileen",
  "9663": " pandemic",
  "9664": " Ath",
  "9665": " trabah",
  "9666": "ited",
  "9667": "elang",
  "9668": "Nad",
  "9669": " tinig",
  "9670": "thers",
  "9671": "achers",
  "9672": " counter",
  "9673": "WS",
  "9674": " Hom",
  "9675": " pagkakaisa",
  "9676": " players",
  "9677": " Awit",
  "9678": " pagsasama",
  "9679": " Aw",
  "9680": " Danilo",
  "9681": " Ty",
  "9682": " lokasyon",
  "9683": "mosp",
  "9684": "year",
  "9685": "endorso",
  "9686": "onsider",
  "9687": "arms",
  "9688": " Ambassador",
  "9689": " suweldo",
  "9690": " matter",
  "9691": "inete",
  "9692": " 1994",
  "9693": " Rain",
  "9694": " Constantinople",
  "9695": " hike",
  "9696": "olba",
  "9697": "icles",
  "9698": " Technology",
  "9699": " partidong",
  "9700": " 1979",
  "9701": "Nangang",
  "9702": " pula",
  "9703": " RP",
  "9704": "uhos",
  "9705": " organismong",
  "9706": " mapanganib",
  "9707": "ised",
  "9708": " pagpip",
  "9709": " find",
  "9710": "Coordinates",
  "9711": "ipagp",
  "9712": " nakabase",
  "9713": " Intramuros",
  "9714": " asido",
  "9715": " nakapagpap",
  "9716": " kalimitang",
  "9717": " binago",
  "9718": " lane",
  "9719": " UK",
  "9720": " sekw",
  "9721": " pagnanakaw",
  "9722": " paminsan",
  "9723": " pagtutol",
  "9724": " panggagamot",
  "9725": " traffick",
  "9726": " place",
  "9727": " binuksan",
  "9728": " nanatiling",
  "9729": " oks",
  "9730": " pagded",
  "9731": " pumatay",
  "9732": " nakasuot",
  "9733": "atar",
  "9734": " sumusuporta",
  "9735": " strong",
  "9736": " serbisyong",
  "9737": " Tra",
  "9738": " napip",
  "9739": "istics",
  "9740": " kapans",
  "9741": " pangkaraniwan",
  "9742": " clear",
  "9743": " Olimpiko",
  "9744": " Sebastian",
  "9745": " lunas",
  "9746": " Tad",
  "9747": "oton",
  "9748": " fee",
  "9749": "asama",
  "9750": " Crispin",
  "9751": "nin",
  "9752": " ibibigay",
  "9753": " ipaliwanag",
  "9754": " pagpapaunlad",
  "9755": "mel",
  "9756": " gabinete",
  "9757": "umal",
  "9758": " Velasco",
  "9759": " huw",
  "9760": " ibinasura",
  "9761": " Child",
  "9762": " ste",
  "9763": " Quiapo",
  "9764": " nasaktan",
  "9765": " command",
  "9766": " Reyna",
  "9767": "uugnay",
  "9768": " Raul",
  "9769": "anghali",
  "9770": " SONA",
  "9771": " Mend",
  "9772": " bom",
  "9773": " posisyong",
  "9774": " karera",
  "9775": "uluyan",
  "9776": " proyektong",
  "9777": " ipinakilala",
  "9778": " birth",
  "9779": " guw",
  "9780": " pagpapahayag",
  "9781": " officers",
  "9782": " pananagutan",
  "9783": "bate",
  "9784": " sure",
  "9785": "ilar",
  "9786": " kuk",
  "9787": " 180",
  "9788": " ya",
  "9789": "amsam",
  "9790": " Pam",
  "9791": "unungan",
  "9792": " nabuhay",
  "9793": "uhod",
  "9794": " Juli",
  "9795": "agpas",
  "9796": " panan",
  "9797": " Stand",
  "9798": " kadahil",
  "9799": " Ho",
  "9800": "manuel",
  "9801": " pagbasa",
  "9802": " daliri",
  "9803": "Pinal",
  "9804": " napansin",
  "9805": " fun",
  "9806": " Electr",
  "9807": " maih",
  "9808": " Year",
  "9809": " nagsasabi",
  "9810": "Kam",
  "9811": "Man",
  "9812": " hatol",
  "9813": " kain",
  "9814": " Benguet",
  "9815": "itional",
  "9816": " Sison",
  "9817": " upuan",
  "9818": " imah",
  "9819": "LN",
  "9820": " pig",
  "9821": " kast",
  "9822": " Hernan",
  "9823": " natatanggap",
  "9824": " products",
  "9825": " lalim",
  "9826": "wag",
  "9827": " Rub",
  "9828": " kabuhayan",
  "9829": " Dion",
  "9830": " saksi",
  "9831": " wakas",
  "9832": "ilino",
  "9833": " pares",
  "9834": "odigo",
  "9835": "ecially",
  "9836": " tinapay",
  "9837": " Sho",
  "9838": " PhilHealth",
  "9839": " aaralan",
  "9840": "urol",
  "9841": " partylist",
  "9842": " bok",
  "9843": " rat",
  "9844": " Pamantasan",
  "9845": " Nauchn",
  "9846": " Nauchnij",
  "9847": "ateral",
  "9848": " kasuot",
  "9849": "mith",
  "9850": "alakayin",
  "9851": " ipinatupad",
  "9852": "57",
  "9853": "mod",
  "9854": "Idin",
  "9855": " Representatives",
  "9856": "LI",
  "9857": "ignan",
  "9858": " Pasc",
  "9859": " apektadong",
  "9860": "GB",
  "9861": "dote",
  "9862": " paanong",
  "9863": " namuno",
  "9864": " pwersa",
  "9865": " papaano",
  "9866": " Crime",
  "9867": "yado",
  "9868": " pederal",
  "9869": " populasyong",
  "9870": "serv",
  "9871": " physical",
  "9872": " Luna",
  "9873": "ege",
  "9874": " serious",
  "9875": "roon",
  "9876": "arma",
  "9877": " haring",
  "9878": " pagbibitiw",
  "9879": " tul",
  "9880": " Ako",
  "9881": "ream",
  "9882": " gub",
  "9883": " prutas",
  "9884": "tero",
  "9885": " 64",
  "9886": "orsogon",
  "9887": " operator",
  "9888": " pagkatalo",
  "9889": "So",
  "9890": " Dag",
  "9891": "inggan",
  "9892": " nangungunang",
  "9893": " Tourism",
  "9894": "untunin",
  "9895": " kabiguan",
  "9896": " Nam",
  "9897": " Boul",
  "9898": " Cord",
  "9899": "abayaan",
  "9900": "RI",
  "9901": "ampakan",
  "9902": "onsidera",
  "9903": " absol",
  "9904": " Indiya",
  "9905": "dro",
  "9906": " Cle",
  "9907": "ulaan",
  "9908": " pagsisikap",
  "9909": " rehabilitasyon",
  "9910": " Lour",
  "9911": "ipid",
  "9912": " patunay",
  "9913": " 53",
  "9914": " naglalakad",
  "9915": " resolution",
  "9916": " Nik",
  "9917": " Budismo",
  "9918": " able",
  "9919": "abatang",
  "9920": " tugt",
  "9921": " interpretasyon",
  "9922": "ibut",
  "9923": " Ru",
  "9924": " evidence",
  "9925": "iramdam",
  "9926": " isinugod",
  "9927": "Kasalukuyang",
  "9928": "ispo",
  "9929": " kayarian",
  "9930": "panyang",
  "9931": " pinunong",
  "9932": " matagpuan",
  "9933": " spot",
  "9934": " talks",
  "9935": " paratang",
  "9936": " Ocampo",
  "9937": " tagapagtatag",
  "9938": " Sel",
  "9939": "ansom",
  "9940": "They",
  "9941": " industry",
  "9942": " bersyon",
  "9943": " suportado",
  "9944": " sust",
  "9945": "esty",
  "9946": " Masedonya",
  "9947": "cor",
  "9948": " nakaranas",
  "9949": " Leonar",
  "9950": "hih",
  "9951": " Persian",
  "9952": " income",
  "9953": " merkado",
  "9954": "edes",
  "9955": " tigil",
  "9956": " Hap",
  "9957": " FP",
  "9958": " kliyente",
  "9959": " Congo",
  "9960": " Mataas",
  "9961": " nakam",
  "9962": "ains",
  "9963": " paglipat",
  "9964": "uv",
  "9965": " kayamanan",
  "9966": " mananatili",
  "9967": "ampasigan",
  "9968": " arestado",
  "9969": " pangkasalukuyang",
  "9970": "HO",
  "9971": " magbitiw",
  "9972": " solon",
  "9973": " namamatay",
  "9974": " paghihiwalay",
  "9975": " Bah",
  "9976": "urant",
  "9977": " Romeo",
  "9978": " Labanan",
  "9979": " sunud",
  "9980": "ators",
  "9981": " dy",
  "9982": " tumit",
  "9983": " department",
  "9984": " equipment",
  "9985": " Sher",
  "9986": "oming",
  "9987": " Nagp",
  "9988": " dumad",
  "9989": " 160",
  "9990": " sug",
  "9991": "ersion",
  "9992": " Ok",
  "9993": " ngayo",
  "9994": " pagtakbo",
  "9995": "rad",
  "9996": " wat",
  "9997": "anggan",
  "9998": " kumain",
  "9999": "awakan",
  "10000": " Albert",
  "10001": "based",
  "10002": "Pinaniniwala",
  "10003": " hustong",
  "10004": "uss",
  "10005": " Batan",
  "10006": " kaugalian",
  "10007": " Aquilino",
  "10008": " Resolution",
  "10009": "intang",
  "10010": " dako",
  "10011": " demand",
  "10012": "Ibin",
  "10013": "olia",
  "10014": "uhol",
  "10015": "emen",
  "10016": " tumigil",
  "10017": " Belhika",
  "10018": " makatanggap",
  "10019": " bola",
  "10020": " along",
  "10021": " pagdur",
  "10022": " nakatalaga",
  "10023": " Fidel",
  "10024": " sinuman",
  "10025": " Edwin",
  "10026": "omang",
  "10027": " fail",
  "10028": " 58",
  "10029": " pagdar",
  "10030": "unsel",
  "10031": " Ngunit",
  "10032": "kuwentro",
  "10033": " sektang",
  "10034": "uluhang",
  "10035": " magbayad",
  "10036": " Gabinete",
  "10037": " Sangguniang",
  "10038": " cy",
  "10039": "ubay",
  "10040": " firm",
  "10041": "istration",
  "10042": " Kris",
  "10043": " pakikipagk",
  "10044": " Mov",
  "10045": " Temp",
  "10046": " linyang",
  "10047": " Anthony",
  "10048": " Cro",
  "10049": " nakag",
  "10050": " umunlad",
  "10051": " maghain",
  "10052": " ambag",
  "10053": " hita",
  "10054": "ging",
  "10055": " enc",
  "10056": "isher",
  "10057": " global",
  "10058": " karangalan",
  "10059": " marunong",
  "10060": " Agustin",
  "10061": " puwersang",
  "10062": " nakikilalang",
  "10063": " mamamayang",
  "10064": " nobela",
  "10065": " klasikong",
  "10066": " ASG",
  "10067": " camera",
  "10068": " UA",
  "10069": " [?]",
  "10070": "LP",
  "10071": " visa",
  "10072": " ikalawa",
  "10073": "ugad",
  "10074": " pagsasalin",
  "10075": " Lourdes",
  "10076": "encia",
  "10077": "obomba",
  "10078": " makukuha",
  "10079": " &#",
  "10080": " templo",
  "10081": " Pri",
  "10082": " Cesar",
  "10083": " medalya",
  "10084": " environment",
  "10085": " organiz",
  "10086": " Superintendent",
  "10087": " pinagbabaril",
  "10088": " ekst",
  "10089": " Rudy",
  "10090": " magsalita",
  "10091": " direktiba",
  "10092": "ayin",
  "10093": "Kum",
  "10094": "Bong",
  "10095": "ME",
  "10096": "UN",
  "10097": "hand",
  "10098": " Hor",
  "10099": " 1977",
  "10100": " Arabe",
  "10101": " pamantayang",
  "10102": "77",
  "10103": " pangangatawan",
  "10104": " kumakain",
  "10105": " nalaman",
  "10106": " buntis",
  "10107": "sobispo",
  "10108": " Hukbong",
  "10109": "ipad",
  "10110": " pagsasaliksik",
  "10111": " pahina",
  "10112": " demokrasya",
  "10113": "jin",
  "10114": "anging",
  "10115": " Tom",
  "10116": " fake",
  "10117": " Jordan",
  "10118": " especially",
  "10119": " facility",
  "10120": " Inspector",
  "10121": "oa",
  "10122": " MPD",
  "10123": " found",
  "10124": "udeta",
  "10125": "ically",
  "10126": " gaganapin",
  "10127": " Kit",
  "10128": " access",
  "10129": " pundamental",
  "10130": " naghihintay",
  "10131": " Sorsogon",
  "10132": " cel",
  "10133": "inakip",
  "10134": " employees",
  "10135": " Astr",
  "10136": "alimuot",
  "10137": " 1983",
  "10138": " pampubliko",
  "10139": "Pinay",
  "10140": " ruta",
  "10141": " magkabilang",
  "10142": " mamalya",
  "10143": " magsasagawa",
  "10144": " sep",
  "10145": " paunang",
  "10146": " Alejano",
  "10147": "De",
  "10148": "Magk",
  "10149": " award",
  "10150": " pampasaherong",
  "10151": " arkit",
  "10152": " name",
  "10153": " pagpapanatili",
  "10154": "Magugunita",
  "10155": "ae",
  "10156": "Umaasa",
  "10157": " kabana",
  "10158": " jail",
  "10159": " komunista",
  "10160": "zada",
  "10161": "utier",
  "10162": "eklar",
  "10163": " artip",
  "10164": " centers",
  "10165": " enforc",
  "10166": " pagganap",
  "10167": "ibili",
  "10168": " Libya",
  "10169": " goods",
  "10170": " umuunlad",
  "10171": " course",
  "10172": " magsimula",
  "10173": "alamity",
  "10174": " Pandaigdigang",
  "10175": " African",
  "10176": " division",
  "10177": " nagwagi",
  "10178": " pinakas",
  "10179": "lying",
  "10180": "laza",
  "10181": "hekutibo",
  "10182": " libo",
  "10183": " Ong",
  "10184": " wel",
  "10185": " aralan",
  "10186": " pinakamaraming",
  "10187": " Tsek",
  "10188": " sayaw",
  "10189": " Sudan",
  "10190": " Unggarya",
  "10191": " pamim",
  "10192": " Terminal",
  "10193": " bre",
  "10194": " paningin",
  "10195": " CPP",
  "10196": " vote",
  "10197": " pababa",
  "10198": " mayaman",
  "10199": " Club",
  "10200": " mabilisang",
  "10201": "amilya",
  "10202": "nacio",
  "10203": "Binigyan",
  "10204": " sindikato",
  "10205": "lide",
  "10206": "idal",
  "10207": " America",
  "10208": " nakapaloob",
  "10209": " maari",
  "10210": " mapay",
  "10211": " kapulisan",
  "10212": "agupa",
[...]
