{"<|endoftext|>":0,"!":1,"\"":2,"#":3,"$":4,"%":5,"&":6,"'":7,"(":8,")":9,"*":10,"+":11,",":12,"-":13,".":14,"/":15,"0":16,"1":17,"2":18,"3":19,"4":20,"5":21,"6":22,"7":23,"8":24,"9":25,":":26,";":27,"<":28,"=":29,">":30,"?":31,"@":32,"A":33,"B":34,"C":35,"D":36,"E":37,"F":38,"G":39,"H":40,"I":41,"J":42,"K":43,"L":44,"M":45,"N":46,"O":47,"P":48,"Q":49,"R":50,"S":51,"T":52,"U":53,"V":54,"W":55,"X":56,"Y":57,"Z":58,"[":59,"\\":60,"]":61,"^":62,"_":63,"`":64,"a":65,"b":66,"c":67,"d":68,"e":69,"f":70,"g":71,"h":72,"i":73,"j":74,"k":75,"l":76,"m":77,"n":78,"o":79,"p":80,"q":81,"r":82,"s":83,"t":84,"u":85,"v":86,"w":87,"x":88,"y":89,"z":90,"{":91,"|":92,"}":93,"~":94,"¡":95,"¢":96,"£":97,"¤":98,"¥":99,"¦":100,"§":101,"¨":102,"©":103,"ª":104,"«":105,"¬":106,"®":107,"¯":108,"°":109,"±":110,"²":111,"³":112,"´":113,"µ":114,"¶":115,"·":116,"¸":117,"¹":118,"º":119,"»":120,"¼":121,"½":122,"¾":123,"¿":124,"À":125,"Á":126,"Â":127,"Ã":128,"Ä":129,"Å":130,"Æ":131,"Ç":132,"È":133,"É":134,"Ê":135,"Ë":136,"Ì":137,"Í":138,"Î":139,"Ï":140,"Ð":141,"Ñ":142,"Ò":143,"Ó":144,"Ô":145,"Õ":146,"Ö":147,"×":148,"Ø":149,"Ù":150,"Ú":151,"Û":152,"Ü":153,"Ý":154,"Þ":155,"ß":156,"à":157,"á":158,"â":159,"ã":160,"ä":161,"å":162,"æ":163,"ç":164,"è":165,"é":166,"ê":167,"ë":168,"ì":169,"í":170,"î":171,"ï":172,"ð":173,"ñ":174,"ò":175,"ó":176,"ô":177,"õ":178,"ö":179,"÷":180,"ø":181,"ù":182,"ú":183,"û":184,"ü":185,"ý":186,"þ":187,"ÿ":188,"Ā":189,"ā":190,"Ă":191,"ă":192,"Ą":193,"ą":194,"Ć":195,"ć":196,"Ĉ":197,"ĉ":198,"Ċ":199,"ċ":200,"Č":201,"č":202,"Ď":203,"ď":204,"Đ":205,"đ":206,"Ē":207,"ē":208,"Ĕ":209,"ĕ":210,"Ė":211,"ė":212,"Ę":213,"ę":214,"Ě":215,"ě":216,"Ĝ":217,"ĝ":218,"Ğ":219,"ğ":220,"Ġ":221,"ġ":222,"Ģ":223,"ģ":224,"Ĥ":225,"ĥ":226,"Ħ":227,"ħ":228,"Ĩ":229,"ĩ":230,"Ī":231,"ī":232,"Ĭ":233,"ĭ":234,"Į":235,"į":236,"İ":237,"ı":238,"Ĳ":239,"ĳ":240,"Ĵ":241,"ĵ":242,"Ķ":243,"ķ":244,"ĸ":245,"Ĺ":246,"ĺ":247,"Ļ":248,"ļ":249,"Ľ":250,"ľ":251,"Ŀ":252,"ŀ":253,"Ł":254,"ł":255,"Ń":256,"ng":257,"na":258,"ang":259,"Ġs":260,"an":261,"Ġna":262,"Ġm":263,"Ġp":264,"at":265,"Ġsa":266,"Ġng":267,"al":268,"ag":269,"ay":270,"Ġk":271,"in":272,"it":273,"il":274,"ar":275,"Ġang":276,"ga":277,"on":278,"as":279,"is":280,"Ġt":281,"er":282,"Ġmga":283,"Ġb":284,"am":285,"ong":286,"ina":287,"Ġn":288,"ul":289,"ak":290,"ing":291,"Ġd":292,"es":293,"Ġ,":294,"Ġat":295,"ah":296,"ap":297,"en":298,"ab":299,"or":300,"ĠP":301,"Ġay":302,"Ġl":303,"Ġh":304,"um":305,"iy":306,"Ġpag":307,"ik":308,"ad":309,"aw":310,"ĠS":311,"Ġo":312,"ĠM":313,"ig":314,"ĠA":315,"os":316,"un":317,"Ġis":318,"ĠC":319,"us":320,"im":321,"ip":322,"ib":323,"re":324,"ro":325,"ito":326,"ana":327,"Ġni":328,"ilang":329,"id":330,"ĠB":331,"ol":332,"el":333,"ent":334,"ut":335,"Ġ(":336,"Ġ@":337,"-@":338,"Ġ@-@":339,"ic":340,"Ġg":341,"ur":342,"ĠD":343,"Ġnag":344,"Ġisang":345,"om":346,"yon":347,"ung":348,"Ġc":349,"Ġ1":350,"and":351,"ĠI":352,"iya":353,"ĠR":354,"ĠT":355,"ind":356,"ĠL":357,"Ang":358,"Ġkan":359,"ion":360,"Ġw":361,"ot":362,"ala":363,"he":364,"et":365,"up":366,"ĠK":367,"Ġpar":368,"ĠN":369,"Ġpang":370,"Ġmag":371,"Ġr":372,"ĠH":373,"ir":374,"ed":375,"em":376,"ug":377,"ĠG":378,"ĠE":379,"Ġsi":380,"uk":381,"od":382,"Ġito":383,"Ġ\"":384,"ant":385,"Ġ)":386,"Ġin":387,"Ġ2":388,"una":389,"indi":390,"ub":391,"ya":392,"ist":393,"Ġ*":394,"Ġmay":395,"Ġnak":396,"ek":397,"Ġ=":398,"ac":399,"Ġthe":400,"yo":401,"to":402,"ila":403,"sa":404,"ec":405,"Ġof":406,"Ġhindi":407,"ula":408,"ano":409,"ih":410,"Ġpa":411,"Ġf":412,"Ġpam":413,"Ġpara":414,"ĠJ":415,"Ġkay":416,"Ġkas":417,"uh":418,"ia":419,"yang":420,"Ġib":421,"ilip":422,"uw":423,"ok":424,"oong":425,"iw":426,"Ġpina":427,"man":428,"le":429,"Ġre":430,"00":431,"Ġta":432,"ĠF":433,"ob":434,"ep":435,"ahil":436,"est":437,"Ġum":438,"Ġmat":439,"ers":440,"Ġpagk":441,"io":442,"Ġma":443,"res":444,"op":445,"alang":446,"Ġnang":447,"alaw":448,"ĠO":449,"te":450,"Ġkat":451,"Ġnoong":452,"oy":453,"Ġmak":454,"alak":455,"Sa":456,"Ġbilang":457,"Ġdahil":458,"Ġkung":459,"apat":460,"iyang":461,"st":462,"ation":463,"Ġnito":464,"Ġ'":465,"og":466,"ud":467,"ity":468,"asyon":469,"Ġit":470,"Ġar":471,"Ġa":472,"bi":473,"und":474,"nal":475,"inas":476,"iv":477,"Ġand":478,"Ġmula":479,"Ġal":480,"ayan":481,"Ġpro":482,"Ġka":483,"ĠV":484,"Ġ:":485,"ĠU":486,"ita":487,"ans":488,"Ġnaman":489,"ika":490,"Ġkanyang":491,"Ġ19":492,"angg":493,"amang":494,"Ġan":495,"ahan":496,"ta":497,"ino":498,"eg":499,"lo":500,"Ġrin":501,"ĠMar":502,"Ġga":503,"itan":504,"alag":505,",\"":506,"ama":507,"ill":508,"Ġbag":509,"ter":510,"Ġmas":511,"Ġup":512,"Ġto":513,"Ġkanilang":514,"ens":515,"ari":516,"ulong":517,"tr":518,"ice":519,"Ġe":520,"awa":521,"apos":522,"apag":523,"yong":524,"qu":525,"Ġpana":526,"yan":527,"Ġmal":528,"ero":529,"Ġsina":530,"aan":531,"ort":532,"inat":533,"Ġnat":534,"Ġkab":535,"Ġtr":536,"mit":537,"Ġip":538,"Ġsiya":539,"ment":540,"ĠW":541,"ine":542,"ena":543,"Ġupang":544,"Ġdin":545,"atay":546,"Ġkar":547,"do":548,"iko":549,"imb":550,"ch":551,"Ġth":552,"ial":553,"uan":554,"Ġpagp":555,"ĠPh":556,"ident":557,"Ġkah":558,"ĠPang":559,"inal":560,"ating":561,"Ġniya":562,"Ġ3":563,"ĠCh":564,"Ġ20":565,"ern":566,"av":567,"Ġban":568,"eb":569,"ain":570,"Ġv":571,"ian":572,"itong":573,"aman":574,"tor":575,"ce":576,"alan":577,"Ġkal":578,"ado":579,"ĠPilip":580,"ĠIn":581,"per":582,"Ġlamang":583,"Ġiba":584,"Ġumano":585,"Ġpags":586,"ilipp":587,"Ġgina":588,"Ġkap":589,"Ġbah":590,"amp":591,"ata":592,"abang":593,"ulo":594,"ĠPhilipp":595,"ara":596,"aba":597,"alawang":598,"th":599,"Ġak":600,"Ġ-":601,"unang":602,"aring":603,"ĠAr":604,"ulat":605,"Ġpagb":606,"oc":607,"idad":608,"Ġtum":609,"iyon":610,"amb":611,"Ġpan":612,"Ġor":613,"Ayon":614,"Ġbansa":615,"ayag":616,"ahat":617,"Ġlab":618,"ili":619,"tat":620,"wa":621,"ĠAl":622,"eng":623,"emb":624,"ism":625,"Ġas":626,"imp":627,"awan":628,"ional":629,"Ġtao":630,"oon":631,"Ġpat":632,"Ġil":633,"MA":634,"alo":635,"Ġnas":636,"Ġmar":637,"ines":638,"ĠCity":639,"Ġmah":640,"ra":641,"Ġnasa":642,"angk":643,"ue":644,"Ġpagkak":645,"Ġpagl":646,"abas":647,"Ġnagp":648,"ie":649,"Ġsum":650,"aya":651,"anggang":652,"ust":653,"ha":654,"eks":655,"ĠMay":656,"ard":657,"ump":658,"anan":659,"eh":660,"Ġisa":661,"ast":662,"ov":663,"ff":664,"oh":665,"Ġpamam":666,"ĠPilipinas":667,"Ġlum":668,"isyon":669,"unt":670,"art":671,"ect":672,"Ġhanggang":673,"Ġ201":674,"Ġibang":675,"Ġmaa":676,"apon":677,"Ġpinak":678,"ate":679,"Ġnam":680,"int":681,"Ġnitong":682,"les":683,"Ġhal":684,"Ġkon":685,"Ġfor":686,"isy":687,"Ġilang":688,"agi":689,"uter":690,"ma":691,"agd":692,"ihan":693,"ire":694,"ulad":695,"Ġres":696,"end":697,"asan":698,"arang":699,"ly":700,"Ġpr":701,"unod":702,"Ġ4":703,"ew":704,"Ġnap":705,"ĠUn":706,"Ġmatapos":707,"Ġsus":708,"uro":709,"Ġsila":710,"Ġmab":711,"anda":712,"uc":713,"igay":714,"Ġnags":715,"ubl":716,"ary":717,"Ġcom":718,"asa":719,"anak":720,"Ġsaan":721,"inang":722,"Ġdalawang":723,"ilangan":724,"aga":725,"unit":726,"alik":727,"Ġon":728,"awag":729,"ĠAn":730,"uhan":731,"ima":732,"aling":733,"Ġsal":734,"resident":735,"Ġde":736,"aka":737,"ugna":738,"Ġmil":739,"Ġngay":740,"iz":741,"Ġlo":742,"Ġwalang":743,"Ġcon":744,"Ġbat":745,"Ġop":746,"Ġmagk":747,"ilala":748,"Ġlang":749,"Ġ5":750,"ĠCom":751,"Ġ).":752,"ulang":753,"uhay":754,"ada":755,"uterte":756,"iga":757,"abing":758,"angga":759,"ĠDuterte":760,"Ġina":761,"igh":762,"Ġnila":763,"ali":764,"hon":765,"alit":766,"Ġsak":767,"Ġhabang":768,"unan":769,"Ġpangk":770,"Ġpagt":771,"Ġlahat":772,"sod":773,"igan":774,"Ġag":775,"Ġayon":776,"Ġpul":777,"istr":778,"ey":779,"Nag":780,"ura":781,"eral":782,"ungk":783,"ismo":784,"Ġy":785,"ento":786,"alim":787,"Ġmaaaring":788,"Ġnaging":789,"Ġ200":790,"ago":791,"Ġtat":792,"ins":793,"Ġpal":794,"Ġpos":795,"uri":796,"Ġkaya":797,"ista":798,"Ġkaniyang":799,"orm":800,"Ġkam":801,"Ġ;":802,"port":803,"da":804,"ĠSena":805,"Ġpinag":806,"Sina":807,"Ġaraw":808,"ow":809,"Ġloob":810,"Ġpagpap":811,"Ġbahagi":812,"ĠMan":813,"la":814,"ahala":815,"Ġman":816,"alaga":817,"Ito":818,"agitan":819,"Ġimp":820,"ri":821,"Ġdito":822,"inag":823,"aming":824,"Ġtaon":825,"agawa":826,"Ġsin":827,"aroon":828,"ĠPhilippines":829,"lat":830,"ure":831,"ahayag":832,"ev":833,"ĠAs":834,"Ġdating":835,"Ġik":836,"gamit":837,"ona":838,"ive":839,"Ġpamamagitan":840,"anag":841,"anong":842,"long":843,"ĠIng":844,"agdag":845,"alaking":846,"pan":847,"ungsod":848,"ĠIs":849,"uloy":850,"Ġtinat":851,"Ġ6":852,"Ġitong":853,"Ġpak":854,"if":855,"000":856,"ĠY":857,"ĠPangulong":858,"Si":859,"Ġtag":860,"ao":861,"Ġlaban":862,"Ġpas":863,"ĠQ":864,"iging":865,"Ġunang":866,"Sinabi":867,"alaki":868,"ĠSan":869,"Ġbe":870,"agk":871,"ikt":872,"our":873,"ĠAng":874,"iling":875,"pl":876,"ays":877,"IL":878,"ikal":879,"olice":880,"Ġpl":881,"Ġdapat":882,"Ġkina":883,"aran":884,"Ġtaong":885,"Ġbu":886,"ingg":887,"Ġgr":888,"oby":889,"ore":890,"Ġbum":891,"uling":892,"ĠAm":893,"ĠRep":894,"agp":895,"Ġnagb":896,"Ġpagd":897,"era":898,"Ġsh":899,"Ġest":900,"ult":901,"Ġpart":902,"co":903,"Ġel":904,"Ġkom":905,"Ġthat":906,"Ġnab":907,"ess":908,"ĠAb":909,"Ġpulis":910,"Ġpagh":911,"ement":912,"Ġsusp":913,"Ġch":914,"Ġpanahon":915,"Ġex":916,"uha":917,"ase":918,"uno":919,"ord":920,"unah":921,"uo":922,"ies":923,"Ġsiyang":924,"ez":925,"iwang":926,"dor":927,"Ġdr":928,"Ġbin":929,"ors":930,"ĠIngles":931,"zon":932,"ĠPresident":933,"amit":934,"ĠBr":935,"isyal":936,"eo":937,"ĠTr":938,"Ġpo":939,"ugar":940,"Ġmap":941,"ahang":942,"uli":943,"nat":944,"ret":945,"akas":946,"Ġgum":947,"Ġhum":948,"ĠEst":949,"Ġbikt":950,"ikang":951,"Ġ18":952,"Ġj":953,"isa":954,"Ġkasama":955,"ĠPhilippine":956,"rist":957,"Ġika":958,"Ġkum":959,"anap":960,"Ġpap":961,"ĠZ":962,"ork":963,"Ġad":964,"Ġlugar":965,"ikong":966,"Ġbaba":967,"Ġsinabi":968,"Ġmaging":969,"Ġap":970,"min":971,"ĠDep":972,"ansang":973,"ĠNew":974,"gr":975,"Ġser":976,"Ġhe":977,"MAN":978,"itang":979,"Ġ7":980,"Ġngunit":981,"apit":982,"ons":983,"urang":984,"Ġmad":985,"Ġpinakam":986,"imula":987,"ran":988,"Ġnagk":989,"Ġanak":990,"ĠEs":991,"ato":992,"Ġngayon":993,"ĠNat":994,"'s":995,"Ġab":996,"ical":997,"Ġst":998,"bay":999,"ulan":1000,"ĠRom":1001,"all":1002,"anang":1003,"igit":1004,"arangay":1005,"anggap":1006,"ugnay":1007,"her":1008,"Ġbiktima":1009,"Ġmayro":1010,"ell":1011,"lal":1012,"ight":1013,"ief":1014,"Ġopisyal":1015,"ular":1016,"iyos":1017,"iwala":1018,"ĠSec":1019,"syon":1020,"use":1021,"inan":1022,"ĠPr":1023,"etro":1024,"arap":1025,"Ġpamahala":1026,"ekt":1027,"nan":1028,"ĠEn":1029,"ami":1030,"Ġbago":1031,"Ġi":1032,"Ġwala":1033,"Ġpum":1034,"Noong":1035,"Ġsub":1036,"ela":1037,"alas":1038,"ibo":1039,"Ġkasal":1040,"lam":1041,"Ġdis":1042,"Ġsp":1043,"ĠManila":1044,"Ġsar":1045,"Ġare":1046,"Ġ8":1047,"so":1048,"atapos":1049,"Ġsuspek":1050,"ĠPolice":1051,"ayo":1052,"Ġbuhay":1053,"ante":1054,"Ġdum":1055,"abah":1056,"inut":1057,"onom":1058,"..":1059,"ILA":1060,"adong":1061,"akat":1062,"Ġmaraming":1063,"Ġpamp":1064,"uwal":1065,"Ġ10":1066,"Ġniyang":1067,"ection":1068,"uku":1069,"Ġsup":1070,"iwanag":1071,"Ġmagp":1072,"asal":1073,"ĠPangulo":1074,"artment":1075,"ipag":1076,"ith":1077,"Ġpin":1078,"ukoy":1079,"ite":1080,"Ġpamil":1081,"Ġpahayag":1082,"Ġoper":1083,"MANILA":1084,"iss":1085,"Ġter":1086,"Ġdi":1087,"ĠSant":1088,"Ġwh":1089,"Ġkaso":1090,"Ġ9":1091,"erno":1092,"ĠSt":1093,"sak":1094,"embre":1095,"Ġmam":1096,"act":1097,"Ġte":1098,"Ġlungsod":1099,"ĠNational":1100,"oloh":1101,"igo":1102,"anga":1103,"NP":1104,"Ġbuong":1105,"uring":1106,"abot":1107,"umb":1108,"ugan":1109,"inig":1110,"Ġnil":1111,"May":1112,"ilan":1113,"iit":1114,"esp":1115,"agang":1116,"ign":1117,"inaw":1118,"Ġtatlong":1119,"ungan":1120,"mp":1121,"ack":1122,"out":1123,"Ġnakat":1124,"Ġbaw":1125,"Ġbagong":1126,"Ġbayan":1127,"ress":1128,"Ġbatas":1129,"ĠAg":1130,"Ġkabilang":1131,"Ġkil":1132,"Ġ15":1133,"Ġkin":1134,"Ġmags":1135,"Ġkahapon":1136,"ayang":1137,"aas":1138,"ide":1139,"ĠGMA":1140,"Ġnasabing":1141,"ema":1142,"ĠRo":1143,"Ġko":1144,"ĠAqu":1145,"Ġtinatawag":1146,"Ġinter":1147,"de":1148,"abag":1149,"ka":1150,"apan":1151,"Ġmed":1152,"ĠDepartment":1153,"aro":1154,"Ġ12":1155,"hi":1156,"idente":1157,"pit":1158,"han":1159,"nap":1160,"Ġwe":1161,"amant":1162,"Ġipina":1163,"Ġpamahalaan":1164,"Ġbuw":1165,"abi":1166,"rim":1167,"atang":1168,"Ġco":1169,"Ġgoby":1170,"retary":1171,"Ġbar":1172,"Hindi":1173,"ert":1174,"ost":1175,"ibigay":1176,"enc":1177,"ente":1178,"atan":1179,"Ġuri":1180,"ose":1181,"ĠII":1182,"ĠComm":1183,"Ġbabae":1184,"Ġtungk":1185,"Ġgobyerno":1186,"ensiya":1187,"las":1188,"Ġsap":1189,"ĠGr":1190,"Ġ/":1191,"gawa":1192,"alay":1193,"ont":1194,"Ġkag":1195,"ach":1196,"Ġ--":1197,"Ġnot":1198,"Ġprob":1199,"aral":1200,"bo":1201,"orte":1202,"ril":1203,"Ġkatulad":1204,"'t":1205,"Ġpangunah":1206,"Ġbak":1207,"awi":1208,"ĠSa":1209,"undo":1210,"Ġper":1211,"Ġkatawan":1212,"alawa":1213,"Ġpol":1214,"ayun":1215,"Ġlalaki":1216,"Ġulat":1217,"ĠAquino":1218,"iyak":1219,"Ġkapag":1220,"estiga":1221,"esto":1222,"ations":1223,"ry":1224,"ĠEl":1225,"ence":1226,"ĠAmer":1227,"imbestiga":1228,"Ġpubl":1229,"anya":1230,"Ġpagitan":1231,"usyon":1232,"ĠCon":1233,"ĠSp":1234,"Ġmang":1235,"ĠPro":1236,"ave":1237,"Ġpagtat":1238,"po":1239,"umang":1240,"ct":1241,"Ġwill":1242,"Ġbahay":1243,"Ġhin":1244,"abaho":1245,"nang":1246,"Ġem":1247,"Ġoff":1248,"gan":1249,"Ġtulad":1250,"age":1251,"siyon":1252,"Ġginagamit":1253,"Ġind":1254,"rom":1255,"iniwala":1256,"Ġilalim":1257,"Ġsabi":1258,"ere":1259,"Ġsinas":1260,"asok":1261,"Ġaw":1262,"alawigan":1263,"uran":1264,"Ġpuw":1265,"nila":1266,"ĠAp":1267,"andang":1268,"Ġinil":1269,"upo":1270,"agan":1271,"son":1272,"Ġpangunahing":1273,"alat":1274,"Ġek":1275,"Ġnah":1276,"eneral":1277,"Ġsena":1278,"Ġnagpap":1279,"ond":1280,"Ġwith":1281,"Ġgaw":1282,"Ġring":1283,"agal":1284,"Ġrel":1285,"ible":1286,"ilangang":1287,"lang":1288,"Ġkaran":1289,"),":1290,"ĠLe":1291,"Ġnakak":1292,"ĠNews":1293,"Is":1294,"ibong":1295,"Ġins":1296,"ĠRod":1297,"cos":1298,"alagang":1299,"overn":1300,"Ġus":1301,"atas":1302,"Ġnagt":1303,"arian":1304,"agpuan":1305,"araang":1306,"Ġant":1307,"bang":1308,"Ġed":1309,"ĠDe":1310,"ĠSal":1311,"Ġbawat":1312,"Ġpagbab":1313,"Ġpamilya":1314,"ĠCar":1315,"ĠKat":1316,"Ġkasaluku":1317,"Ġpero":1318,"esus":1319,"ĠSen":1320,"ĠMaynila":1321,"asyong":1322,"Ġun":1323,"ministr":1324,"Ġpakik":1325,"ĠAt":1326,"Ġtub":1327,"Ġpres":1328,").":1329,"awang":1330,"ĠOr":1331,"Ġnan":1332,"Ġnina":1333,"arawan":1334,"uang":1335,"ĠSup":1336,"ido":1337,"ge":1338,"ĠKrist":1339,"igt":1340,"utan":1341,"Ġsig":1342,"igyan":1343,"Ġdel":1344,"ery":1345,"In":1346,"nak":1347,"NA":1348,"Ġ11":1349,"alth":1350,"yar":1351,"ish":1352,"Ġda":1353,"ĠInd":1354,"eksuwal":1355,"ĠPas":1356,"ĠHe":1357,"ime":1358,"abilang":1359,"Ġim":1360,"Ġkak":1361,"Ġsam":1362,"Ġkahit":1363,"Dahil":1364,"Ġdagdag":1365,"que":1366,"any":1367,"ĠMa":1368,"Ġlik":1369,"ador":1370,"anao":1371,"Ġapat":1372,"ungo":1373,"Ġmatat":1374,"land":1375,"Ġnilang":1376,"asak":1377,"Ġ199":1378,"ĠSecretary":1379,"ear":1380,"ood":1381,".\"":1382,"ID":1383,"Ġkaram":1384,"iyong":1385,"Ġ16":1386,"ĠOff":1387,"pa":1388,"alis":1389,"upad":1390,"Ġ.":1391,"ĠCor":1392,"ilit":1393,"Ġmayroong":1394,"dig":1395,"ustr":1396,"Ġbil":1397,"aban":1398,"iyan":1399,"alita":1400,"19":1401,"Ġ14":1402,"usan":1403,"anta":1404,"ace":1405,"Ġpagiging":1406,"Ġkanya":1407,"ĠEd":1408,"ĠQue":1409,"Ġbas":1410,"Ġpamb":1411,"ubuo":1412,"ĠEuro":1413,"Ġisina":1414,"Ġsist":1415,"rol":1416,"elo":1417,"ission":1418,"der":1419,"Ġ198":1420,"Ġlalawigan":1421,"ekto":1422,"Ġbagay":1423,"wang":1424,"ongres":1425,"ira":1426,"ru":1427,"ĠIt":1428,"iba":1429,"embro":1430,"Nak":1431,"Ġdrug":1432,"Ġam":1433,"Ġyo":1434,"ĠFran":1435,"ĠIb":1436,"ict":1437,"ulot":1438,"imog":1439,"ĠThe":1440,"ĠMal":1441,"Ġgaya":1442,"ĠSh":1443,"royo":1444,"isip":1445,"Ġmiy":1446,"Ġsilang":1447,"ko":1448,"Ġbansang":1449,"Ġen":1450,"Ġmalaking":1451,"Ġdep":1452,"agu":1453,"Ġpangalan":1454,"ĠPNP":1455,"Ġ17":1456,"ataas":1457,"ĠFilip":1458,"Ġani":1459,"alam":1460,"ise":1461,"ĠReg":1462,"Ġnaka":1463,"Ġnaturang":1464,"oto":1465,"Ġgabi":1466,"Ġmagb":1467,"Ġnagm":1468,"Ġmiyembro":1469,"ĠMart":1470,"ahe":1471,"imbawa":1472,"Ġpop":1473,"overnment":1474,"Ġlim":1475,"Ġbata":1476,"ati":1477,"inggo":1478,"ĠAnt":1479,"pital":1480,"Ġkaugnay":1481,"Ġgamit":1482,"ich":1483,"ibil":1484,"Ġpagsas":1485,"Ġtungkol":1486,"Ġkump":1487,"ukod":1488,"Ġngayong":1489,"ĠCo":1490,"Ġkaraniwang":1491,"Ġimbestiga":1492,"iwan":1493,"Ġle":1494,"Ġgrupo":1495,"Ġ13":1496,"Ġhave":1497,"api":1498,"Ġmot":1499,"Ġdire":1500,"Ġprod":1501,"iran":1502,"Ġid":1503,"ĠRodr":1504,"inam":1505,"ulungan":1506,"Ġgam":1507,"Ġnga":1508,"amantala":1509,"Ġlup":1510,"ĠTs":1511,"Ġpers":1512,"ĠPin":1513,"agat":1514,"ĠHesus":1515,"anas":1516,"Ġmilit":1517,"olog":1518,"ĠQuezon":1519,"are":1520,"ĠAnd":1521,"ĠAd":1522,"SA":1523,"bis":1524,"ouse":1525,"apang":1526,"Ġep":1527,"ex":1528,"akita":1529,"sik":1530,"Ġsenador":1531,"Ġnakik":1532,"ulasyon":1533,"ĠGu":1534,"alabas":1535,"Ġinih":1536,"Ġaniya":1537,"ados":1538,"Ġnangy":1539,"igdig":1540,"ake":1541,"Ġtal":1542,"ĠVill":1543,"ĠDav":1544,"az":1545,"indanao":1546,"idos":1547,"Ġsakit":1548,"Ġtrans":1549,"uld":1550,"ba":1551,"ulta":1552,"Ġmundo":1553,"agamit":1554,"stit":1555,"apa":1556,"uct":1557,"Ġbuwan":1558,"iver":1559,"Ġac":1560,"au":1561,"ĠPan":1562,"Ġreh":1563,"Ġ\".":1564,"ĠArroyo":1565,"Ġcomm":1566,"Ġbut":1567,"Ġnagh":1568,"ĠEstados":1569,"Ġout":1570,"gy":1571,"Ġkilala":1572,"ondo":1573,"ber":1574,"ĠUnidos":1575,"abay":1576,"Ġmin":1577,"arra":1578,"Ġumaga":1579,"ĠCol":1580,"andid":1581,"lan":1582,"ĠPilipino":1583,"Ġev":1584,"air":1585,"ĠVal":1586,"ĠEm":1587,"ugnayan":1588,"ĠOffice":1589,"ser":1590,"Ġ:.":1591,"ĠPag":1592,"ulugan":1593,"oro":1594,"anay":1595,"Ġnamang":1596,"ikha":1597,"ory":1598,"alip":1599,"Ġumanong":1600,"ris":1601,"Ip":1602,"ĠInter":1603,"Ġpanl":1604,"Ġprogr":1605,"Ġalas":1606,"Ġesp":1607,"ual":1608,"Ġreg":1609,"ral":1610,"ĠCO":1611,"bol":1612,"Ġsec":1613,"ivers":1614,"kt":1615,"ilos":1616,"apatid":1617,"Ġro":1618,"Ġsalitang":1619,"ĠKap":1620,"Ġneg":1621,"Ġorgan":1622,"ene":1623,"lad":1624,"ĠMaria":1625,"roup":1626,"ail":1627,"Ġnagd":1628,"olohiya":1629,"ĠBarangay":1630,"Ġqu":1631,"unta":1632,"hang":1633,"Ġbina":1634,"Ġisin":1635,"ĠHapon":1636,"uns":1637,"abaw":1638,"ayon":1639,"Ġoras":1640,"Ġpre":1641,"ĠCent":1642,"bing":1643,"ĠRodrigo":1644,"ihin":1645,"ass":1646,"olo":1647,"get":1648,"Ġwikang":1649,"old":1650,"Ġdro":1651,"agong":1652,"ĠHud":1653,"Ġmana":1654,"ĠSenado":1655,"aralan":1656,"Ġbarangay":1657,"Ġour":1658,"20":1659,"ehong":1660,"ĠMga":1661,"alawak":1662,"ye":1663,"ilo":1664,"Ġsubalit":1665,"Ġpaggamit":1666,"ĠJuan":1667,"Ġkanila":1668,"Ġnagl":1669,"Ġtubig":1670,"ius":1671,"able":1672,"Ġ30":1673,"ustice":1674,"ctor":1675,"Ġprobl":1676,"Ġpartik":1677,"Ġadministr":1678,"ayong":1679,"alac":1680,"ĠSer":1681,"Ġoffic":1682,"ick":1683,"irap":1684,"ĠLu":1685,"Ġako":1686,"Ġsarili":1687,"Ġby":1688,"ourt":1689,"Ġkasong":1690,"Ġlib":1691,"Ġtagapag":1692,"ĠMarcos":1693,"ty":1694,"Ġmilyon":1695,"The":1696,"wal":1697,"Ġdes":1698,"Ġwika":1699,"Ġkont":1700,"Ġ%":1701,"Ġprot":1702,"eta":1703,"Ġpanana":1704,"Ġpangkat":1705,"eno":1706,"ĠChina":1707,"Ġrep":1708,"str":1709,"ĠPar":1710,"ĠDO":1711,"hip":1712,"ces":1713,"Ġgan":1714,"Ġtumut":1715,"ilis":1716,"Ġsc":1717,"awak":1718,"ĠIm":1719,"Ġrec":1720,"Ġding":1721,"ior":1722,"osa":1723,"ions":1724,"igil":1725,"ider":1726,"Ġpatuloy":1727,"uel":1728,"itor":1729,"Ġpresident":1730,"Ġnaglal":1731,"Kabilang":1732,"Ġmod":1733,"eop":1734,"amatay":1735,"ahin":1736,"Ġaaral":1737,"alakas":1738,"ĠRepubl":1739,"Ġme":1740,"onal":1741,"Ġwork":1742,"Ġlalo":1743,"Ġwas":1744,"irus":1745,"Ġtrabaho":1746,"Ġmuling":1747,"Ġdak":1748,"Ġbig":1749,"Ġdroga":1750,"Samantala":1751,"Ġdahilan":1752,"mitte":1753,"Ġekonom":1754,"along":1755,"ĠTa":1756,"Ġpulisya":1757,"Ġtin":1758,"uman":1759,"Ġkamp":1760,"ĠRob":1761,"uwag":1762,"iwalay":1763,"ipunan":1764,"ome":1765,"Ġkapang":1766,"ĠJr":1767,"Ġthis":1768,"Ġimbestigasyon":1769,"unay":1770,"ĠMayor":1771,"araan":1772,"Ġsel":1773,"Na":1774,"ft":1775,"Ġpros":1776,"Ġ197":1777,"ĠMetro":1778,"ĠFilipino":1779,"Ġut":1780,"se":1781,"vest":1782,"Ġcan":1783,"ĠCommission":1784,"ugang":1785,"Ġnais":1786,"Ġparaan":1787,"ety":1788,"mittee":1789,"ecut":1790,"Ġginawa":1791,"Ġmakapag":1792,"RM":1793,"iral":1794,"Ġkad":1795,"Ġposible":1796,"ĠUS":1797,"Ġkontr":1798,"ham":1799,"inak":1800,"Ġmataas":1801,"ley":1802,"ukan":1803,"Ġsiy":1804,"amin":1805,"ĠIbarra":1806,"50":1807,"Ġpab":1808,"ulay":1809,"Ġkaramihan":1810,"ĠJose":1811,"Ġdaw":1812,"udy":1813,"ency":1814,"Nang":1815,"za":1816,"anyos":1817,"Ġnatin":1818,"va":1819,"Ġpagkatapos":1820,"Ġpanuk":1821,"VID":1822,"ath":1823,"ĠEx":1824,"onya":1825,"Ġmamam":1826,"Ġnar":1827,"Ġtest":1828,"Ġanumang":1829,"ĠBul":1830,"Ġhuling":1831,"ĠSimb":1832,"Ġdiyos":1833,"Ġpant":1834,"ĠChief":1835,"alya":1836,"ĠSenate":1837,"Ġkailangan":1838,"evel":1839,"ĠDr":1840,"ĠSur":1841,"eto":1842,"ĠHer":1843,"AN":1844,"ukas":1845,"ĠIII":1846,"ee":1847,"Ġrek":1848,"ĠHouse":1849,"panya":1850,"rit":1851,"Ġmilyong":1852,"irang":1853,"Ġpartikular":1854,"ember":1855,"Ġmagiging":1856,"It":1857,"lor":1858,"Ġsimb":1859,"lim":1860,"iwa":1861,"ck":1862,"Ġbangk":1863,"Ġrito":1864,"uti":1865,"Ġreport":1866,"ulu":1867,"inay":1868,"An":1869,"uso":1870,"erk":1871,"ĠMalac":1872,"ile":1873,"Ġah":1874,"ĠArm":1875,"Ġkaw":1876,"unog":1877,"ne":1878,"Ġsasak":1879,"ida":1880,"Ġnagtat":1881,"ihinal":1882,"ver":1883,"isang":1884,"inggil":1885,"Ġanim":1886,"outh":1887,"unong":1888,"Ġseksuwal":1889,"ĠPrans":1890,"ĠMindanao":1891,"Ġmon":1892,"Ġproduk":1893,"Ġresp":1894,"ept":1895,"Ġ}":1896,"30":1897,"Ġpopulasyon":1898,"ĠFer":1899,"10":1900,"elec":1901,"ĠAss":1902,"cho":1903,"ĠAct":1904,"Ġgovernment":1905,"ural":1906,"Ġkons":1907,"uth":1908,"eter":1909,"emang":1910,"Isang":1911,"Ġkatao":1912,"Ġkasalukuyang":1913,"egal":1914,"ĠPinoy":1915,"Ġhalos":1916,"ĠBen":1917,"ld":1918,"Ġfrom":1919,"Ġtit":1920,"Ġ{":1921,"PA":1922,"yal":1923,"Ġbul":1924,"ling":1925,"ĠDiyos":1926,"Ġsan":1927,"DA":1928,"aganap":1929,"Ġkuw":1930,"Ġlaw":1931,"Kung":1932,"Ma":1933,"Ġdalawa":1934,"ority":1935,"Ġhalaga":1936,"ĠMag":1937,"aysayan":1938,"isk":1939,"Ġyou":1940,"Gayun":1941,"Ġnakapag":1942,"ĠBel":1943,"Mar":1944,"Ġuma":1945,"ĠLungsod":1946,"ĠMed":1947,"Ġtang":1948,"ance":1949,"aso":1950,"ĠFor":1951,"ĠKast":1952,"Ġ25":1953,"ĠMalacanang":1954,"Ġhil":1955,"luran":1956,"ĠKatol":1957,"ĠBas":1958,"ubre":1959,"amd":1960,"hong":1961,"Ġini":1962,"ote":1963,"Ġpakikipag":1964,"Ġall":1965,"ĠMayo":1966,"ould":1967,"Ġmahigit":1968,"hin":1969,"for":1970,"oe":1971,"Ġ24":1972,"yente":1973,"ĠBar":1974,"Isa":1975,"Ġrelih":1976,"Ġmo":1977,"Ġpaghah":1978,"ros":1979,"Ġsimula":1980,"Ġsab":1981,"ition":1982,"Ġibin":1983,"Ġpagpapat":1984,"Ġbab":1985,"Ġsund":1986,"fer":1987,"Ġkrim":1988,"Kas":1989,"Ġpatay":1990,"Ġnakaraang":1991,"anal":1992,"bib":1993,"ĠDavao":1994,"ĠLac":1995,"ulit":1996,"Ġhigit":1997,"ĠKore":1998,"FW":1999,"rap":2000,"Ġsumus":2001,"Ġnamatay":2002,"Ġdo":2003,"ayari":2004,"yarihan":2005,"Ġmayroon":2006,"ĠKam":2007,"ormal":2008,"ĠJustice":2009,"ĠTh":2010,"national":2011,"leg":2012,"Ġposibleng":2013,"iyano":2014,"Ġpagkaka":2015,"alian":2016,"dang":2017,"...":2018,"ĠCOVID":2019,"ebr":2020,"Ġestado":2021,"ales":2022,"one":2023,"orth":2024,"Ġsur":2025,"aril":2026,"Ġgus":2027,"Ġdal":2028,"ve":2029,"ĠLa":2030,"ĠEnero":2031,"Ġmalapit":2032,"iyo":2033,"Ġnana":2034,"Ġpagkakaroon":2035,"Ġtulong":2036,"akbo":2037,"ihim":2038,"Ġlimang":2039,"inuturing":2040,"vin":2041,"way":2042,"Ġgawa":2043,"emp":2044,"FP":2045,"yung":2046,"Ġlok":2047,"Ġchief":2048,"Ġnangang":2049,"eksiyon":2050,"Ġkabu":2051,"eople":2052,"ĠGeneral":2053,"Ġaklat":2054,"Ġparehong":2055,"Ġkapatid":2056,"alde":2057,"rat":2058,"Ġmatatagpuan":2059,"atid":2060,"Ġipinag":2061,"UR":2062,"chool":2063,"toridad":2064,"Ġhinggil":2065,"akt":2066,"go":2067,"Ġnaw":2068,"agkat":2069,"Ġpis":2070,"ego":2071,"Ġasawa":2072,"ision":2073,"Ġpinap":2074,"ismong":2075,"arating":2076,"low":2077,"anggit":2078,"angkot":2079,"Ġsiglo":2080,"anat":2081,"eso":2082,"Ġpangang":2083,"Ġmakak":2084,"Ġ21":2085,"ocial":2086,"ĠAk":2087,"ier":2088,"Ġpubliko":2089,"Ġhay":2090,"cis":2091,"rop":2092,"ingi":2093,"uhang":2094,"Ġhalimbawa":2095,"ĠLun":2096,"Ġbus":2097,"Ġpagkain":2098,"Ġmarami":2099,"ĠUnivers":2100,"ĠMac":2101,"Ġpolit":2102,"ij":2103,"Ġnal":2104,"iang":2105,"Ġproblema":2106,"mb":2107,"Ġinsidente":2108,"Ġmagkaroon":2109,"agad":2110,"ica":2111,"ĠX":2112,"che":2113,"alagay":2114,"Ġelection":2115,"Ġama":2116,"Ġsapagkat":2117,"eho":2118,"Ġeks":2119,"Ġtrad":2120,"Ġinc":2121,"ese":2122,"ekl":2123,"Ġput":2124,"san":2125,"Ġcor":2126,"ruz":2127,"ild":2128,"ola":2129,"inangg":2130,"Ġkatang":2131,"Ġwar":2132,"ugo":2133,"Ġmilitar":2134,"Ġpagsus":2135,"Ġalam":2136,"Ġpinang":2137,"Ġresidente":2138,"ugh":2139,"ipan":2140,"Ġart":2141,"ĠBiy":2142,"Ġhina":2143,"iago":2144,"ĠEuropa":2145,"Ġnaga":2146,"lay":2147,"alaman":2148,"Ġmedia":2149,"enta":2150,"Ġstat":2151,"Ġdok":2152,"Ġno":2153,"atat":2154,"form":2155,"unuan":2156,"Ġsy":2157,"ias":2158,"usap":2159,"ĠMus":2160,"ĠPad":2161,"ĠPresidential":2162,"orta":2163,"ayos":2164,"eas":2165,"Ġcha":2166,"Ġass":2167,"ron":2168,"ahati":2169,"Ġpublic":2170,"ĠMarso":2171,"BA":2172,"ater":2173,"Ġhom":2174,"ĠQu":2175,"isyembre":2176,"di":2177,"ĠPab":2178,"ahi":2179,"ĠGriy":2180,"rada":2181,"Ġpati":2182,"Ġhalip":2183,"ĠRomano":2184,"Ġpamum":2185,"wn":2186,"ĠSab":2187,"hel":2188,"ĠJoh":2189,"Ġmaaari":2190,"ihang":2191,"illa":2192,"Ġawtoridad":2193,"ikita":2194,".,":2195,"Ġpagm":2196,"ĠCast":2197,"Ġagad":2198,"igtas":2199,"Ġ22":2200,"abu":2201,"Ġchair":2202,"agaw":2203,"ĠKastila":2204,"Ġtauhan":2205,"Ġpand":2206,"ureau":2207,"Ġpans":2208,"Ġteor":2209,"Ġtel":2210,"Ġhang":2211,"inis":2212,"ĠDisyembre":2213,"ibl":2214,"Ġimporm":2215,"ket":2216,"Ġlinggo":2217,"Ġnagsas":2218,"ings":2219,"ataan":2220,"Ġmagt":2221,"Ġu":2222,"Ġhapon":2223,"Ġano":2224,"Ġlit":2225,"iano":2226,"Ġnegos":2227,"Ġkasaysayan":2228,"aharap":2229,"erc":2230,"ash":2231,"Ġhayop":2232,"ugatan":2233,"Ġpanahong":2234,"ute":2235,"ĠLunes":2236,"ĠEstrada":2237,"ĠOFW":2238,"Siya":2239,"ĠBo":2240,"Ġdeg":2241,"Ġba":2242,"Ġkapwa":2243,"Ġkada":2244,"Ng":2245,"ĠCE":2246,"Ġpet":2247,"ĠCl":2248,"Ġkabila":2249,"adala":2250,"orld":2251,"ikasyon":2252,"Ġpangkal":2253,"ĠSenador":2254,"EUR":2255,"Ġsik":2256,"Ġsanhi":2257,"ĠUnit":2258,"ibid":2259,"Ġbal":2260,"Ġnagkaroon":2261,"kas":2262,"Ġpresyo":2263,"Ġating":2264,"ated":2265,"ree":2266,"uwi":2267,"Ġpors":2268,"ks":2269,"anes":2270,"Kin":2271,"bibilangan":2272,"Ġ0":2273,"ĠMon":2274,"Ġ2019":2275,"Ġtheir":2276,"Ġmadaling":2277,"lamo":2278,"Ġkur":2279,"Ġday":2280,"Ġpagka":2281,"agay":2282,"Ġtuw":2283,"ech":2284,"ernes":2285,"ibers":2286,"isyong":2287,"Ġ194":2288,"Ġginamit":2289,"Ġpunt":2290,"Ġmangg":2291,"undin":2292,"ĠNo":2293,"Ġakt":2294,"ebu":2295,"ĠTimog":2296,"Ġtaga":2297,"arin":2298,"Ġiyon":2299,"ĠRey":2300,"Ġpangulo":2301,"RT":2302,"ea":2303,"Ġso":2304,"Ġmalawak":2305,"iban":2306,"no":2307,"ĠBureau":2308,"asang":2309,"Ġact":2310,"irm":2311,"ĠPal":2312,"Ġbay":2313,"ĠSam":2314,"ĠAle":2315,"insan":2316,"Ġbinubuo":2317,"ĠBagong":2318,"ĠDire":2319,"Ġsasakyan":2320,"ĠLacson":2321,"ulin":2322,"FA":2323,"ĠHun":2324,"Ġedad":2325,"ulog":2326,"Ġthey":2327,"Ġilan":2328,"Ġnakab":2329,"Ġnad":2330,"Ġos":2331,"ĠAbril":2332,"ĠPa":2333,"Ġlokal":2334,"Ġoperasyon":2335,"Pero":2336,"oci":2337,"Ġpinuno":2338,"Ġprop":2339,"Ġdakong":2340,"une":2341,"ako":2342,"ĠFrancis":2343,"eld":2344,"Ġkl":2345,"alipas":2346,"Ġsent":2347,"urity":2348,"Ġnoon":2349,"ys":2350,"Ġkinabibilangan":2351,"Ġkandid":2352,"atayan":2353,"Ġkarapat":2354,"Ġraw":2355,"Ġterm":2356,"uweb":2357,"Ġnational":2358,"aster":2359,"ific":2360,"ĠPablo":2361,"Ġnangyari":2362,"Ġsusunod":2363,"Ġbo":2364,"We":2365,"ental":2366,"Ġ23":2367,"Ġuna":2368,"ĠMartes":2369,"Ġkongres":2370,"ĠKristiyano":2371,"ĠBiyernes":2372,"ikano":2373,"ules":2374,"ĠHealth":2375,"Ġpersonal":2376,"under":2377,"ukat":2378,"Ka":2379,"Ġkasapi":2380,"Ġbaril":2381,"ĠPac":2382,"ĠRe":2383,"bong":2384,"Ġnakal":2385,"Ġpaaralan":2386,"ews":2387,"Bag":2388,"igma":2389,"Ġtunay":2390,"Ġdesisyon":2391,"Ġbr":2392,"ĠSouth":2393,"Ġkapangyarihan":2394,"yu":2395,"ugat":2396,"antine":2397,"IN":2398,"ĠRus":2399,"vestig":2400,"ator":2401,"ĠTe":2402,"we":2403,"atlong":2404,"olar":2405,"ĠGo":2406,"Ġpuwesto":2407,"Ġdoon":2408,"ĠAlem":2409,"udget":2410,"aging":2411,"amat":2412,"Ġstr":2413,"ĠHindi":2414,"itna":2415,"ecial":2416,"Ġnakap":2417,"Ġmapag":2418,"ĠEr":2419,"put":2420,"ĠLib":2421,"Ġitinat":2422,"ĠKamara":2423,"Bukod":2424,"anggol":2425,"aliwanag":2426,"esa":2427,"erson":2428,"ĠAsya":2429,"ĠKan":2430,"ĠHunyo":2431,"Ġpinam":2432,"Ġpolice":2433,"Ġkund":2434,"ocal":2435,"ics":2436,"opment":2437,"ĠJohn":2438,"Ġne":2439,"Pagk":2440,"ĠKatoliko":2441,"Ġgay":2442,"Ġinaas":2443,"Ġmaliit":2444,"omb":2445,"EA":2446,"ibig":2447,"ĠAmerika":2448,"Ġmuna":2449,"redo":2450,"ultura":2451,"izal":2452,"wagan":2453,"ĠCebu":2454,"Ġkol":2455,"ampa":2456,"abatas":2457,"Ġcont":2458,"Ġanyo":2459,"ilosop":2460,"ĠCourt":2461,"ĠBal":2462,"aryo":2463,"into":2464,"tong":2465,"Ġikalawang":2466,"lob":2467,"uhin":2468,"umpay":2469,"ĠCenter":2470,"ĠPart":2471,"amo":2472,"igas":2473,"isyo":2474,"BI":2475,"akan":2476,"iniit":2477,"osto":2478,"Ġhas":2479,"ĠRam":2480,"ĠHil":2481,"Ġmakat":2482,"Ġsinasabing":2483,"Ġitinuturing":2484,"anib":2485,"ĠMiy":2486,"Ġmamamayan":2487,"iyal":2488,"Ġumi":2489,"ĠDi":2490,"Ġbiy":2491,"Ġkalag":2492,"Ġ196":2493,"omas":2494,"Ġkahulugan":2495,"eph":2496,"ĠStat":2497,"ingan":2498,"Ġresulta":2499,"ph":2500,"uwebes":2501,"Ġgu":2502,"ktubre":2503,"Ġ26":2504,"CO":2505,"ria":2506,"erm":2507,"uwa":2508,"ader":2509,"Ġagham":2510,"ete":2511,"ĠKongres":2512,"ĠUniversity":2513,"Ġbatay":2514,"ĠArab":2515,"Ġpinan":2516,"awala":2517,"Ġganitong":2518,"ĠOc":2519,"Ġsumusunod":2520,"inala":2521,"ĠAustr":2522,"ĠRizal":2523,"ĠLuzon":2524,"ĠJos":2525,"ĠIlo":2526,"ution":2527,"inese":2528,"Ġsang":2529,"Ġulo":2530,"Ġ27":2531,"andaigdig":2532,"ĠSupre":2533,"ower":2534,"ou":2535,"ĠWe":2536,"ulyo":2537,"Ġkakay":2538,"--":2539,"unlad":2540,"Ġnasawi":2541,"Ġbill":2542,"Ġpondo":2543,"ebrero":2544,"Ġospital":2545,"Ġbatang":2546,"Ġlupa":2547,"ĠMor":2548,"Ġmaka":2549,"angailangan":2550,"Ġsamant":2551,"uot":2552,"Ġmagkak":2553,"ĠDirector":2554,"Ġpangh":2555,"eth":2556,"Ġob":2557,"ĠHuwebes":2558,"ĠGen":2559,"Ġimpormasyon":2560,"RJ":2561,"Ġtax":2562,"ukol":2563,"ĠEspanya":2564,"usang":2565,"legal":2566,"Ġsistemang":2567,"ĠOktubre":2568,"ĠGre":2569,"Ġdistr":2570,"px":2571,"pe":2572,"ones":2573,"bid":2574,"Ġint":2575,"ady":2576,"Ġalk":2577,"ject":2578,"stem":2579,"atuloy":2580,"ĠMiyerk":2581,"Ġmamb":2582,"red":2583,"Ġsistema":2584,"DO":2585,"Nab":2586,"Ġmuli":2587,"irahan":2588,"ĠIslam":2589,"Ġcoun":2590,"ober":2591,"Ġsapat":2592,"aysay":2593,"bayan":2594,"Mayro":2595,"ulugang":2596,"ĠLuc":2597,"obyembre":2598,"Ġrehiyon":2599,"emon":2600,"Ġ28":2601,"Ġnait":2602,"atin":2603,"Ġhuwag":2604,"ĠComelec":2605,"Ġpasah":2606,"Ġsol":2607,"Ġtak":2608,"sman":2609,"Ġkomp":2610,"Ġdriver":2611,"Ġdumating":2612,"ĠPebrero":2613,"Maa":2614,"Ġsinaunang":2615,"Ġnakas":2616,"ĠHulyo":2617,"Ġnakita":2618,"Ġharap":2619,"Ġig":2620,"Ġkundi":2621,"Ġipinang":2622,"Ġkongresista":2623,"win":2624,"Ġhigh":2625,"Ġkilom":2626,"ny":2627,"Ġkamatayan":2628,"rael":2629,"Ġpagkakata":2630,"isan":2631,"ents":2632,"ĠKongreso":2633,"ĠCam":2634,"arm":2635,"ĠAgosto":2636,"Ġhis":2637,"ploy":2638,"Ġkasalukuyan":2639,"me":2640,"ĠIsrael":2641,"Ġpinal":2642,"log":2643,"etyembre":2644,"ras":2645,"Ġmabilis":2646,"ĠAir":2647,"PO":2648,"Ġlabas":2649,"Ġlist":2650,"vice":2651,"ĠPapa":2652,"ĠNobyembre":2653,"cess":2654,"Ġbagaman":2655,"Tinat":2656,"ium":2657,"ĠLima":2658,"ause":2659,"uga":2660,"arl":2661,"Ġph":2662,"ĠMakat":2663,"ĠTsina":2664,"vers":2665,"inding":2666,"Ġofficial":2667,"Ġkaysa":2668,"zo":2669,"uko":2670,"ĠMuslim":2671,"ther":2672,"ĠConst":2673,"Ġsundalo":2674,"ĠCruz":2675,"ĠMin":2676,"ĠPer":2677,"inagd":2678,"com":2679,"unity":2680,"Ġtumat":2681,"Ġekonomiya":2682,"ĠNorth":2683,"yc":2684,"Ġorder":2685,"Ġkasi":2686,"Ġpw":2687,"ĠBibl":2688,"por":2689,"elik":2690,"ĠSetyembre":2691,"ely":2692,"ĠDistr":2693,"aker":2694,"ospital":2695,"rob":2696,"Ġpanay":2697,"rel":2698,"Ġchairman":2699,"Ġtah":2700,"Ġpagbabago":2701,"utang":2702,"olit":2703,"Ġmagd":2704,"Ġshabu":2705,"igm":2706,"line":2707,"CE":2708,"ĠJo":2709,"arangan":2710,"ico":2711,"Ġgamot":2712,"Ġsag":2713,"Ġindibid":2714,"Ġwho":2715,"Ġtinut":2716,"unic":2717,"Ġ193":2718,"Ina":2719,"ideo":2720,"ĠMas":2721,"asaad":2722,"Ġmaip":2723,"umbas":2724,"Ġpangy":2725,"Ġnet":2726,"ĠGar":2727,"abagong":2728,"ĠSy":2729,"Ġsamantalang":2730,"TV":2731,"Ġ$":2732,"Ġgroup":2733,"ning":2734,"ĠInternational":2735,"Ġhuk":2736,"Ġnagmula":2737,"ĠMakati":2738,"Ġlin":2739,"ubong":2740,"ĠCal":2741,"irma":2742,"otto":2743,"ahal":2744,"Ġpah":2745,"ora":2746,"irst":2747,"Ġkinal":2748,"ecutive":2749,"Ġnaganap":2750,"otoh":2751,"Ġposisyon":2752,"ven":2753,"uto":2754,"ibang":2755,"Ġ2016":2756,"Ġkaniya":2757,"okes":2758,"Ġgawain":2759,"Ġsit":2760,"isasyon":2761,"12":2762,"Ġsek":2763,"Ġyung":2764,"ĠPanelo":2765,"Ġmalakas":2766,"ĠBayan":2767,"Ġespes":2768,"Ġkrimen":2769,"Ġreb":2770,"Ġarm":2771,"list":2772,"ank":2773,"Ġquar":2774,"vestigation":2775,"ĠLag":2776,"ibigan":2777,"ices":2778,"ĠSantiago":2779,"Ġpera":2780,"usa":2781,"let":2782,"alig":2783,"ican":2784,"cial":2785,"Ġestudy":2786,"taas":2787,"Ġcomp":2788,"ega":2789,"Hal":2790,"Ġmy":2791,"Ġthere":2792,"Ġpinat":2793,"ense":2794,"irapan":2795,"aloob":2796,"Ġany":2797,"alasang":2798,"Ġpinaka":2799,"ĠLaw":2800,"Ġkorte":2801,"paman":2802,"aresto":2803,"upa":2804,"ĠAnton":2805,"Ġsimbahan":2806,"ames":2807,"ĠSimbahang":2808,"Ġpaliwanag":2809,"Ġbabaeng":2810,"Ġebid":2811,"Ġlayun":2812,"Ġmagulang":2813,"Ġpagg":2814,"Ġkaugnayan":2815,"Ġpasahero":2816,"Ġlider":2817,"Ġ100":2818,"itaw":2819,"count":2820,"ĠSabado":2821,"Ġpangkalahat":2822,"work":2823,"Ġtawag":2824,"ĠKah":2825,"Ġserbis":2826,"Ġmambabatas":2827,"ĠNorte":2828,"Ġih":2829,"ĠPA":2830,"Ġes":2831,"istang":2832,"Ġginagawa":2833,"ĠTrans":2834,"okesman":2835,"ĠVillar":2836,"ĠRegion":2837,"Ġimpl":2838,"ĠChinese":2839,"oss":2840,"Ġcons":2841,"ĠBer":2842,"Ġkabuuang":2843,"Ġnagbibigay":2844,"Ġpanayam":2845,"Ġsariling":2846,"11":2847,"Ġtimog":2848,"Ġer":2849,"Ġisyu":2850,"ĠRes":2851,"inawag":2852,"gar":2853,"Ġnin":2854,"ca":2855,"ĠPadre":2856,"Ġkalak":2857,"ueva":2858,"uty":2859,"Ġgumagamit":2860,"iro":2861,"alaan":2862,"etr":2863,"Ġ2010":2864,"Ġumabot":2865,"PD":2866,"Ġpagbibigay":2867,"Ġteam":2868,"ĠZamb":2869,"Ġemp":2870,"Ġpangalang":2871,"Gina":2872,"Ġtime":2873,"mula":2874,"aly":2875,"ilalim":2876,"Ġsurv":2877,"Ġtumutukoy":2878,"Matat":2879,"Ġnagkak":2880,"acan":2881,"aki":2882,"ffair":2883,"IS":2884,"Ġpook":2885,"ade":2886,"Ġdugo":2887,"ahalaga":2888,"Ġmagh":2889,"Ġmus":2890,"Ġpagtut":2891,"ĠCay":2892,"mbud":2893,"ukl":2894,"Ngunit":2895,"ĠImper":2896,"ask":2897,"ĠBud":2898,"abog":2899,"mbudsman":2900,"Ġbudget":2901,"Ġpilosop":2902,"Ġkailangang":2903,"Ġpagdinig":2904,"Ġpinakamalaking":2905,"Ġnangangah":2906,"ner":2907,"pany":2908,"ĠUnited":2909,"Ġkaragdag":2910,"Ġrad":2911,"illanes":2912,"Ġvideo":2913,"ĠRoque":2914,"itnang":2915,"Ġpagsis":2916,"ugon":2917,"ĠGriyego":2918,"ĠVic":2919,"Ġginaga":2920,"ame":2921,"Ġgayundin":2922,"ua":2923,"Ġsand":2924,"Ġbec":2925,"Ġkamay":2926,"Bilang":2927,"wit":2928,"anteng":2929,"ĠOmbudsman":2930,"Ġwid":2931,"usugan":2932,"ĠRa":2933,"Ġ29":2934,"ĠKas":2935,"ĠMat":2936,"Ġpay":2937,"ĠBrgy":2938,"ĠTrillanes":2939,"banghel":2940,"ced":2941,"Ġhuli":2942,"Ġcommittee":2943,"ĠKar":2944,"ubalit":2945,"Ġginawang":2946,"Ġkatangian":2947,"Ġpagkakataon":2948,"ensya":2949,"ingin":2950,"amba":2951,"nar":2952,"Ġsana":2953,"ĠMo":2954,"ffairs":2955,"Ġ50":2956,"ĠLab":2957,"ĠChrist":2958,"natili":2959,"utos":2960,"unga":2961,"ipon":2962,"hiya":2963,"ĠCav":2964,"IA":2965,"Ġtanging":2966,"iwasan":2967,"emat":2968,"Ġpaglabag":2969,"Ġsilangan":2970,"ĠGroup":2971,"ĠBat":2972,"Ġgulang":2973,"rub":2974,"Ġcar":2975,"ĠKorea":2976,"amay":2977,"Ġsinabing":2978,"Ġbakit":2979,"evelopment":2980,"ook":2981,"16":2982,"ilalang":2983,"ibay":2984,"Ġwidth":2985,"Ġsalita":2986,"Ġtiyak":2987,"ĠSantos":2988,"ĠOs":2989,"rus":2990,"Ġpaglal":2991,"uy":2992,"ĠPol":2993,"cent":2994,"LE":2995,"atag":2996,"elf":2997,"ander":2998,"Ġ40":2999,"Ġpeople":3000,"ĠBinay":3001,"xas":3002,"lin":3003,"ungkahi":3004,"net":3005,"Ġkanluran":3006,"alin":3007,"abil":3008,"iment":3009,"Ġkandidato":3010,"ts":3011,"ights":3012,"Ġnapak":3013,"ĠDevelopment":3014,"Ġpananal":3015,"Ġantas":3016,"ulak":3017,"Ġproseso":3018,"init":3019,"ĠBibliya":3020,"Ġestudyante":3021,"kan":3022,"eklara":3023,"Mag":3024,"Ġproy":3025,"ĠItalya":3026,"Ġsibil":3027,"Ġkond":3028,"ĠPransiya":3029,"Ġillegal":3030,"ĠPed":3031,"agsak":3032,"irit":3033,"ton":3034,"cia":3035,"ĠCong":3036,"ĠDa":3037,"ilia":3038,"igmaan":3039,"each":3040,"Gayunpaman":3041,"ĠIk":3042,"ĠAntonio":3043,"unti":3044,"Ġkulay":3045,"anggapan":3046,"Id":3047,"inagdag":3048,"etano":3049,"Ġent":3050,"utok":3051,"ĠRoxas":3052,"Ġyear":3053,"Ġrelihiyon":3054,"Ġhen":3055,"iao":3056,"Ġpe":3057,"Ġoperation":3058,"Ġpagpatay":3059,"Ġhim":3060,"inap":3061,"Ġgumawa":3062,"ĠWorld":3063,"15":3064,"ĠTipan":3065,"inar":3066,"Ġisinas":3067,"Ġepekto":3068,"ilipat":3069,"Ġelections":3070,"Ġsing":3071,"ĠSalv":3072,"Ġcent":3073,"ĠLinggo":3074,"ĠPalas":3075,"inasyon":3076,"Ġtayo":3077,"Ġalkalde":3078,"ates":3079,"igmaang":3080,"ĠAFP":3081,"raft":3082,"amil":3083,"ike":3084,"ĠFernan":3085,"unayan":3086,"ĠRobredo":3087,"Ġgamitin":3088,"ology":3089,"cil":3090,"Ġnamin":3091,"igal":3092,"ĠApr":3093,"ĠBa":3094,"Ġkomun":3095,"ĠRos":3096,"ĠKa":3097,"Ġhalalan":3098,"Ġsocial":3099,"Ġpuntos":3100,"Ġpangm":3101,"\".":3102,"isita":3103,"Ġgagaw":3104,"akda":3105,"Ġnanin":3106,"andaan":3107,"Ġsinus":3108,"ĠRev":3109,"Ġnaglalaman":3110,"Ġone":3111,"Ġpanukala":3112,"ĠDistrict":3113,"Subalit":3114,"ĠHudyo":3115,"Ġtut":3116,"Ġvs":3117,"Ġibig":3118,"Ġmagsas":3119,"Ġbit":3120,"Ġpagkab":3121,"tra":3122,"ĠAssoci":3123,"nel":3124,"Ġorihinal":3125,"uction":3126,"igr":3127,"Ġkilometro":3128,"Ġkop":3129,"Ġabo":3130,"Ġ\\":3131,"Ġarr":3132,"rer":3133,"inga":3134,"Ġkasunod":3135,"Ġnagsis":3136,"ke":3137,"Ġnagsimula":3138,"ĠBl":3139,"ĠPoe":3140,"oll":3141,"ious":3142,"ĠMiyerkules":3143,"Ġparty":3144,"ous":3145,"aranas":3146,"Ġkadalasang":3147,"Ġdip":3148,"CA":3149,"ward":3150,"ĠBatang":3151,"Ġebol":3152,"Ġhealth":3153,"vis":3154,"unin":3155,"Ġparang":3156,"ĠJapan":3157,"ĠCana":3158,"Ġmagl":3159,"sp":3160,"ĠPO":3161,"eses":3162,"ĠFr":3163,"Ġbilyon":3164,"Ġtuwing":3165,"ĠWest":3166,"araniwang":3167,"imulan":3168,"ĠIr":3169,"Ġanti":3170,"ĠEc":3171,"Ġtama":3172,"Ġindustr":3173,"Ġpelik":3174,"ĠCayetano":3175,"GA":3176,"tain":3177,"Ġlalaking":3178,"Ġsk":3179,"akay":3180,"ĠSta":3181,"Ġmodern":3182,"ella":3183,"ĠAlbay":3184,"iwas":3185,"Ġtalaga":3186,"ĠPamp":3187,"ĠNap":3188,"ĠSol":3189,"uin":3190,"ĠSand":3191,"antaon":3192,"ĠHar":3193,"sh":3194,"ĠKab":3195,"ersa":3196,"Ġresol":3197,"Ġet":3198,"los":3199,"mpal":3200,"ahagi":3201,"ilid":3202,"enteng":3203,"Ġsurvey":3204,"ĠPalasyo":3205,"iks":3206,"esta":3207,"mon":3208,"uthority":3209,"anagement":3210,"atch":3211,"Ġmanlal":3212,"Ġkontra":3213,"Ġhangga":3214,"Ġreklamo":3215,"Ġlarangan":3216,"ister":3217,"uch":3218,"Ġtanggapan":3219,"ĠSc":3220,"Ġprograma":3221,"ĠJud":3222,"Ġvirus":3223,"enda":3224,"ization":3225,"ĠNag":3226,"ĠSupt":3227,"Ġair":3228,"iam":3229,"ĠDam":3230,"Ġbala":3231,"ĠAffairs":3232,"indol":3233,"Ġunit":3234,"igang":3235,"Ġpananaw":3236,"Ġfl":3237,"Ġinf":3238,"Ġprogram":3239,"Ġmalaki":3240,"ivision":3241,"Ġbot":3242,"Ġlumabas":3243,"Ġrespons":3244,"ubo":3245,"oles":3246,"Ġpatungo":3247,"unting":3248,"entong":3249,"banghelyo":3250,"utusan":3251,"Ġkala":3252,"Ġpanukalang":3253,"reat":3254,"ĠMate":3255,"Ġgawin":3256,"ikan":3257,"Ġtungkulin":3258,"ĠAyon":3259,"akit":3260,"lano":3261,"Bagaman":3262,"utin":3263,"Ġbangkay":3264,"ios":3265,"ĠKal":3266,"Nags":3267,"Ġkw":3268,"entino":3269,"uck":3270,"ĠBu":3271,"Ġsabihin":3272,"Ġadministrasyon":3273,"ĠKom":3274,"lurang":3275,"Ġnagbigay":3276,"Ġgaling":3277,"ĠJan":3278,"Ġkinat":3279,"ĠAgu":3280,"iklo":3281,"Ġkinas":3282,"Ġpaano":3283,"Ġgitna":3284,"ono":3285,"Ġpagtaas":3286,"Ġoutput":3287,"Ġkawalan":3288,"ahay":3289,"Ġmet":3290,"ihirap":3291,"Ġdaigdig":3292,"atupad":3293,"amot":3294,"ĠMateo":3295,"Ġcase":3296,"ody":3297,"umpirma":3298,"its":3299,"over":3300,"Ġdagat":3301,"resent":3302,"alala":3303,"Ġibinigay":3304,"umento":3305,"Ġari":3306,"Ġlegal":3307,"ebisyon":3308,"ardo":3309,"Ġtek":3310,"Ġempley":3311,"Ġdet":3312,"Ġsumunod":3313,"Ġ[":3314,"Ġseg":3315,"alakay":3316,"Ġ2018":3317,"Aniya":3318,"ĠHilagang":3319,"Ġpinagm":3320,"iyento":3321,"Ġdem":3322,"Ġdib":3323,"ĠAtty":3324,"unal":3325,"Ġklas":3326,"ublic":3327,"Ġtulu":3328,"Ġbeses":3329,"akalawa":3330,"mar":3331,"Ġipinanganak":3332,"ĠCommittee":3333,"aaral":3334,"Ġserbisyo":3335,"Ġpalabas":3336,"idel":3337,"Nil":3338,"Ġkami":3339,"Ġmait":3340,"Ġkalihim":3341,"Ġcountr":3342,"Ġsangkot":3343,"Ġkinak":3344,"ugis":3345,"oso":3346,"onan":3347,"Th":3348,"Ġener":3349,"iin":3350,"nd":3351,"ĠVice":3352,"par":3353,"ĠNav":3354,"Ġnabanggit":3355,"ĠTV":3356,"araw":3357,"Ġeduk":3358,"Ġpaggawa":3359,"inab":3360,"Ġsecurity":3361,"Ġtur":3362,"Ġumiiral":3363,"ĠParty":3364,"Ġexp":3365,"Al":3366,"Ġthem":3367,"unduan":3368,"Ġ190":3369,"enez":3370,"Ġschool":3371,"here":3372,"Una":3373,"Ġguro":3374,"BS":3375,"Ġgo":3376,"Ġ31":3377,"atig":3378,"ĠRoma":3379,"ffic":3380,"Ġlaro":3381,"ĠSanta":3382,"upt":3383,"erto":3384,"usay":3385,"Ġmayor":3386,"ĠTur":3387,"gado":3388,"ĠJoseph":3389,"unto":3390,"Ġkatumbas":3391,"antay":3392,"Ġindibidwal":3393,"mpalatay":3394,"Ġnaunang":3395,"Ġdaan":3396,"ink":3397,"ĠBor":3398,"Ġsystem":3399,"ative":3400,"Ġlupain":3401,"IT":3402,"yonal":3403,"Ġpapel":3404,"17":3405,"Ġmahalagang":3406,"ĠOl":3407,"ĠCoun":3408,"Ġbase":3409,"ities":3410,"olohikal":3411,"ĠKristiyan":3412,"Ġpangg":3413,"eaker":3414,"ĠRosa":3415,"Ġhinah":3416,"Nan":3417,"eksyon":3418,"ĠBe":3419,"Ġmore":3420,"Ġshould":3421,"Ġlipunan":3422,"Mga":3423,"Ġkinaka":3424,"ĠAbu":3425,"Ġdek":3426,"ĠDom":3427,"Ġwould":3428,"ani":3429,"Ġtinatayang":3430,"Ġempleyado":3431,"now":3432,"esis":3433,"illion":3434,"Ġpost":3435,"Ġ195":3436,"ayat":3437,"Ġreal":3438,"ĠBCE":3439,"Ġmanlalaro":3440,"ĠPamb":3441,"ets":3442,"ĠEhip":3443,"Ġsino":3444,"Batay":3445,"rang":3446,"Ġahensiya":3447,"Ġhel":3448,"ĠSina":3449,"Ġpari":3450,"At":3451,"uting":3452,"Nagp":3453,"Ġkamakalawa":3454,"Ġpagkamatay":3455,"ĠTor":3456,"ĠSept":3457,"Ġpitong":3458,"ĠAc":3459,"rod":3460,"Ġlikod":3461,"Ġsunod":3462,"ĠArmy":3463,"ansin":3464,"usin":3465,"Ġmaaring":3466,"Ġukol":3467,"ives":3468,"ĠBatas":3469,"isay":3470,"Ġnagbab":3471,"Ġaccount":3472,"ĠRec":3473,"ĠCap":3474,"emor":3475,"BN":3476,"ĠBulacan":3477,"Ġkor":3478,"Halimbawa":3479,"ĠPort":3480,"mot":3481,"Ġ2017":3482,"Pagkatapos":3483,"Ġarea":3484,"Ġkilalang":3485,"aks":3486,"Ġmadalas":3487,"Ġgawaing":3488,"ied":3489,"Ġbecause":3490,"ĠAmerikano":3491,"ather":3492,"ound":3493,"omo":3494,"ever":3495,"ĠPresidente":3496,"Ġpambansang":3497,"Ġagain":3498,"Ġlayunin":3499,"Ġnagiging":3500,"Ġif":3501,"Ġmatinding":3502,"Ġkaibigan":3503,"akip":3504,"intay":3505,"ale":3506,"unahan":3507,"Ġkampanya":3508,"Ġche":3509,"nas":3510,"oot":3511,"Ġpuno":3512,"Ġlocal":3513,"imulang":3514,"Ġsaad":3515,"Ulat":3516,"Ġmakab":3517,"Ġpatak":3518,"ĠCavite":3519,"eration":3520,"igpit":3521,"Ġkatut":3522,"ĠPat":3523,"ĠSilangang":3524,"oms":3525,"Ġher":3526,"ugto":3527,"Ġteritor":3528,"point":3529,"Ġtahanan":3530,"Ġpress":3531,"Ġlakas":3532,"Ġug":3533,"Ġsamp":3534,"SO":3535,"orsiklo":3536,"law":3537,"ĠKaharian":3538,"erg":3539,"Ġprodukto":3540,"LA":3541,"anaw":3542,"Ġlindol":3543,"oseksuwal":3544,"Ġpangyayari":3545,"kop":3546,"Tum":3547,"iew":3548,"Ġdec":3549,"Ġgas":3550,"Ġkababa":3551,"leng":3552,"ahok":3553,"ukt":3554,"Ġpanin":3555,"bispo":3556,"alal":3557,"Ġpumasok":3558,"25":3559,"ĠRegional":3560,"Ġusap":3561,"inong":3562,"Para":3563,"ugod":3564,"45":3565,"Ġkalagayan":3566,"eep":3567,"ĠCamp":3568,"Ġsukat":3569,"agumpay":3570,"Ġbagyo":3571,"ĠKorte":3572,"anggi":3573,"echn":3574,"arez":3575,"Ġimport":3576,"yn":3577,"Ġmanggagawa":3578,"Ġtinang":3579,"II":3580,"RA":3581,"ĠLatin":3582,"Ġinihayag":3583,"Ġmuk":3584,"Ġminsan":3585,"mer":3586,"ĠPedro":3587,"Kapag":3588,"Ġse":3589,"urs":3590,"yat":3591,"ĠAlex":3592,"ĠLor":3593,"Ġ+":3594,"itibo":3595,"aint":3596,"Ġinaasahang":3597,"ness":3598,"Ġbandang":3599,"uda":3600,"atayo":3601,"ĠAdministr":3602,"CC":3603,"ĠEsp":3604,"vincial":3605,"virus":3606,"ĠMic":3607,"Ġtamang":3608,"yer":3609,"Ġits":3610,"Ġnai":3611,"Nabatid":3612,"perador":3613,"Ġjust":3614,"ĠCab":3615,"unsad":3616,"Ġtar":3617,"Ġidin":3618,"ibilidad":3619,"ĠMad":3620,"eachment":3621,"ĠEsc":3622,"Ġmakikita":3623,"ĠPero":3624,"Ġproyekto":3625,"Ġdirector":3626,"Kaya":3627,"Ar":3628,"Ġpagdating":3629,"iyas":3630,"Ġpampubl":3631,"mw":3632,"Ġ2007":3633,"Ġdigmaan":3634,"Ġmababang":3635,"Ġsul":3636,"Ġpananak":3637,"ports":3638,"ĠDef":3639,"TO":3640,"Ġpaglil":3641,"Ġinilabas":3642,"ĠGlor":3643,"ĠChar":3644,"Ġlabis":3645,"ĠKapitan":3646,"ix":3647,"Ġrecord":3648,"ĠMig":3649,"TA":3650,"antong":3651,"ĠTag":3652,"Ġsas":3653,"iriwang":3654,"lass":3655,"Ġsint":3656,"enz":3657,"ucation":3658,"ĠPublic":3659,"Ġmanun":3660,"Tinatawag":3661,"ode":3662,"Ġaks":3663,"Ġpunong":3664,"ock":3665,"Ġbukas":3666,"ĠLim":3667,"ĠPana":3668,"bit":3669,"con":3670,"Ġide":3671,"Ġhilagang":3672,"Ġmakaraang":3673,"fr":3674,"ising":3675,"ention":3676,"ension":3677,"Ġpinaniniwala":3678,"Ġimper":3679,"Ġnakuha":3680,"Ġparser":3681,"Ġiligal":3682,"ĠRepublika":3683,"ĠSing":3684,"Ġhak":3685,"Ġporsiyento":3686,"Ġhangin":3687,"Ġpagga":3688,"ĠHigh":3689,"Ġteror":3690,"ibersidad":3691,"ortahan":3692,"Ġiyong":3693,"Ġhep":3694,"ĠBritan":3695,"ĠSpeaker":3696,"Lum":3697,"ibigyan":3698,"yas":3699,"ĠBatangas":3700,"onavirus":3701,"ĠSum":3702,"agalog":3703,"robers":3704,"ĠPD":3705,"Ġapp":3706,"Ġmangy":3707,"undan":3708,"ĠSenator":3709,"amahala":3710,"Ġnalal":3711,"ĠKristiyanismo":3712,"Ġbukod":3713,"ungong":3714,"Ġpangkalahatang":3715,"TC":3716,"Ġitinatag":3717,"hen":3718,"ĠDrug":3719,"Ġpulo":3720,"Ġtinawag":3721,"ĠMalays":3722,"rant":3723,"iwalang":3724,"Ġmakap":3725,"ikos":3726,"18":3727,"ĠSotto":3728,"imentel":3729,"asya":3730,"Ġikatlong":3731,"Ġprib":3732,"bab":3733,"Ġpil":3734,"PNP":3735,"Ġlub":3736,"Ġakda":3737,"istan":3738,"iliit":3739,"aEUR":3740,"Ġimb":3741,"ĠDel":3742,"urong":3743,"ensiyang":3744,");":3745,"ando":3746,"uporta":3747,"Ġmotorsiklo":3748,"ilbing":3749,"ĠMont":3750,"quiao":3751,"Wala":3752,"ĠPimentel":3753,"Ġmen":3754,"39":3755,"ĠDon":3756,"ĠRepublic":3757,"Ġmor":3758,"Ġkarapatan":3759,"ope":3760,"Ġcourt":3761,"Ġpinas":3762,"ĠTagalog":3763,"Ġnangangahulugang":3764,"ĠAlb":3765,"Ġpamant":3766,"ipiko":3767,"ĠInc":3768,"agayan":3769,"Ġover":3770,"uon":3771,"awid":3772,"Um":3773,"Ġpinags":3774,"Ġtalagang":3775,"Ġtra":3776,"Sin":3777,"22":3778,"Ġsah":3779,"Tr":3780,"hed":3781,"ĠNov":3782,"Ġbeen":3783,"ĠIndones":3784,"Ġeh":3785,"enyo":3786,"Ġmalaman":3787,"ole":3788,"Ġlistahan":3789,"ease":3790,"Ġnapatay":3791,"Ġkrit":3792,"oma":3793,"inabang":3794,"ĠIg":3795,"ĠIsland":3796,"Ġpagbub":3797,"Ġ189":3798,"Ġret":3799,"atura":3800,"ĠPranses":3801,"Ġmodernong":3802,"ilbi":3803,"risis":3804,"Ġugnayan":3805,"ĠAuthority":3806,"okesp":3807,"ipat":3808,"ĠDigmaang":3809,"app":3810,"ĠNagk":3811,"Ġipinat":3812,"utas":3813,"Ġgusto":3814,"Ġbaka":3815,"Ġkabataan":3816,"Habang":3817,"Nap":3818,"Ġnagpapat":3819,"Ġcas":3820,"edeng":3821,"ograp":3822,"akailan":3823,"yag":3824,"otohanan":3825,"istro":3826,"okesperson":3827,"Ġgusali":3828,"isina":3829,"Ġplan":3830,"ĠSay":3831,"akdang":3832,"ull":3833,"ĠCouncil":3834,"Ġganap":3835,"ĠBay":3836,"Ġmismo":3837,"Ġnakah":3838,"ĠFRJ":3839,"CP":3840,"ĠPacquiao":3841,"Ġmotor":3842,"Ġplano":3843,"enn":3844,"Ġts":3845,"Ġ60":3846,"usahan":3847,"14":3848,"Ġipinap":3849,"urg":3850,"Ġalso":3851,"Ġfund":3852,"Ġwere":3853,"forc":3854,"ference":3855,"ede":3856,"Ġproject":3857,"Ġsakay":3858,"Ġesk":3859,"Ġpaniniwala":3860,"Ġkontrobers":3861,"ĠGloria":3862,"ukuha":3863,"ibak":3864,"Ġ2013":3865,"Ġpresidential":3866,"Ġlumitaw":3867,"Ġemploy":3868,"Ġpangung":3869,"ensiyon":3870,"eron":3871,"ĠAngel":3872,"Ġisk":3873,"Ġimpeachment":3874,"CR":3875,"Ġkahirapan":3876,"ĠUnang":3877,"Ġquarantine":3878,"rip":3879,"Ġplay":3880,"ĠForce":3881,"ĠReyes":3882,"Ġsunog":3883,"ĠLaguna":3884,"Ġpakikipagt":3885,"Nasa":3886,"dez":3887,"Ġhakbang":3888,"Ġkuryente":3889,"ĠSilangan":3890,"Ġ|":3891,"Ġdela":3892,"Ġsuporta":3893,"Ġkaagad":3894,"atibo":3895,"olitika":3896,"alia":3897,"Ġhuman":3898,"Ġnaniniwala":3899,"ikayat":3900,"Ġbinab":3901,"Ġnatatang":3902,"Ġsulat":3903,"isis":3904,"stitusyon":3905,"Ġwant":3906,"Gayunman":3907,"Ġpagkakas":3908,"wasyon":3909,"ĠSuprema":3910,"idd":3911,"Ġtelebisyon":3912,"anatili":3913,"aksiyon":3914,"dinan":3915,"Ġland":3916,"Ġsens":3917,"ĠInt":3918,"Ġnakalipas":3919,"Ġspec":3920,"ball":3921,"ney":3922,"ipin":3923,"Ġ2009":3924,"Ġsining":3925,"ĠZambo":3926,"Nat":3927,"Ig":3928,"ĠNA":3929,"Hin":3930,"Ġhari":3931,"Ġpercent":3932,"Ġcoronavirus":3933,"ĠVi":3934,"Ġcommunity":3935,"sada":3936,"Ġteritoryo":3937,"Ġother":3938,"Ġsakop":3939,"idong":3940,"Ġcontr":3941,"ania":3942,"ĠMiguel":3943,"Naging":3944,"Ġmaayos":3945,"amas":3946,"undok":3947,"ĠAprika":3948,"upong":3949,"Ġhist":3950,"ĠMarawi":3951,"li":3952,"Mayroon":3953,"ĠConstant":3954,"ilio":3955,"oreign":3956,"Ġtila":3957,"Inih":3958,"Ġfirst":3959,"ange":3960,"ingnan":3961,"Ġdina":3962,"ĠGe":3963,"Ġmatemat":3964,"Ġkultura":3965,"ĠSA":3966,"Ġhinih":3967,"Ġgen":3968,"Ġorganismo":3969,"Ġcond":3970,"Ġmais":3971,"natiling":3972,"Ġbro":3973,"itiw":3974,"aha":3975,"Ġabogado":3976,"Ġmata":3977,"Ġmakita":3978,"Ġunder":3979,"Ġipinak":3980,"Ġkuwento":3981,"ĠKons":3982,"bin":3983,"unsod":3984,"Ġassist":3985,"Ġcell":3986,"Ġpangangailangan":3987,"bon":3988,"ĠSimbahan":3989,"Ġ&":3990,"ĠAklat":3991,"apekt":3992,"Ġipinal":3993,"Ġatt":3994,"Ġgood":3995,"Ġcountry":3996,"ĠIV":3997,"insala":3998,"awalan":3999,"ĠCagayan":4000,"rot":4001,"angh":4002,"udi":4003,"ĠAsia":4004,"Ġbalat":4005,"ĠGarcia":4006,"Ġmakipag":4007,"erong":4008,"Ġkabis":4009,"ĠAll":4010,"Ġdekada":4011,"eda":4012,"ota":4013,"Ġtig":4014,"Ġnau":4015,"ĠPasay":4016,"ĠPampanga":4017,"Ġkalusugan":4018,"iyahan":4019,"Ġdarating":4020,"Ġpagkakaiba":4021,"Ġkailan":4022,"Matapos":4023,"peo":4024,"Ġsanggol":4025,"amm":4026,"Ġkaramd":4027,"ĠRuss":4028,"loob":4029,"ĠForeign":4030,"IV":4031,"Ġx":4032,"ĠSC":4033,"ush":4034,"Ġhilaga":4035,"Ġpatungong":4036,"angkin":4037,"ĠAS":4038,"Ġtatlo":4039,"Ġkinalaman":4040,"usal":4041,"ĠDOH":4042,"Ġmismong":4043,"osisyon":4044,"Ġdeb":4045,"Ġworkers":4046,"hael":4047,"formation":4048,"ude":4049,"Ġisinulat":4050,"ban":4051,"Tin":4052,"nam":4053,"ĠABS":4054,"Ġsem":4055,"ĠBac":4056,"ĠTransport":4057,"Ġsugatan":4058,"ĠGal":4059,"13":4060,"vel":4061,"Ġmaliliit":4062,"umite":4063,"Ġ2008":4064,"ĠSo":4065,"upan":4066,"ĠCA":4067,"ĠIsab":4068,"verseas":4069,"ĠInvestigation":4070,"Ġdiin":4071,"vices":4072,"Ġcrim":4073,"ĠZamboanga":4074,"Ġmatagal":4075,"Kasama":4076,"ibidad":4077,"ĠSchool":4078,"Ġtumukoy":4079,"ector":4080,"ungg":4081,"ĠNg":4082,"epend":4083,"500":4084,"Ġpower":4085,"ĠManagement":4086,"ulia":4087,"Ġinit":4088,"Ġhepe":4089,"uridad":4090,"Ġlikas":4091,"Ġmalalaking":4092,"RO":4093,"ĠNa":4094,"Ġhanay":4095,"isayas":4096,"ĠLucas":4097,"resyon":4098,"ler":4099,"ycle":4100,"Ġkaragdagang":4101,"atory":4102,"Ġfac":4103,"Ġpartido":4104,"Ġsangay":4105,"ĠIlocos":4106,"rabaho":4107,"Ġ2011":4108,"Kah":4109,"Ġpamumuno":4110,"ivil":4111,"Ġwalong":4112,"Ġwarrant":4113,"Mula":4114,"iksik":4115,"40":4116,"Ġbuwis":4117,"iri":4118,"ĠOb":4119,"atong":4120,"ison":4121,"ĠRed":4122,"otoo":4123,"Ġmagbigay":4124,"Ġbuh":4125,"Ġbigyan":4126,"Ġibabaw":4127,"Ġpanig":4128,"ĠAnti":4129,"fa":4130,"Ġknow":4131,"mpalataya":4132,"ĠSpokesman":4133,"Ġdulot":4134,"Ġperson":4135,"otel":4136,"ife":4137,"ĠAleman":4138,"Ġwhich":4139,"agawang":4140,"Ġpapa":4141,"ĠArt":4142,"itiz":4143,"Mas":4144,"Ġonly":4145,"ĠFrancisco":4146,"ĠPandaigdig":4147,"Ġmagmula":4148,"amihan":4149,"ayaan":4150,"ror":4151,"ĠState":4152,"Ġpanit":4153,"amantalang":4154,"ĠPasig":4155,"Ġsalaysay":4156,"ĠElias":4157,"Ġ2000":4158,"agamot":4159,"Ġhead":4160,"Ġklase":4161,"alapit":4162,"Ġcompl":4163,"sang":4164,"Ġamb":4165,"Ġtan":4166,"ĠFa":4167,"ĠStation":4168,"Ġarrest":4169,"Ġnamum":4170,"cel":4171,"Ġla":4172,"ĠPre":4173,"Ġhawak":4174,"ĠGitnang":4175,"Ġkasarian":4176,"Ġmand":4177,"ĠBI":4178,"ĠEuropeo":4179,"ĠVisayas":4180,"Ġmahihirap":4181,"ahanap":4182,"ĠHospital":4183,"Kaugnay":4184,"adal":4185,"Ġ>":4186,"Ġselula":4187,"venue":4188,"ĠBill":4189,"ĠNak":4190,"Ġnaip":4191,"Ġnow":4192,"Ġ35":4193,"ayagan":4194,"Ġilegal":4195,"ĠOrt":4196,"ĠJe":4197,"ĠBro":4198,"Ġakus":4199,"Ġsiyam":4200,"iham":4201,"Ġmalinaw":4202,"Maraming":4203,"Ġbis":4204,"Ġbl":4205,"Ġpasyente":4206,"inah":4207,"omat":4208,"udad":4209,"ĠAssociation":4210,"Ġnatural":4211,"ĠBang":4212,"ti":4213,"Ġpampolitika":4214,"Ġmakas":4215,"Ġpuso":4216,"ĠEhipto":4217,"Ġec":4218,"Ġpagtatalik":4219,"ĠSanto":4220,"Ġnumb":4221,"ilim":4222,"ĠFlor":4223,"alidad":4224,"ĠAlemanya":4225,"Ġebidensiya":4226,"ahalagang":4227,"ĠAre":4228,"rupt":4229,"ĠDNA":4230,"xt":4231,"Ġtw":4232,"ĠCongress":4233,"ĠCas":4234,"Ġdamd":4235,"Ġilog":4236,"ectr":4237,"Bin":4238,"ampas":4239,"Ġsery":4240,"Ġnegosy":4241,"akaisang":4242,"abayan":4243,"ĠMah":4244,"Ġedukasyon":4245,"Ġpresidente":4246,"Kat":4247,"Ġbers":4248,"ric":4249,"Idinagdag":4250,"Ġ2004":4251,"Ġnews":4252,"ektr":4253,"Ġpalig":4254,"ĠKong":4255,"SS":4256,"ize":4257,"dib":4258,"ĠPangas":4259,"Ġtekn":4260,"Ġnapag":4261,"Ġaabot":4262,"Ġofficer":4263,"adem":4264,"ĠFac":4265,"Ed":4266,"ĠMichael":4267,"Ġsm":4268,"hone":4269,"Kinilala":4270,"24":4271,"Ġulit":4272,"ark":4273,"ĠTol":4274,"ĠNeg":4275,"Ġpagtit":4276,"Ġkababaihan":4277,"Ġlarawan":4278,"iwatig":4279,"apektuhan":4280,"Ġeng":4281,"ocan":4282,"nia":4283,"Ġtransport":4284,"ario":4285,"iness":4286,"ule":4287,"Ġrebel":4288,"ping":4289,"rubahan":4290,"olek":4291,"Ġtermino":4292,"Ġagainst":4293,"Ġbumubuo":4294,"Ġnagpapakita":4295,"ĠHong":4296,"anah":4297,"TF":4298,"lege":4299,"reo":4300,"Iginiit":4301,"ikilala":4302,"Ġpawang":4303,"ĠED":4304,"Ġlabanan":4305,"ination":4306,"imbestigahan":4307,"Ġdef":4308,"inanggit":4309,"cus":4310,"kod":4311,"yaf":4312,"yento":4313,"Ġlimit":4314,"uklasan":4315,"Ġben":4316,"Ġsay":4317,"Ġpamahalaang":4318,"ĠAlv":4319,"Ġ2020":4320,"ebook":4321,"abl":4322,"Ġnatut":4323,"si":4324,"Ġkalik":4325,"uz":4326,"Ġ!":4327,"awit":4328,"Ġkampo":4329,"Ġteoriya":4330,"Ġmillion":4331,"ahulugan":4332,"awal":4333,"anggal":4334,"Walang":4335,"ĠGab":4336,"ĠPers":4337,"Ġnanal":4338,"Nauna":4339,"ĠSayyaf":4340,"uksan":4341,"Ġiss":4342,"yano":4343,"Ġdat":4344,"Ġfr":4345,"Ġmukha":4346,"ĠCentral":4347,"Ġpinakamataas":4348,"earch":4349,"asiwa":4350,"ĠLabor":4351,"Ġsinasabi":4352,"Ġpagkakat":4353,"ingat":4354,"Ġpanganib":4355,"aloocan":4356,"Ġnormal":4357,"Ġsahod":4358,"abawal":4359,"Ġmaliban":4360,"Ġwhat":4361,"Ġmai":4362,"ĠElection":4363,"Ġbigas":4364,"Ġimm":4365,"Ġnegosyo":4366,"Ġlinya":4367,"lak":4368,"Ġkatotohanan":4369,"Ġstate":4370,"Ġmagsasaka":4371,"Ġmagka":4372,"Ġumaabot":4373,"ĠFel":4374,"Ġkinatawan":4375,"ove":4376,"Ġpisikal":4377,"Ġistr":4378,"reng":4379,"Ġ38":4380,"reet":4381,"ĠPC":4382,"Ġnatit":4383,"Ġback":4384,"ĠSamar":4385,"ĠSi":4386,"Ġchar":4387,"Ġ2015":4388,"usk":4389,"Ġ#":4390,"ĠSandigan":4391,"Ġpormal":4392,"ĠTagu":4393,"ĠAug":4394,"udero":4395,"Ġepekt":4396,"Ġpulit":4397,"berg":4398,"Ġpass":4399,"ĠProt":4400,"anggun":4401,"Ġdirek":4402,"Ġpanlipunan":4403,"asaluku":4404,"ustong":4405,"Ġnatat":4406,"Ġkakayahan":4407,"ĠForces":4408,"Ġ_":4409,"ĠMen":4410,"ĠIndia":4411,"ĠNueva":4412,"Ġkayo":4413,"Ġkalsada":4414,"ini":4415,"umunuan":4416,"Ġmababa":4417,"ĠBoard":4418,"jo":4419,"Ġkautusan":4420,"Ġmagandang":4421,"pos":4422,"RMir":4423,"impl":4424,"usto":4425,"Ġitin":4426,"imang":4427,"Ġlangis":4428,"Ġprobins":4429,"ĠFernando":4430,"ĠSaudi":4431,"Ġpelikula":4432,"onomic":4433,"olf":4434,"Ġext":4435,"ĠVer":4436,"pat":4437,"Pinag":4438,"yle":4439,"pak":4440,"Ġlar":4441,"Ġkontrol":4442,"apatay":4443,"yod":4444,"ĠSalvador":4445,"Ġconc":4446,"Ġservice":4447,"icol":4448,"Ġkompanya":4449,"lit":4450,"Ġkaka":4451,"Ġneed":4452,"Ġkapalit":4453,"aligiran":4454,"Ġdirekt":4455,"Ġhomoseksuwal":4456,"Naniniwala":4457,"ĠSeptember":4458,"ambing":4459,"ments":4460,"Ġtagapags":4461,"ĠPl":4462,"ĠOper":4463,"ĠDagat":4464,"Maaari":4465,"ĠGMAN":4466,"Ġawit":4467,"Ġbagyong":4468,"als":4469,"abit":4470,"ĠCust":4471,"ungat":4472,"ILG":4473,"akot":4474,"ĠGovernment":4475,"Ġoperations":4476,"Noy":4477,"day":4478,"Ġayaw":4479,"ĠDem":4480,"Ġvery":4481,"Ġkatawag":4482,"Ġsob":4483,"igong":4484,"uation":4485,"alab":4486,"Ġrate":4487,"Ġdinala":4488,"ampaign":4489,"mas":4490,"ĠDo":4491,"odok":4492,"ĠJames":4493,"ĠSandiganbayan":4494,"ĠGord":4495,"king":4496,"asyo":4497,"apagal":4498,"Ġpamay":4499,"ĠMaj":4500,"ĠNet":4501,"away":4502,"ayap":4503,"Ġmakabagong":4504,"ĠGMANews":4505,"ags":4506,"Ġnahahati":4507,"Ġbaybay":4508,"ĠTer":4509,"ren":4510,"unaw":4511,"igno":4512,"ĠPeople":4513,"ilikha":4514,"ĠOri":4515,"Ġdom":4516,"ĠCorpor":4517,"MDA":4518,"Ġpamamaraan":4519,"ĠCat":4520,"Ġmult":4521,"ĠChair":4522,"Ġapekt":4523,"ĠMacapagal":4524,"ĠMalaysia":4525,"usalem":4526,"laban":4527,"insip":4528,"pang":4529,"Ġnatagpuan":4530,"60":4531,"Ġkaraniwan":4532,"rilon":4533,"Ġkabisera":4534,"oper":4535,"ĠNor":4536,"Ġmahirap":4537,"Ġsir":4538,"ĠMedical":4539,"car":4540,"ahing":4541,"ĠSocial":4542,"Ġfire":4543,"ĠCa":4544,"ikas":4545,"ĠCaloocan":4546,"Ġpanalo":4547,"Ġbakter":4548,"ĠBut":4549,"Ġpampublikong":4550,"eria":4551,"alakbay":4552,"Ġsimp":4553,"eksto":4554,"Ġpangalawang":4555,"ĠSin":4556,"ĠPangasinan":4557,"iron":4558,"Ġpagna":4559,"ihinalang":4560,"ĠKon":4561,"inals":4562,"200":4563,"Ġgagawin":4564,"Ġpagpapa":4565,"pap":4566,"Ġtuloy":4567,"osis":4568,"ĠEscudero":4569,"alarawan":4570,"ishop":4571,"ĠBon":4572,"ĠEDSA":4573,"Ġ?":4574,"ures":4575,"Ġgumamit":4576,"ful":4577,"ĠDrilon":4578,"ĠSud":4579,"alitan":4580,"Ġend":4581,"Ġmilitary":4582,"Ġbilyong":4583,"Maaaring":4584,"dala":4585,"Ġnagawa":4586,"olc":4587,"ĠOFWs":4588,"ĠExecutive":4589,"Ġpandaigdig":4590,"Ġlead":4591,"ĠTan":4592,"ĠIl":4593,"Ġtot":4594,"ĠHuda":4595,"Ġnapap":4596,"ĠDivision":4597,"abato":4598,"Ġkumpanya":4599,"tegr":4600,"bas":4601,"ansa":4602,"Ġbih":4603,"awad":4604,"Ġtro":4605,"ubog":4606,"uwel":4607,"Ġboto":4608,"own":4609,"Ġipag":4610,"Ġdami":4611,"Ġminut":4612,"Ġpribadong":4613,"row":4614,"ĠComp":4615,"Ġumalis":4616,"igilan":4617,"Ġisip":4618,"nador":4619,"Ġgawing":4620,"ĠDis":4621,"Ġgrupong":4622,"Kar":4623,"gad":4624,"ĠNBI":4625,"Ġmagpap":4626,"ahayan":4627,"ĠNagkakaisang":4628,"Ġliham":4629,"orn":4630,"Ġpagkakak":4631,"Ġpagpapak":4632,"Ġfe":4633,"view":4634,"ĠDec":4635,"Ġbumalik":4636,"Ġtumaas":4637,"Ġsangk":4638,"Ġbunga":4639,"Ġhangganan":4640,"Ġpagkat":4641,"Ġcomune":4642,"Ġtinam":4643,"omba":4644,"Ġbalak":4645,"iland":4646,"Ġenerhiya":4647,"Ġcenter":4648,"uma":4649,"Ġ32":4650,"Ġvan":4651,"ĠAvenue":4652,"ekan":4653,"ilitaw":4654,"omen":4655,"ansiya":4656,"Ġmedical":4657,"urn":4658,"Ġaut":4659,"Ġkapul":4660,"ilya":4661,"umpis":4662,"Ġkumpara":4663,"uluhan":4664,"Ġcol":4665,"Ġbanta":4666,"EN":4667,"lus":4668,"eni":4669,"Ġdrugs":4670,"Ġbarko":4671,"Ġpinamumunuan":4672,"ĠHapones":4673,"ambak":4674,"ason":4675,"Ġkapit":4676,"anto":4677,"etiko":4678,"Ġinihain":4679,"kin":4680,"ĠKanluran":4681,"Ġrequ":4682,"Ġkamakailan":4683,"Ġkasabay":4684,"ĠFacebook":4685,"Ġkalikasan":4686,"ubok":4687,"Ġhad":4688,"Ġpinagmulan":4689,"Ġpumap":4690,"Ġsenator":4691,"ĠCot":4692,"Bago":4693,"dr":4694,"Ġbato":4695,"Ġkaalaman":4696,"eralco":4697,"Ġmass":4698,"ĠDOJ":4699,"Ġmahalaga":4700,"andaang":4701,"ĠOriental":4702,"ubuhay":4703,"Ġnarar":4704,"aliban":4705,"ield":4706,"Ġsitwasyon":4707,"Ġmahigpit":4708,"ababa":4709,"Ġnob":4710,"uris":4711,"ĠTransportation":4712,"Ġpalag":4713,"Ġcampaign":4714,"Ġkasunduan":4715,"Ġabout":4716,"Ġnumber":4717,"ĠBaut":4718,"fter":4719,"ĠPhil":4720,"Ġpabor":4721,"uwensiya":4722,"Ġhimp":4723,"ĠTha":4724,"ĠVictor":4725,"Ġbang":4726,"Ġisinagawa":4727,"ĠTaguig":4728,"ĠUr":4729,"Ġdumalo":4730,"Ġpapunta":4731,"rile":4732,"gawang":4733,"ape":4734,"ikip":4735,"Ġbinigyan":4736,"Ġgumag":4737,"ĠCarlos":4738,"iona":4739,"Ġhiwalay":4740,"ĠDamaso":4741,"gap":4742,"Ġgast":4743,"Ġobispo":4744,"ĠIloilo":4745,"Ġkita":4746,"ĠBag":4747,"Ġpinagh":4748,"Ġnangyayari":4749,"ja":4750,"Ġmabuti":4751,"Ġitaas":4752,"ĠBautista":4753,"Ġ2012":4754,"ikanong":4755,"sam":4756,"osyon":4757,"ĠWar":4758,"Ġisas":4759,"Ġpamunuan":4760,"ival":4761,"Ġcandid":4762,"aryong":4763,"Ġkilos":4764,"Ġnasugatan":4765,"Ġkondisyon":4766,"iol":4767,"Ġpagsusuri":4768,"Ġbalita":4769,"OC":4770,"Ġpeace":4771,"Ġhost":4772,"Ġmanunulat":4773,"Ġresolusyon":4774,"ayapaan":4775,"ĠNPA":4776,"Ġsari":4777,"obernador":4778,"Ġcle":4779,"Ġofficials":4780,"Ġhinihinalang":4781,"Ġdantaon":4782,"Ġkasalanan":4783,"ĠArmed":4784,"Ġstand":4785,"Ġstud":4786,"ĠEast":4787,"Ġsintomas":4788,"asco":4789,"urch":4790,"ĠEnrile":4791,"ĠTurk":4792,"Ġpagpup":4793,"Ġpaa":4794,"ĠMark":4795,"Ġhalaman":4796,"irek":4797,"eason":4798,"emento":4799,"hasa":4800,"onz":4801,"Ġkapanah":4802,"Ġkalayaan":4803,"Ġcheck":4804,"Ġpangs":4805,"oko":4806,"Ġutak":4807,"ĠAlvarez":4808,"anyang":4809,"ĠMarch":4810,"Ġtagas":4811,"Ġseguridad":4812,"olohiyang":4813,"Ġ2006":4814,"ĠEducation":4815,"ĠWikang":4816,"ĠJim":4817,"Ġkaramdaman":4818,"80":4819,"Ġinteres":4820,"Ġmekan":4821,"Ġ45":4822,"Ġhy":4823,"Dagdag":4824,"Ġsen":4825,"ĠSulu":4826,"ontrol":4827,"Ġhumingi":4828,"Ġasp":4829,"mo":4830,"ĠRich":4831,"astern":4832,"Ġkim":4833,"Ġtotoo":4834,"Ġtalaan":4835,"Sum":4836,"ĠSea":4837,"Ġmatery":4838,"Ġkid":4839,"Ġkill":4840,"tober":4841,"anasan":4842,"ĠMRT":4843,"ederal":4844,"rato":4845,"ting":4846,"ĠDela":4847,"alsik":4848,"ĠWill":4849,"abilit":4850,"ĠMab":4851,"Ġref":4852,"ĠManuel":4853,"Ġspecial":4854,"ĠKing":4855,"Ġpinaniniwalaang":4856,"alu":4857,"aining":4858,"play":4859,"ĠJer":4860,"Ġkriminal":4861,"ĠIkalawang":4862,"ĠBenigno":4863,"Nagk":4864,"Ġtemp":4865,"Ġtarget":4866,"nais":4867,"Ġdisease":4868,"acio":4869,"Ġlalak":4870,"Ġ...":4871,"Ġgumagawa":4872,"Ġpagmam":4873,"ĠCotabato":4874,"ĠRoad":4875,"Ġwhen":4876,"ĠCrim":4877,"Sinas":4878,"Ġitina":4879,"Ġsiyent":4880,"Ġrem":4881,"ĠIto":4882,"Ġtext":4883,"Ġlag":4884,"Ġ80":4885,"ulangan":4886,"Ġisinagawang":4887,"igur":4888,"Ġlabor":4889,"Ġdistrito":4890,"ES":4891,"ĠPambansang":4892,"uela":4893,"Ġtop":4894,"iber":4895,"ĠEbanghelyo":4896,"Ġligtas":4897,"ugtong":4898,"ience":4899,"ugg":4900,"Ġnakar":4901,"Ġiisang":4902,"Ġdati":4903,"ugal":4904,"ĠHerusalem":4905,"Ġsex":4906,"RB":4907,"uklas":4908,"igence":4909,"Ġlike":4910,"ija":4911,"witter":4912,"Ġelektr":4913,"Ġkabuuan":4914,"be":4915,"ingis":4916,"Mak":4917,"atake":4918,"Ġlevel":4919,"Ġmagsagawa":4920,"Ġregular":4921,"ected":4922,"Ġkm":4923,"Ġlalong":4924,"Base":4925,"Ġmito":4926,"ĠImperyong":4927,"ugnayang":4928,"Ġ70":4929,"Ġkatagang":4930,"ikap":4931,"ĠOctober":4932,"not":4933,"ĠMagu":4934,"etnam":4935,"men":4936,"Ġpolitical":4937,"alanan":4938,"ipl":4939,"forcement":4940,"Ġ33":4941,"Ġdokumento":4942,"Ġnon":4943,"AP":4944,"wiran":4945,"Ġmalawakang":4946,"Ġmetro":4947,"29":4948,"21":4949,"abaan":4950,"orma":4951,"Ġpinay":4952,"Ġthese":4953,"Ġdamit":4954,"ĠLeon":4955,"unications":4956,"Ġbuy":4957,"amahan":4958,"Ġsis":4959,"Ġsakaling":4960,"pag":4961,"Ġnakilala":4962,"apital":4963,"CBN":4964,"ĠBritanya":4965,"Ġiginiit":4966,"Ġtwo":4967,"ĠBong":4968,"Ġserye":4969,"Ġnagmum":4970,"gas":4971,"Ġtruck":4972,"ĠMartin":4973,"ĠPeter":4974,"Ġ2005":4975,"ĠCorp":4976,"ĠIndonesia":4977,"Ġnaa":4978,"Ġpatakaran":4979,"Ġmaik":4980,"ĠGer":4981,"ext":4982,"Ġerop":4983,"Ġdibdib":4984,"Nakat":4985,"iso":4986,"uta":4987,"onia":4988,"Ġgeneral":4989,"Ġkauna":4990,"ĠHen":4991,"ĠWh":4992,"cha":4993,"Ġtren":4994,"Ġlabi":4995,"Ġkatay":4996,"PS":4997,"ĠUnion":4998,"inc":4999,"wan":5000,"Ġple":5001,"illo":5002,"uyo":5003,"angan":5004,"Ġjeep":5005,"ahad":5006,"ots":5007,"ĠCastro":5008,"Ġugat":5009,"resto":5010,"Ġmain":5011,"TI":5012,"Ġgagamit":5013,"Ġgene":5014,"Ġnaitala":5015,"omar":5016,"ved":5017,"Ġpagsasal":5018,"ards":5019,"imo":5020,"This":5021,"ĠAgr":5022,"top":5023,"ĠBudd":5024,"ĠSupreme":5025,"round":5026,"atawan":5027,"rong":5028,"Ġyour":5029,"Ġtrap":5030,"ni":5031,"Ġblo":5032,"Ġsiyudad":5033,"ĠCorporation":5034,"Mayroong":5035,"ĠJesus":5036,"Ġtaas":5037,"ĠDFA":5038,"Ġkarag":5039,"Ġbumaba":5040,"Ġkult":5041,"Binig":5042,"Ġdaang":5043,"ulture":5044,"ĠSpecial":5045,"Bas":5046,"Ġyugto":5047,"PC":5048,"Ġ36":5049,"ĠYork":5050,"Ġrelasyon":5051,"avel":5052,"ĠMeralco":5053,"Ġkakayahang":5054,"27":5055,"Ġpun":5056,"Ġpir":5057,"ways":5058,"ĠGordon":5059,"ĠAugust":5060,"ĠLey":5061,"ĠGonz":5062,"ized":5063,"Ġhugis":5064,"Ġmens":5065,"Ġkinilala":5066,"yun":5067,"ĠRusya":5068,"Ab":5069,"ĠSenior":5070,"ĠLumang":5071,"Ġitinak":5072,"ĠCollege":5073,"Ġcall":5074,"Ġpork":5075,"cident":5076,"Ġtem":5077,"less":5078,"Ġdiwa":5079,"ĠHIV":5080,"Ġ<":5081,"SW":5082,"Ġnaninirahan":5083,"latera":5084,"Ġbet":5085,"Ġpagpasok":5086,"ĠMand":5087,"Ġ2014":5088,"Ġkomite":5089,"Ġ(@":5090,"dinand":5091,"uportahan":5092,"ĠHel":5093,"ĠHuk":5094,"Ġtuluyang":5095,"down":5096,"ĠCanada":5097,"Ġanong":5098,"iter":5099,"Ġpagsabog":5100,"ĠAdministration":5101,"unahang":5102,"ession":5103,"Ġpagbib":5104,"ipal":5105,"insang":5106,"reak":5107,"RC":5108,"Ġ37":5109,"arami":5110,"Ġtanong":5111,"akyat":5112,"Ġnetwork":5113,"Ġmagkakaroon":5114,"Ġpinagk":5115,"Ġpaksa":5116,"ĠMak":5117,"Ġnagaganap":5118,"Ġemb":5119,"Ġcitiz":5120,"ĠLap":5121,"uque":5122,"ĠFerdinand":5123,"Ġhand":5124,"ĠJul":5125,"Ġipinagb":5126,"awalang":5127,"nakaw":5128,"br":5129,"ury":5130,"ĠHeneral":5131,"anyag":5132,"ĠMis":5133,"Ġusapin":5134,"ĠBgy":5135,"Ġmangyari":5136,"apekto":5137,"ĠPala":5138,"unita":5139,"Sabi":5140,"inanggi":5141,"Ġliteral":5142,"Ġund":5143,"yarihang":5144,"Ġpagkas":5145,"Ġtagapagsalita":5146,"Ġworker":5147,"ĠAirport":5148,"Ġexecutive":5149,"Ġstor":5150,"Ġdayuhan":5151,"usulong":5152,"Ġtinutukoy":5153,"Ġkanon":5154,"Ġaking":5155,"ĠSuper":5156,"Ġmemb":5157,"Ġpoint":5158,"Ġkakulangan":5159,"Ġnatatanging":5160,"Karamihan":5161,"ĠMaguindanao":5162,"ergency":5163,"ĠChairman":5164,"ĠTaiwan":5165,"Ġkatutubong":5166,"ĠKung":5167,"Ġpagpapatupad":5168,"ĠEcija":5169,"Ġkasangk":5170,"gor":5171,"Ġconf":5172,"ĠRonal":5173,"Ġmahabang":5174,"ammad":5175,"engue":5176,"alaya":5177,"by":5178,"Ġposit":5179,"Ġdoktor":5180,"FRJ":5181,"Ġdamdamin":5182,"Ġebolusyon":5183,"Ġmaiwasan":5184,"iti":5185,"ĠOrtodok":5186,"ehiyo":5187,"Ġkamag":5188,"Ġeksper":5189,"ĠCr":5190,"Ġsupport":5191,"Ġalyas":5192,"Ġpaghih":5193,"Ġright":5194,"ikl":5195,"Ġmagkas":5196,"elligence":5197,"ĠInsp":5198,"Ġshow":5199,"ĠIsa":5200,"Ġmakik":5201,"Ġstatement":5202,"Ġelemento":5203,"Ġcl":5204,"ON":5205,"Ġliwanag":5206,"Ġlaman":5207,"Ġdatos":5208,"Ġnakikita":5209,"Ġord":5210,"Inihayag":5211,"onar":5212,"Ġnagpapah":5213,"Ġpray":5214,"ĠBank":5215,"uet":5216,"33":5217,"He":5218,"Ġleader":5219,"usyong":5220,"ony":5221,"ls":5222,"ĠSe":5223,"Ġtungo":5224,"Ġmagtat":5225,"ĠNin":5226,"Ġoffice":5227,"Ġpilosopiya":5228,"uka":5229,"abilis":5230,"Ġinsp":5231,"26":5232,"Ġmoney":5233,"Ġ90":5234,"Ġdeath":5235,"Ġnakaka":5236,"isyu":5237,"Ġelement":5238,"WA":5239,"Ġwater":5240,"ĠKanlurang":5241,"lobal":5242,"asalukuyang":5243,"Ġisda":5244,"Ġtakot":5245,"Ġproduktong":5246,"Ġkalaunang":5247,"Ġprocess":5248,"Ġmun":5249,"Nana":5250,"rik":5251,"ehan":5252,"Ġinternational":5253,"Ġumu":5254,"ĠCustoms":5255,"Ġkarapatang":5256,"ĠElections":5257,"Ġsentro":5258,"abol":5259,"egong":5260,"atibong":5261,"Ġcity":5262,"Ġbaboy":5263,"ien":5264,"ĠTolentino":5265,"bass":5266,"ĠAssist":5267,"Ġ39":5268,"Ġset":5269,"inda":5270,"ĠOrgan":5271,"Ġ2001":5272,"bound":5273,"Ġnilalang":5274,"elfare":5275,"Ġsuliran":5276,"Ġanya":5277,"isipan":5278,"ensa":5279,"Ġmaagang":5280,"vol":5281,"alakad":5282,"Ġlong":5283,"ĠLeyte":5284,"nit":5285,"entro":5286,"Ġscam":5287,"ĠRamon":5288,"ibagong":5289,"Ġugnayang":5290,"Ġbel":5291,"ĠVel":5292,"arlac":5293,"Ġhalagang":5294,"ram":5295,"Ġdisplay":5296,"osp":5297,"ketball":5298,"ĠGi":5299,"Ġpangkas":5300,"28":5301,"ĠLand":5302,"apo":5303,"ĠLo":5304,"ĠPaul":5305,"Ġcap":5306,"Ġkinakailangan":5307,"abalik":5308,"ĠPagk":5309,"ivate":5310,"ĠDavid":5311,"Ġhanda":5312,"ĠNe":5313,"utupad":5314,"Ġkumb":5315,"ĠMang":5316,"mat":5317,"Ġalang":5318,"erya":5319,"inia":5320,"reh":5321,"Ġtour":5322,"ĠSub":5323,"ird":5324,"ĠGil":5325,"Inil":5326,"acy":5327,"Nagt":5328,"Ġnanalo":5329,"Ġhumih":5330,"Ġeven":5331,"Ġpansin":5332,"ĠGawa":5333,"ender":5334,"Ġpuwersa":5335,"adaan":5336,"ĠCali":5337,"Ġtala":5338,"Ġrun":5339,"ĠUnyong":5340,"Ġmeet":5341,"Ġlip":5342,"ĠTim":5343,"ĠStreet":5344,"ĠWork":5345,"agot":5346,"Ġpetisyon":5347,"Ch":5348,"Ġmabigyan":5349,"As":5350,"ĠDar":5351,"ilyo":5352,"Ġnakatakdang":5353,"ĠProvincial":5354,"ĠEastern":5355,"ĠGeor":5356,"Ġdon":5357,"Ġmasas":5358,"iyahe":5359,"Ġsilangang":5360,"ĠSu":5361,"Ġpropes":5362,"ĠBagu":5363,"odo":5364,"Ġnasasak":5365,"icle":5366,"umpati":5367,"Ġbakterya":5368,"Ġnakikipag":5369,"olina":5370,"ĠPet":5371,"igtasan":5372,"ĠUm":5373,"Ġpakikipagtalik":5374,"Ġtemper":5375,"ebenta":5376,"ient":5377,"Ġinal":5378,"Ġcre":5379,"trabaho":5380,"ilinan":5381,"ĠMel":5382,"Ġadv":5383,"Ġpagdiriwang":5384,"Ġsumuko":5385,"Ġpamamahala":5386,"Ġkontrata":5387,"wel":5388,"Ġmik":5389,"ĠUnd":5390,"Ġapoy":5391,"Ġporsyento":5392,"irre":5393,"azar":5394,"bigay":5395,"Ġeff":5396,"isin":5397,"ĠEng":5398,"Ġartista":5399,"ĠIsang":5400,"udulot":5401,"Ġsuper":5402,"sy":5403,"Ġlansang":5404,"ingo":5405,"Ġutos":5406,"Ġpulong":5407,"Ġgayon":5408,"aguyod":5409,"ĠSr":5410,"Ġbenep":5411,"Unang":5412,"Ġtanggap":5413,"Nar":5414,"amdam":5415,"anc":5416,"Ġmail":5417,"Ġdisk":5418,"Ġmanag":5419,"Ġnum":5420,"uturing":5421,"Ġdah":5422,"ĠTondo":5423,"ukin":5424,"Ġteksto":5425,"Ġatom":5426,"Ġadd":5427,"stitute":5428,"alawan":5429,"Ġkalaban":5430,"Ġsaka":5431,"hy":5432,"ĠDay":5433,"amdaman":5434,"EC":5435,"ipagk":5436,"Kasabay":5437,"iyansa":5438,"Ġviol":5439,"ukot":5440,"Ġadministration":5441,"ibing":5442,"Ġoposisyon":5443,"Ġhearing":5444,"Ġskolar":5445,"Ġalagad":5446,"Kahit":5447,"Ġmakuha":5448,"Ġkaharian":5449,"ĠMuh":5450,"Ġnangangailangan":5451,"atlo":5452,"ĠTarlac":5453,"70":5454,"umbayan":5455,"Ap":5456,"Ġsaf":5457,"uwest":5458,"Ġginanap":5459,"Ġoperat":5460,"Ġnakasaad":5461,"ants":5462,"Ġunlad":5463,"23":5464,"ĠSecurity":5465,"ĠSereno":5466,"Ġsecond":5467,"Com":5468,"Ġpek":5469,"inado":5470,"Ġspecies":5471,"ĠLas":5472,"?\"":5473,"Ġthink":5474,"kang":5475,"ĠHeb":5476,"Ġ34":5477,"Ġnakikilala":5478,"akal":5479,"igat":5480,"ĠRepresent":5481,"Ġmid":5482,"Ġmart":5483,"ĠCommissioner":5484,"Ġsta":5485,"ĠIlog":5486,"Ġsumas":5487,"Ġindustriya":5488,"ĠBuddha":5489,"imum":5490,"ĠGriyegong":5491,"Ġpangkaraniwang":5492,"Ġnangung":5493,"ailalim":5494,"ikit":5495,"Ġmalamang":5496,"Ġtiti":5497,"ĠLeg":5498,"imugang":5499,"Ġallow":5500,"Ġnagw":5501,"Ġeroplano":5502,"arines":5503,"Ġsinumang":5504,"iguro":5505,"Ġrest":5506,"irc":5507,"ILF":5508,"ted":5509,"wil":5510,"alitang":5511,"ĠGrace":5512,"asalamat":5513,"Ġkong":5514,"Ġmagkaka":5515,"Ġmaib":5516,"iskubre":5517,"ĠDefense":5518,"ĠAlf":5519,"ĠLocal":5520,"Ġkahabaan":5521,"serb":5522,"igyang":5523,"Ġbinata":5524,"Ġkapanahunan":5525,"Ġcontin":5526,"ĠEsk":5527,"Ġputbol":5528,"ĠRichard":5529,"Ġlumikha":5530,"ĠRobert":5531,"amily":5532,"Nas":5533,"Ġbumagsak":5534,"ĠAlbayalde":5535,"GO":5536,"Ġnagsasagawa":5537,"Ik":5538,"abal":5539,"ument":5540,"ustin":5541,"Ġpaligid":5542,"ane":5543,"aslang":5544,"Ġespesye":5545,"usapan":5546,"Ġnagkakahalaga":5547,"Ġsektor":5548,"egasyon":5549,"Ġkalam":5550,"Ġgin":5551,"Ġpanibagong":5552,"Ġpaglikha":5553,"ĠTask":5554,"ugali":5555,"landa":5556,"Ġmapap":5557,"led":5558,"asawa":5559,"Ġpala":5560,"Ġisinasagawa":5561,"ĠHudaismo":5562,"Ġisla":5563,"Ilan":5564,"Ġonline":5565,"ĠKuwa":5566,"ĠIna":5567,"ĠRevilla":5568,"agaling":5569,"ĠLop":5570,"ĠLin":5571,"tol":5572,"ĠOp":5573,"Ġbuto":5574,"Ilang":5575,"ilyong":5576,"Ġdulo":5577,"ukulang":5578,"fore":5579,"Ġakin":5580,"INA":5581,"unyag":5582,"Ġkani":5583,"reement":5584,"Ġprov":5585,"amon":5586,"GU":5587,"Ġhumantong":5588,"Ġinaasahan":5589,"ĠIrlanda":5590,"Ġtapos":5591,"ebel":5592,"ĠEb":5593,"struction":5594,"Ġmatagumpay":5595,"ĠCons":5596,"ĠAsian":5597,"ĠSingap":5598,"ingisda":5599,"Ipinal":5600,"Ġsu":5601,"uba":5602,"ohol":5603,"Ġfore":5604,"Ġposibilidad":5605,"usp":5606,"akop":5607,"Ġlumilitaw":5608,"imik":5609,"ĠQC":5610,"ĠNog":5611,"75":5612,"yuter":5613,"ĠCamarines":5614,"Ġginagawang":5615,"Ġseason":5616,"Ġnaaresto":5617,"Ġmatiyak":5618,"Ġmabuting":5619,"ources":5620,"ster":5621,"Ġbiglang":5622,"Ġstaff":5623,"35":5624,"Ġsaring":5625,"Ġbalik":5626,"ists":5627,"Ġkapak":5628,"100":5629,"Ġcoach":5630,"Ġinat":5631,"Ġpamilyang":5632,"Ġpamilihan":5633,"igration":5634,"Ġkapar":5635,"Ġyears":5636,"Ġorganisasyon":5637,"Ġbinat":5638,"Nilinaw":5639,"arka":5640,"ĠAfr":5641,"pekt":5642,"Ġbunt":5643,"viron":5644,"ĠRecto":5645,"ĠAndal":5646,"ĠUN":5647,"gram":5648,"Ġradio":5649,"BC":5650,"Ġok":5651,"ĠTok":5652,"antad":5653,"indigan":5654,"ĠGames":5655,"Ġafter":5656,"ucle":5657,"ikot":5658,"ĠAngara":5659,"ĠEmperador":5660,"Ġaniyang":5661,"Ġnating":5662,"stitut":5663,"uni":5664,"Ġbint":5665,"Ġninuno":5666,"ply":5667,"uez":5668,"ĠManny":5669,"Ġahensya":5670,"Ġkatangiang":5671,"Ġnabubuhay":5672,"Ġbiktimang":5673,"intulot":5674,"Ġnakatira":5675,"of":5676,"rales":5677,"Ġmunisip":5678,"ĠPinay":5679,"Ġkabahayan":5680,"Ġdoc":5681,"Matatandaang":5682,"ĠMe":5683,"vironment":5684,"ĠAnak":5685,"angkutan":5686,"araniwan":5687,"Ġkumuha":5688,"isi":5689,"Ġgalit":5690,"ĠLopez":5691,"awas":5692,"Ġtitik":5693,"ĠNapoles":5694,"Ġbi":5695,"imbang":5696,"obyet":5697,"TFRB":5698,"Ġkumak":5699,"ĠPilipinong":5700,"acion":5701,"Ġelectr":5702,"EAN":5703,"dal":5704,"Ġkaragatan":5705,"BP":5706,"bust":5707,"Ġprinsip":5708,"Ġimplement":5709,"ĠEv":5710,"Ġmatematika":5711,"ĠaEUR":5712,"ĠDeputy":5713,"Ġwin":5714,"ĠGres":5715,"Ġforeign":5716,"ĠSingapore":5717,"Ġnakipag":5718,"cio":5719,"ĠDILG":5720,"Ġbeing":5721,"Ġnakatanggap":5722,"Ġhistor":5723,"Ġrights":5724,"Ġnakad":5725,"aksyon":5726,"Ġmangang":5727,"Ġpagsasanay":5728,"Ġmur":5729,"iyasat":5730,"Ġexc":5731,"ranch":5732,"Ġ300":5733,"ĠAraw":5734,"ipit":5735,"Ġmess":5736,"Ġaksidente":5737,"ersec":5738,"tle":5739,"agatang":5740,"Ġpalay":5741,"ĠNegros":5742,"icial":5743,"Pag":5744,"Ġkesa":5745,"araming":5746,"onel":5747,"anim":5748,"Ġpamumuhay":5749,"Co":5750,"Ginagamit":5751,"Ġtip":5752,"osible":5753,"anar":5754,"Ġaktibidad":5755,"ĠSobyet":5756,"Ġmapat":5757,"Ġbarrel":5758,"Ġpandaigdigang":5759,"Ġtumakas":5760,"Ġkaligtasan":5761,"Ġsobrang":5762,"Ġaff":5763,"Ġown":5764,"Ġpagtanggap":5765,"Ġmanana":5766,"ahiwalay":5767,"Ġprogramang":5768,"ĠKonseho":5769,"ayaring":5770,"iding":5771,"Ġplast":5772,"Ġipinaga":5773,"ĠSil":5774,"ars":5775,"Ġutang":5776,"Ġkasamahan":5777,"Ġkoponan":5778,"ĠNograles":5779,"Ġkahal":5780,"ĠCalifor":5781,"ĠVenez":5782,"istrado":5783,"Ġrelihiyos":5784,"Ġtinanggap":5785,"ĠMuhammad":5786,"ĠGresya":5787,"Ġpot":5788,"Ġca":5789,"ilidad":5790,"Ġthan":5791,"Ġginto":5792,"Ġist":5793,"Ġcash":5794,"Ġminuto":5795,"cidental":5796,"Ġ44":5797,"ences":5798,"Ġpanun":5799,"ĠTsino":5800,"Ġnegosyante":5801,"ĠKalak":5802,"Ġkapaligiran":5803,"Ġpolic":5804,"Ġpinsala":5805,"Ġipinaganak":5806,"ĠCalifornia":5807,"Ġdala":5808,"Ġipinalabas":5809,"Ġjo":5810,"Ġimperyo":5811,"Ġgiit":5812,"Ġkinuha":5813,"resulta":5814,"Ġamo":5815,"AC":5816,"Ġgayong":5817,"Ġtug":5818,"ĠSulat":5819,"Ġakong":5820,"ĠCris":5821,"ungang":5822,"uwang":5823,"ĠLeni":5824,"Ġtatak":5825,"ky":5826,"ĠArch":5827,"Ġtugon":5828,"pol":5829,"ĠApril":5830,"Ġthose":5831,"ĠInf":5832,"Ġpinatay":5833,"Ġlalake":5834,"ĠMMDA":5835,"Ġinak":5836,"Ġteoriyang":5837,"Ġinvestigation":5838,"alk":5839,"Ġinang":5840,"Ġgilid":5841,"lyo":5842,"iel":5843,"awat":5844,"Ġalak":5845,"Ġsama":5846,"Ġspokesman":5847,"Ġdengue":5848,"ĠInterior":5849,"ho":5850,"Ġnawawala":5851,"inl":5852,"ille":5853,"usot":5854,"Ġtumulong":5855,"igao":5856,"utong":5857,"ologo":5858,"Ġsecretary":5859,"ĠThailand":5860,"Ġpansamantalang":5861,"PP":5862,"GASA":5863,"Ġkawan":5864,"oli":5865,"Ġbest":5866,"sing":5867,"hiyang":5868,"pin":5869,"Ġmensahe":5870,"Ġjustice":5871,"Ġdam":5872,"ipas":5873,"ĠBK":5874,"Ġpaghahanda":5875,"Ġpanloob":5876,"Dum":5877,"icide":5878,"ĠFre":5879,"Ġkatiw":5880,"Ġmagsis":5881,"Ġbanal":5882,"Ġnapat":5883,"Ġkasing":5884,"ĠRamos":5885,"ired":5886,"orya":5887,"Ġbigla":5888,"ĠPamant":5889,"AFP":5890,"igaw":5891,"Ġulan":5892,"ĠPe":5893,"Ġmapang":5894,"ĠMaute":5895,"Ġrating":5896,"Ġkaranasan":5897,"erte":5898,"ĠValley":5899,"Ġdiper":5900,"Ġvice":5901,"Ġdepend":5902,"ipe":5903,"Ġtumanggap":5904,"Ġninyo":5905,"ĠJun":5906,"noy":5907,"Ni":5908,"ĠProgram":5909,"emonte":5910,"Ġmaling":5911,"ekswal":5912,"ĠArabia":5913,"Ġseryeng":5914,"Ġpananampalataya":5915,"ungkulan":5916,"Ġitim":5917,"Ġpanlabas":5918,"ungin":5919,"Ġlansangan":5920,"umano":5921,"ĠBanal":5922,"Ġra":5923,"ĠPinas":5924,"Ġshe":5925,"ipikasyon":5926,"icycle":5927,"ruption":5928,"ayad":5929,"Ġtanyag":5930,"ĠDonya":5931,"ilding":5932,"okrat":5933,"yin":5934,"iting":5935,"Ġmarket":5936,"idelberg":5937,"edia":5938,"Ġintegr":5939,"Ġpad":5940,"ility":5941,"ordinat":5942,"amitan":5943,"utol":5944,"ĠLeader":5945,"Ġopisina":5946,"Ġsaid":5947,"alawig":5948,"ĠRoc":5949,"Ġthen":5950,"arya":5951,"abon":5952,"imbag":5953,"ĠService":5954,"Ġbaybayin":5955,"Ġtangk":5956,"igl":5957,"Ġtradisyon":5958,"Ġdest":5959,"ĠMir":5960,"ĠBrit":5961,"ĠAv":5962,"ĠRad":5963,"tok":5964,"Ġmari":5965,"Ġminsang":5966,"ĠAmerikanong":5967,"erasyon":5968,"ĠPalawan":5969,"Ġsos":5970,"ĠOccidental":5971,"Ġgagamitin":5972,"Ġ2003":5973,"panyol":5974,"Ġnagsagawa":5975,"Ġmanat":5976,"Ġbusiness":5977,"DP":5978,"Ġmatut":5979,"ĠAustralia":5980,"ĠLP":5981,"Ġspokesperson":5982,"ĠEurope":5983,"\",":5984,"38":5985,"isc":5986,"ĠInstitute":5987,"ĠBol":5988,"Ġdevel":5989,"rec":5990,"Ġterror":5991,"Ġabs":5992,"Ġmainit":5993,"Ġrelat":5994,"Ġisinamp":5995,"uary":5996,"Ġworld":5997,"ĠHol":5998,"ĠIran":5999,"Ġfood":6000,"ource":6001,"angkop":6002,"Ġtumakbo":6003,"ĠAngeles":6004,"alok":6005,"ĠBicol":6006,"ĠDan":6007,"Ġbinanggit":6008,"asailalim":6009,"Ġapl":6010,"ĠBarb":6011,"ĠAnn":6012,"Ġ1990":6013,"ĠVietnam":6014,"Ġaral":6015,"enida":6016,"Ġbir":6017,"ĠPangilinan":6018,"ĠEdu":6019,"Ġlet":6020,"ungkol":6021,"overnor":6022,"ĠTomas":6023,"abasa":6024,"Ġspe":6025,"Ġmateryal":6026,"Ġdead":6027,"Ġtaumbayan":6028,"Ġkumulang":6029,"Ġdipl":6030,"Ġkatiwalian":6031,"ĠSar":6032,"sel":6033,"esh":6034,"ĠImperyo":6035,"Ġideya":6036,"ĠSw":6037,"Ġarke":6038,"ĠBaguio":6039,"ĠExp":6040,"ĠAno":6041,"ersecretary":6042,"ĠYou":6043,"Ġpantao":6044,"ĠDak":6045,"Ġgobernador":6046,"ĠCer":6047,"ertific":6048,"Ġnatanggap":6049,"Ġbahaging":6050,"ĠVen":6051,"antayan":6052,"Ġnatuklasan":6053,"anti":6054,"ĠRepublikang":6055,"BB":6056,"Ġkinasas":6057,"agdaan":6058,"Ġkababayan":6059,"Ġmagkat":6060,"Ġmake":6061,"Ġdalub":6062,"Ġweb":6063,"ĠWilliam":6064,"Ġanang":6065,"uruan":6066,"Ġkayang":6067,"Ġbiyahe":6068,"90":6069,"anueva":6070,"ĠBus":6071,"Ġmasamang":6072,"ending":6073,"Ġkanlurang":6074,"Ġnakakuha":6075,"ugin":6076,"Ġtinag":6077,"Ġstation":6078,"Ġpagkaraan":6079,"Ġdirektang":6080,"Ġnakakat":6081,"Ġdisipl":6082,"Ġkulang":6083,"ĠBil":6084,"enzuela":6085,"Ġpinagb":6086,"Ġmano":6087,"Ġkura":6088,"Ġkrisis":6089,"igi":6090,"ĠBalita":6091,"ĠWala":6092,"ariang":6093,"osta":6094,"Ġinformation":6095,"Ġnagsasaad":6096,"ĠPark":6097,"ĠDiego":6098,"Ġmonth":6099,"ĠKuwait":6100,"Ġbawal":6101,"antes":6102,"Ġequ":6103,"akasal":6104,"Ġinstr":6105,"Ġmasel":6106,"inta":6107,"lag":6108,"itis":6109,"oob":6110,"Ġanal":6111,"ikulo":6112,"Ġdiumano":6113,"Ġmananal":6114,"Ġnagpa":6115,"Ġbangko":6116,"Ġboard":6117,"ĠAgency":6118,"Tiniyak":6119,"Ġnew":6120,"awig":6121,"oridad":6122,"obo":6123,"Ġvot":6124,"Ġplanong":6125,"Ġkumalat":6126,"Ġemergency":6127,"Ġleg":6128,"Ġunibersidad":6129,"ĠCapital":6130,"Ġgame":6131,"ĠRonald":6132,"Ġprof":6133,"Ġcare":6134,"ĠVillanueva":6135,"Ġsil":6136,"Ġconference":6137,"Ġtind":6138,"Ġmakapang":6139,"Ġnagtatrabaho":6140,"Ġvis":6141,"Ġtraffic":6142,"iod":6143,"Ġhere":6144,"Ġasawang":6145,"ĠPul":6146,"ĠDahil":6147,"ĠRol":6148,"iemonte":6149,"ĠCode":6150,"ollow":6151,"Ġnetiz":6152,"Pang":6153,"ysical":6154,"Ġitinal":6155,"ĠMemor":6156,"Ġpapasok":6157,"Ġ2002":6158,"ĠMendo":6159,"omp":6160,"Ġkinikilala":6161,"Ġmasus":6162,"Ġbody":6163,"Ġstill":6164,"uhit":6165,"ĠEspanyol":6166,"Nah":6167,"style":6168,"ĠMr":6169,"Ġpagsasagawa":6170,"akatawan":6171,"ĠNinoy":6172,"lon":6173,"Ġlast":6174,"'m":6175,"bahay":6176,"Ġprim":6177,"Ġiniulat":6178,"Ġapektado":6179,"Ġ120":6180,"agna":6181,"ipot":6182,"enya":6183,"ĠPDEA":6184,"Ġpersonnel":6185,"ĠMeh":6186,"Ġsalapi":6187,"ĠKalakhang":6188,"ahas":6189,"Ġparte":6190,"gen":6191,"Ġcer":6192,"epto":6193,"ĠCIT":6194,"Ġnararapat":6195,"Ġrepresent":6196,"ally":6197,"tatalik":6198,"ĠAmerican":6199,"Ġnilikha":6200,"Ġnagtatag":6201,"Ġpuwedeng":6202,"Ġnawalan":6203,"ibot":6204,"Ġnail":6205,"ĠAna":6206,"omm":6207,"Ġhiniling":6208,"WH":6209,"amig":6210,"ĠAy":6211,"atu":6212,"rek":6213,"ĠHeidelberg":6214,"ĠHarry":6215,"Ġmembers":6216,"Ġpus":6217,"Ġpetro":6218,"Ġsiyentipiko":6219,"pas":6220,"Nitong":6221,"Ġsenior":6222,"ĠSm":6223,"Ġpagpili":6224,"Ġnawala":6225,"Ġpinab":6226,"ĠMarc":6227,"Ġmurder":6228,"ues":6229,"islat":6230,"ĠHaring":6231,"ĠCamb":6232,"Ġtrapiko":6233,"apawid":6234,"Ġoverseas":6235,"ĠCC":6236,"ĠAlan":6237,"ipa":6238,"alakal":6239,"ĠTrump":6240,"ĠValenzuela":6241,"55":6242,"ze":6243,"ĠPo":6244,"ĠPS":6245,"ĠHa":6246,"agdagan":6247,"Ġbox":6248,"Inaas":6249,"ĠVir":6250,"Ġacc":6251,"Ġbol":6252,"Ġpinagt":6253,"ĠMary":6254,"Ġmasa":6255,"Ġpaglalakbay":6256,"TE":6257,"Ġens":6258,"Ġtalumpati":6259,"Ġlibingan":6260,"Paliwanag":6261,"anaque":6262,"Ġinaresto":6263,"Ġtrip":6264,"ensiyal":6265,"Ġcases":6266,"Ġnangg":6267,"Ġkatayuan":6268,"rough":6269,"Ġdumaan":6270,"bal":6271,"Dapat":6272,"oph":6273,"Ġplat":6274,"alagahan":6275,"Ġtagumpay":6276,"ĠAguirre":6277,"abor":6278,"Ġpagkap":6279,"gaw":6280,"Ġear":6281,"Ġpagbabalik":6282,"Ġconv":6283,"Ġmina":6284,"Marami":6285,"Ġsinal":6286,"dom":6287,"ki":6288,"Ġala":6289,"ĠNang":6290,"ĠJimenez":6291,"Ġunti":6292,"Ġval":6293,"Ġkopya":6294,"Ġrebelde":6295,"filo":6296,"Ġsw":6297,"Ġclass":6298,"Ġpinakamat":6299,"ĠSisa":6300,"Mah":6301,"Ġtricycle":6302,"Ġbunsod":6303,"ĠLalawigan":6304,"Ġiisip":6305,"Ġkaragdagan":6306,"Ġlumal":6307,"ages":6308,"Ġ48":6309,"Ġsenso":6310,"ibility":6311,"Ġipagp":6312,"Ġindepend":6313,"Ġsat":6314,"pr":6315,"Ġmeron":6316,"Ġsabay":6317,"ready":6318,"cer":6319,"ĠSurigao":6320,"Ġsikat":6321,"Ġhalamang":6322,"ĠMerc":6323,"inago":6324,"isya":6325,"Ġdid":6326,"lav":6327,"Ipinaliwanag":6328,"Ġmaganda":6329,"nitude":6330,"Ġpaglul":6331,"ĠEmploy":6332,"Ġanyong":6333,"Ġkompl":6334,"hing":6335,"Ġtunog":6336,"Ġnucle":6337,"ĠMendoza":6338,"Ġimpluwensiya":6339,"Ġmahusay":6340,"Ġband":6341,"ĠApost":6342,"ective":6343,"ĠRosario":6344,"Ġbisa":6345,"ensive":6346,"Ġpanawagan":6347,"Ġebanghelyo":6348,"quez":6349,"tm":6350,"Ġline":6351,"ĠLi":6352,"atchalian":6353,"ele":6354,"Ġpinah":6355,"Ġchamp":6356,"inoon":6357,"ikina":6358,"alakihan":6359,"Ġipat":6360,"ĠTeod":6361,"Ġmusika":6362,"abak":6363,"Ġipinah":6364,"Ġmatukoy":6365,"bayad":6366,"ĠKh":6367,"ĠCant":6368,"Ġtravel":6369,"ĠJack":6370,"Ġ500":6371,"inos":6372,"Ġtesting":6373,"Ġnagpak":6374,"ulatan":6375,"uya":6376,"Ġbinigyang":6377,"ĠFrank":6378,"olic":6379,"aysayang":6380,"ĠPant":6381,"iles":6382,"ĠStar":6383,"Ġmakakuha":6384,"analo":6385,"Ġtemperatura":6386,"Uma":6387,"ĠParanaque":6388,"Ġalb":6389,"ĠKapulungan":6390,"Ġsagot":6391,"Ġpund":6392,"tion":6393,"Ġhaba":6394,"Ġsampung":6395,"ĠNovember":6396,"ĠPNoy":6397,"umpiska":6398,"Ġrice":6399,"ares":6400,"awasan":6401,"olid":6402,"Ġprivate":6403,"ĠPasko":6404,"otse":6405,"Ġsalarin":6406,"umpa":6407,"Ġsuplay":6408,"itness":6409,"apela":6410,"ĠJanuary":6411,"etong":6412,"Ġsumasak":6413,"Ġipatupad":6414,"Ġdaantaon":6415,"Ġhotel":6416,"ugong":6417,"ague":6418,"Ġget":6419,"Ġbahag":6420,"angat":6421,"Ġgagawing":6422,"ĠSinaunang":6423,"Ġhospital":6424,"ĠWelfare":6425,"ĠFeb":6426,"Ġpalitan":6427,"Ġnangyaring":6428,"tt":6429,"omenda":6430,"Ġnamam":6431,"ĠHudas":6432,"Ġdisplaystyle":6433,"ĠLRT":6434,"Ġsugat":6435,"Agad":6436,"ĠOn":6437,"Ġkalaunan":6438,"raq":6439,"ĠItaly":6440,"alye":6441,"esyon":6442,"Ġitlog":6443,"Ġsumailalim":6444,"col":6445,"alon":6446,"Ġisipan":6447,"ĠEnforcement":6448,"Isina":6449,"Ġlebel":6450,"insunod":6451,"stitution":6452,"Ġevery":6453,"Ipinag":6454,"ĠHebreo":6455,"Ġmanga":6456,"isismo":6457,"Ġarest":6458,"Karaniwang":6459,"Ġalready":6460,"uriang":6461,"Ġwell":6462,"IC":6463,"ilanlan":6464,"Ġkrus":6465,"Ġtechn":6466,"riend":6467,"Ġroad":6468,"ĠPen":6469,"dy":6470,"Ġmolek":6471,"ĠGatchalian":6472,"Ġcomplaint":6473,"Ġduring":6474,"Ġpagbili":6475,"Ġeleksyon":6476,"ahanda":6477,"abuso":6478,"Ġul":6479,"Ġur":6480,"67":6481,"ĠSuw":6482,"Ġkapayapaan":6483,"Ġsome":6484,"Ġlumang":6485,"enef":6486,"ĠCITY":6487,"Ġyan":6488,"Ġpolitika":6489,"Ġdz":6490,"Ġmaituturing":6491,"ĠPanfilo":6492,"Ġcal":6493,"Ġnagsasal":6494,"Ġkonsepto":6495,"ĠGregor":6496,"loy":6497,"Ġkasamang":6498,"Ġprosecut":6499,"ĠBishop":6500,"ĠLt":6501,"ĠZe":6502,"amali":6503,"Ġchild":6504,"ĠNations":6505,"uksiyon":6506,"unicipal":6507,"Ġhapp":6508,"ĠVicente":6509,"ĠRafa":6510,"Ġkritiko":6511,"Ġhimpilan":6512,"ardy":6513,"Dito":6514,"Ġklaseng":6515,"uki":6516,"Ġform":6517,"Ġimpeksiyon":6518,"Ġsolusyon":6519,"Ġactiv":6520,"esong":6521,"ĠLoren":6522,"Pin":6523,"Ġtayong":6524,"uke":6525,"Ġestabl":6526,"ED":6527,"ĠBis":6528,"alos":6529,"ĠCard":6530,"ĠIraq":6531,"Ġlibreng":6532,"48":6533,"ott":6534,"iwaan":6535,"ĠNAIA":6536,"65":6537,"vent":6538,"ĠCorona":6539,"ĠSection":6540,"Ġmahahalagang":6541,"Ini":6542,"pio":6543,"ĠMax":6544,"ilaw":6545,"Ġpinakah":6546,"ĠRena":6547,"phone":6548,"acter":6549,"ĠErap":6550,"ĠNic":6551,"Ġmenor":6552,"song":6553,"yadong":6554,"Ġway":6555,"ĠAlej":6556,"Ġlal":6557,"ĠSO":6558,"Ġoil":6559,"ĠMong":6560,"Ġgustong":6561,"Isin":6562,"Ġbibig":6563,"Ġleh":6564,"uana":6565,"Ġmost":6566,"inet":6567,"ello":6568,"Ġvol":6569,"ĠOrder":6570,"isyonal":6571,"order":6572,"ĠEduardo":6573,"anayan":6574,"Ġitinut":6575,"amis":6576,"ĠRafael":6577,"Ġsingil":6578,"ĠMarikina":6579,"ultan":6580,"pot":6581,"ffer":6582,"Ġkinasuhan":6583,"Ġthree":6584,"ĠASEAN":6585,"atao":6586,"ĠPunong":6587,"Ġimin":6588,"Ġhelp":6589,"aari":6590,"buhay":6591,"ĠSM":6592,"Ġkaguluhan":6593,"Ġsangkap":6594,"ises":6595,"ersang":6596,"Ġship":6597,"back":6598,"ĠBir":6599,"Ġpaghahanap":6600,"Ġpolitiko":6601,"Ġposs":6602,"eklarang":6603,"Ġtake":6604,"HA":6605,"ats":6606,"ĠDuque":6607,"ĠStates":6608,"ĠLou":6609,"Ġguard":6610,"umer":6611,"kl":6612,"ĠIngg":6613,"ĠIsabela":6614,"Ġsuliranin":6615,"ĠTang":6616,"irer":6617,"Ġtropa":6618,"ĠLond":6619,"ĠPu":6620,"Ġcong":6621,"Ġsamahan":6622,"ĠMagd":6623,"Ġnakatuon":6624,"Ġbutas":6625,"Ġdomest":6626,"Ġkalahati":6627,"Ġbaha":6628,"Ġkahil":6629,"Ġtab":6630,"ulf":6631,"ĠBonif":6632,"Ġmaj":6633,"Ġmeeting":6634,"uho":6635,"Ġkarne":6636,"agip":6637,"ĠAlto":6638,"ified":6639,"Ġbrief":6640,"ĠSystem":6641,"cue":6642,"ulto":6643,"ĠFirst":6644,"Ġbakuna":6645,"Ġproduct":6646,"uong":6647,"sis":6648,"ĠMILF":6649,"ĠTrial":6650,"ĠCommunications":6651,"Ġemperador":6652,"ĠDepEd":6653,"ĠImm":6654,"Hum":6655,"amt":6656,"ĠMind":6657,"iving":6658,"ĠAgric":6659,"Ġhard":6660,"Ġparusa":6661,"ondena":6662,"ening":6663,"Ġexper":6664,"Ġelektron":6665,"Ġbumuo":6666,"Ġbundok":6667,"Ġnagrer":6668,"Ġpagkilala":6669,"yunal":6670,"Ġcur":6671,"ĠGa":6672,"ester":6673,"uts":6674,"ĠTab":6675,"inde":6676,"Ġlook":6677,"Ġbababa":6678,"ĠRussia":6679,"Ġpagbagsak":6680,"bihan":6681,"ĠHall":6682,"ĠLeila":6683,"arilyo":6684,"Ġisinampa":6685,"ĠUP":6686,"Ġcontract":6687,"unayang":6688,"Ġinterp":6689,"Ġmatanda":6690,"ĠKol":6691,"ĠDecember":6692,"ĠBonifacio":6693,"pi":6694,"Ġmut":6695,"Ġmalayang":6696,"ĠCup":6697,"Ġusapan":6698,"Ġmagbibigay":6699,"ĠBasilio":6700,"Ġgun":6701,"Ġjud":6702,"the":6703,"ĠHuman":6704,"Ġpinakamah":6705,"ĠPinag":6706,"Ġalp":6707,"ĠBin":6708,"Ġhumah":6709,"Ġhold":6710,"Ġpamagat":6711,"Ġsupply":6712,"alangkas":6713,"erous":6714,"Ġikaapat":6715,"Ġsandaling":6716,"ĠIslamic":6717,"daang":6718,"isag":6719,"Ġred":6720,"Ġtangh":6721,"Ġmust":6722,"rian":6723,"Ġpamayanan":6724,"ĠLat":6725,"Ġjob":6726,"Ġkawani":6727,"val":6728,"igla":6729,"agda":6730,"yonar":6731,"ĠPanahon":6732,"MP":6733,"ills":6734,"SWD":6735,"Ġkata":6736,"ann":6737,"Ġlingg":6738,"Ġlumalabas":6739,"Ġ1991":6740,"ruary":6741,"ĠSto":6742,"ampo":6743,"ĠPH":6744,"monte":6745,"ĠPagp":6746,"Ġfollow":6747,"athala":6748,"Ġpunto":6749,"Ġpamamaril":6750,"Ġinterest":6751,"Ġapos":6752,"Ġkaanak":6753,"inaldo":6754,"ensor":6755,"ll":6756,"ĠNar":6757,"upunta":6758,"Ġpagbaba":6759,"ĠApostol":6760,"AS":6761,"Ġtapat":6762,"alingan":6763,"ĠSaligang":6764,"Ginawa":6765,"Ġregional":6766,"garya":6767,"wat":6768,"uktura":6769,"Ġbub":6770,"Ġalbum":6771,"ĠBur":6772,"Ġkinasasangkutan":6773,"ĠJune":6774,"Ġkumakatawan":6775,"uparan":6776,"ĠPil":6777,"Ġfoss":6778,"ĠConstantine":6779,"idence":6780,"Ġinj":6781,"Napag":6782,"ĠIp":6783,"Ġinto":6784,"Ġmagkapatid":6785,"ĠCel":6786,"Ġz":6787,"sin":6788,"Ġinap":6789,"Ġhanap":6790,"Ġreally":6791,"dis":6792,"Ġconcern":6793,"Ġpagkuha":6794,"Upang":6795,"ĠKapul":6796,"Ġakusado":6797,"Ġbangka":6798,"ĠTechn":6799,"Ġbillion":6800,"arong":6801,"Ġespesyal":6802,"Ġbulak":6803,"Ġdaanan":6804,"ipikong":6805,"Ġhumigit":6806,"Ġmamamahayag":6807,"utulong":6808,"ĠNetwork":6809,"inom":6810,"Ġnaghih":6811,"Ġterorista":6812,"ĠChurch":6813,"uhayan":6814,"Ġalegasyon":6815,"Ġikinas":6816,"Ġresult":6817,"Ġ1986":6818,"Ġkarah":6819,"Ġpen":6820,"Ġunibers":6821,"Ġtiniyak":6822,"ĠLiberal":6823,"iat":6824,"Ġipa":6825,"Ġhow":6826,"esisyon":6827,"Ġinab":6828,"Nais":6829,"Ġfinan":6830,"Ġproper":6831,"ĠWalang":6832,"Patuloy":6833,"ĠAward":6834,"Ġdaloy":6835,"Ph":6836,"leto":6837,"Ġpagkawala":6838,"Ġnananatiling":6839,"Ġtingnan":6840,"Ġevac":6841,"ĠIf":6842,"Ġ46":6843,"Ġ1980":6844,"Ġassistance":6845,"Ġkulungan":6846,"Ġlap":6847,"Ġlife":6848,"99":6849,"ĠAma":6850,"ĠLup":6851,"akong":6852,"Ġgalaw":6853,"Ġpantay":6854,"Ġpangunguna":6855,"Ġkotse":6856,"Ġpangl":6857,"Ġkumpirm":6858,"Ġmagpapat":6859,"uf":6860,"LO":6861,"ND":6862,"alif":6863,"usulat":6864,"ĠParis":6865,"Ġpagbubukas":6866,"inea":6867,"eneo":6868,"alou":6869,"ĠCath":6870,"ĠTro":6871,"ĠFernandez":6872,"Kilala":6873,"ough":6874,"Sila":6875,"ves":6876,"Ġmitolo":6877,"agon":6878,"Ġtulay":6879,"Ġpangt":6880,"Ġkilo":6881,"Ġheneral":6882,"icilia":6883,"Ġgrad":6884,"ĠGrand":6885,"unas":6886,"ĠLeo":6887,"ĠUnibersidad":6888,"ĠEskos":6889,"88":6890,"Ġlat":6891,"ensyon":6892,"Ġkatawagan":6893,"Ġmeas":6894,"Ġmamatay":6895,"Ġdad":6896,"Ġpagkal":6897,"Ġmakakat":6898,"Ġfamily":6899,"Ġpananaliksik":6900,"ĠEp":6901,"Ġmatatag":6902,"daan":6903,"Ġkomunidad":6904,"Ġexam":6905,"Ġmember":6906,"Ġtinamaan":6907,"Ġipinagbabawal":6908,"ĠFebruary":6909,"tas":6910,"ici":6911,"Ġpangkalahatan":6912,"intulad":6913,"ektahan":6914,"vince":6915,"ĠFront":6916,"enos":6917,"ding":6918,"Ġtamb":6919,"Ġcompany":6920,"Ġiskolar":6921,"aham":6922,"Ġfossil":6923,"Ġmagnitude":6924,"ĠUndersecretary":6925,"Ġkapitan":6926,"Ġnom":6927,"uwid":6928,"Ġvac":6929,"Ġaari":6930,"Ġpayak":6931,"44":6932,"Ġcard":6933,"ĠGov":6934,"ĠWater":6935,"Ġrelihiyoso":6936,"Ġdist":6937,"istiko":6938,"ĠSpokesperson":6939,"Ġapostol":6940,"amahalaan":6941,"Ġkem":6942,"ĠWil":6943,"Ġkahoy":6944,"Ġhih":6945,"ĠBasilan":6946,"ĠFire":6947,"Ġpagkalat":6948,"ross":6949,"Ġdalaga":6950,"ĠPrin":6951,"aliit":6952,"Ġbabala":6953,"ĠNorthern":6954,"Ġnagsimulang":6955,"Ġrehabilit":6956,"ĠOscar":6957,"ardinia":6958,"Ġprotesta":6959,"Ġbefore":6960,"Ġganito":6961,"ĠPAGASA":6962,"ication":6963,"ĠBelmonte":6964,"ily":6965,"Em":6966,"ji":6967,"Ġdiy":6968,"oke":6969,"BG":6970,"Ġnauna":6971,"Ġetn":6972,"Sinasabing":6973,"iksiyon":6974,"Ġdiyan":6975,"Ġmasama":6976,"Ġtinukoy":6977,"ĠSch":6978,"ĠInglatera":6979,"arda":6980,"Ġgraft":6981,"Ġinilagay":6982,"acay":6983,"ĠSouthern":6984,"Ġliderato":6985,"Ġnagdulot":6986,"Ġfront":6987,"aktura":6988,"ruzzo":6989,"Ġ1981":6990,"Ġdepresyon":6991,"Ġcust":6992,"Ġinhin":6993,"Ġpananakop":6994,"Ġkalalakihan":6995,"Ġkapakanan":6996,"angka":6997,"NPA":6998,"ĠPBA":6999,"Ġ43":7000,"Ġ1992":7001,"ilic":7002,"agas":7003,"ĠRail":7004,"Ġbenef":7005,"ually":7006,"edya":7007,"iolog":7008,"Ġbasehan":7009,"anch":7010,"Ġcellphone":7011,"apal":7012,"Ġlibong":7013,"ĠTin":7014,"ĠEle":7015,"Ġumaasa":7016,"Ġpaglalarawan":7017,"Pina":7018,"inop":7019,"Ġpampas":7020,"Ġcould":7021,"Ġmartial":7022,"anghal":7023,"Ġmall":7024,"Ġmalinis":7025,"Nagsimula":7026,"Ġprosesong":7027,"raz":7028,"umo":7029,"ilik":7030,"tatag":7031,"ĠQuir":7032,"Ġbasta":7033,"Ġarmas":7034,"dige":7035,"iveros":7036,"Ġthrough":7037,"inanong":7038,"Ġevent":7039,"Ġpagkakakilanlan":7040,"Ġeconomic":7041,"unawaan":7042,"untok":7043,"ĠAdige":7044,"ogo":7045,"ĠPon":7046,"Ġipap":7047,"Ġservices":7048,"Ġrespond":7049,"ikadong":7050,"anapan":7051,"Ġbasura":7052,"Ġsinundan":7053,"ĠIndustr":7054,"ĠVenezia":7055,"Ġgastos":7056,"ruit":7057,"Ġmanok":7058,"Ġkaaly":7059,"Ġnagresulta":7060,"ĠLee":7061,"Ġbilis":7062,"Ġpanitikan":7063,"ĠVI":7064,"Ġsilid":7065,"Ġkalapit":7066,"Ġkidnap":7067,"Ġtulungan":7068,"Ġkompyuter":7069,"Ġmahal":7070,"ĠSudti":7071,"Ġfre":7072,"ĠSudtirol":7073,"usob":7074,"ĠGod":7075,"ĠKoreano":7076,"Ġmapagk":7077,"Ġkinakailangang":7078,"Ġnagsasabing":7079,"ĠCoast":7080,"ĠRoman":7081,"ĠOffic":7082,"Ġepektibo":7083,"Ġplunder":7084,"ombardy":7085,"mena":7086,"ĠTeam":7087,"Ġbriefing":7088,"Ġmemor":7089,"36":7090,"ĠBabil":7091,"agpuang":7092,"ĠErn":7093,"otiko":7094,"Ġincre":7095,"lex":7096,"ER":7097,"olise":7098,"ĠNgayon":7099,"ĠKim":7100,"Ġinfl":7101,"Ġpekeng":7102,"ilitan":7103,"Ġsenatorial":7104,"Ġperiod":7105,"Ġmodel":7106,"ĠLit":7107,"ahatid":7108,"Ġbib":7109,"Ġcannot":7110,"Ġsun":7111,"ĠEj":7112,"mang":7113,"ĠIntsik":7114,"ĠMoro":7115,"ternat":7116,"Ġbatayan":7117,"Ġpumunta":7118,"Ġcandidate":7119,"ĠKaya":7120,"Ġnahuli":7121,"ialam":7122,"ification":7123,"ionary":7124,"Ġ55":7125,"ĠJac":7126,"mbria":7127,"stiyang":7128,"untinl":7129,"azio":7130,"ercito":7131,"ĠHang":7132,"Ġnagpahayag":7133,"ungkot":7134,"ilin":7135,"Ġnapa":7136,"ĠAssistant":7137,"Ġnagpapak":7138,"Magug":7139,"untinlupa":7140,"tso":7141,"ositibo":7142,"ĠJa":7143,"Ġtinit":7144,"ĠTeodoro":7145,"Ġaso":7146,"ineb":7147,"Ġpelikulang":7148,"ims":7149,"Ġnabuo":7150,"uble":7151,"Ġdoktr":7152,"Ġnaapektuhan":7153,"Ġtrop":7154,"eneto":7155,"Ġkagamitan":7156,"Ġkatimugang":7157,"Ġnagsabing":7158,"ĠVII":7159,"Ġtagap":7160,"Matatagpuan":7161,"Ġkwant":7162,"Ġwebs":7163,"49":7164,"iram":7165,"oundation":7166,"ger":7167,"ĠEslob":7168,"ukunan":7169,"ĠJoy":7170,"ĠIslands":7171,"Ġmunisipalidad":7172,"Ġtirahan":7173,"37":7174,"Ġpagtatapos":7175,"Ġpananakit":7176,"tein":7177,"Binigyang":7178,"vo":7179,"Ġpiso":7180,"Ġmakapagp":7181,"erb":7182,"ĠLanao":7183,"ĠAosta":7184,"Ġpetrolyo":7185,"atol":7186,"Ġlis":7187,"Ġdown":7188,"heast":7189,"ĠBello":7190,"46":7191,"Ġkahulugang":7192,"ĠSib":7193,"Ġlow":7194,"ĠNBA":7195,"Calab":7196,"ĠOly":7197,"Ġwa":7198,"inango":7199,"inh":7200,"ym":7201,"impluw":7202,"Ġpabalik":7203,"Ġsimpleng":7204,"pound":7205,"diin":7206,"ĠMindoro":7207,"Ġfree":7208,"Ġmaikling":7209,"uwento":7210,"ĠOrtodokso":7211,"Ġpip":7212,"asanib":7213,"Ġdayuhang":7214,"Ġpaggamot":7215,"Ġarmadong":7216,"ĠGol":7217,"Ġinu":7218,"uskanya":7219,"Ġ65":7220,"itnaan":7221,"rito":7222,"reg":7223,"ĠLos":7224,"ĠMy":7225,"Ġsession":7226,"iusap":7227,"Ġagrik":7228,"Ġpopular":7229,"ĠCrist":7230,"Ġtumama":7231,"Ġsasakyang":7232,"ikado":7233,"umentong":7234,"ĠGuard":7235,"ĠBos":7236,"Ġibaba":7237,"rastr":7238,"iisa":7239,"Ġbuk":7240,"Ġibigay":7241,"Ġkarahasan":7242,"ĠEjercito":7243,"Ġbank":7244,"Ġprobinsiya":7245,"BO":7246,"non":7247,"ĠTiago":7248,"Nagkaroon":7249,"Ġparir":7250,"Ġalert":7251,"ĠCH":7252,"Ġfact":7253,"ĠRomagna":7254,"Ġpagtuturo":7255,"Ġpalaging":7256,"xia":7257,"orter":7258,"abat":7259,"ĠMuntinlupa":7260,"Ġkinakaharap":7261,"Ġdalaw":7262,"Ġmadali":7263,"Ġmalub":7264,"Ġsaklaw":7265,"Ġnaniniwalang":7266,"Ġpangyayaring":7267,"Ġ47":7268,"ĠMonte":7269,"Ġpayo":7270,"ĠEmployment":7271,"Ġtinatanggap":7272,"agsik":7273,"Ġprovincial":7274,"Ġpagsubok":7275,"ĠGiulia":7276,"omer":7277,"ĠLTFRB":7278,"Ġ1987":7279,"abayad":7280,"osong":7281,"Ġsibilyan":7282,"Ġ42":7283,"vention":7284,"inary":7285,"ĠBangk":7286,"ĠServices":7287,"Ġkapuluan":7288,"Camp":7289,"Ġsinasalita":7290,"tanggol":7291,"Ġmodelo":7292,"kat":7293,"Kinumpirma":7294,"oman":7295,"eldon":7296,"Ġnagpas":7297,"Ġround":7298,"Ġpetsa":7299,"ĠCrame":7300,"inggoy":7301,"stitutional":7302,"romos":7303,"Gay":7304,"Ġtinangg":7305,"ekta":7306,"Ġfight":7307,"Ġkawalang":7308,"Ġpaglago":7309,"Ġmangingisda":7310,"Ġresponsable":7311,"Ġipinadala":7312,"ps":7313,"alagyan":7314,"Ġ150":7315,"ĠPres":7316,"ĠSports":7317,"riuli":7318,"ides":7319,"ĠConc":7320,"andro":7321,"85":7322,"Ġtinap":7323,"ĠRA":7324,"AR":7325,"ĠMags":7326,"Ġugali":7327,"unl":7328,"ĠEdgar":7329,"ĠTheod":7330,"ĠSit":7331,"plan":7332,"iguria":7333,"Ġangkop":7334,"apatan":7335,"thur":7336,"Ġtestigo":7337,"CRPO":7338,"ership":7339,"Ġden":7340,"hem":7341,"ugalian":7342,"Ġbilanggo":7343,"ĠPacific":7344,"uros":7345,"Ġhour":7346,"ĠMc":7347,"Ġcertific":7348,"bakan":7349,"zer":7350,"aluyong":7351,"ektong":7352,"Ġnagtut":7353,"ineer":7354,"anakan":7355,"ĠMehiko":7356,"Nagb":7357,"Ġplastic":7358,"Ġanime":7359,"Ġpermit":7360,"kw":7361,"asiwaan":7362,"iyanong":7363,"adang":7364,"Ġkahilingan":7365,"ilicata":7366,"Ġbotante":7367,"ĠKo":7368,"Ġfield":7369,"ambal":7370,"Ġpampag":7371,"Ġinilalarawan":7372,"Abruzzo":7373,"olution":7374,"Ġkalakalan":7375,"udo":7376,"ĠLakas":7377,"iven":7378,"Lombardy":7379,"Ġlock":7380,"politan":7381,"angalan":7382,"anada":7383,"siya":7384,"Ġloh":7385,"Ġmotibo":7386,"SIS":7387,"abo":7388,"urance":7389,"Ġhon":7390,"ĠGonzales":7391,"ĠSultan":7392,"uthor":7393,"Ġtermin":7394,"Ġinternet":7395,"apusan":7396,"ĠCan":7397,"ĠOlimp":7398,"Umbria":7399,"Ġatake":7400,"Ġmapa":7401,"Emilia":7402,"Ġsind":7403,"Ġpint":7404,"Lambak":7405,"Ġsalin":7406,"Ġteknolohiya":7407,"Basilicata":7408,"Friuli":7409,"Lazio":7410,"Liguria":7411,"Molise":7412,"Piemonte":7413,"Sicilia":7414,"Sardinia":7415,"Tuskanya":7416,"Veneto":7417,"ĠWikip":7418,"Marche":7419,"riaCamp":7420,"ĠNavy":7421,"Trentino":7422,"aniaEmilia":7423,"uliaBasilicata":7424,"ApuliaBasilicata":7425,"ĠSudtirolTuskanya":7426,"ĠAostaApuliaBasilicata":7427,"CalabriaCamp":7428,"ĠRomagnaFriuli":7429,"AbruzzoLambak":7430,"LombardyMarche":7431,"UmbriaVeneto":7432,"LazioLiguria":7433,"MolisePiemonte":7434,"SardiniaSicilia":7435,"ĠSudtirolTuskanyaUmbriaVeneto":7436,"CalabriaCampaniaEmilia":7437,"LazioLiguriaLombardyMarche":7438,"MolisePiemonteSardiniaSicilia":7439,"ĠTel":7440,"ubos":7441,"kanilang":7442,"dan":7443,"Ġputing":7444,"ĠBoracay":7445,"Ġnatitirang":7446,"redit":7447,"ĠAndres":7448,"gin":7449,"Ġmahistrado":7450,"ĠJudge":7451,"Ġissue":7452,"Ġanat":7453,"ĠSom":7454,"ĠLuis":7455,"Ġdeal":7456,"ĠStr":7457,"Ġinisyal":7458,"ĠAguinaldo":7459,"Ġsl":7460,"Ġmakal":7461,"ulation":7462,"ĠAgriculture":7463,"ĠTour":7464,"Ġitinanggi":7465,"Ġalok":7466,"Ġincl":7467,"ĠDomingo":7468,"Am":7469,"ĠPros":7470,"asura":7471,"Ġnaglabas":7472,"ĠFaeldon":7473,"Ġnakitang":7474,"uluwa":7475,"andum":7476,"Ġpulitika":7477,"Ġproblem":7478,"aralang":7479,"ulasyong":7480,"ilingkod":7481,"Ġpaputok":7482,"hanced":7483,"ĠIsraelita":7484,"Ġpwesto":7485,"imon":7486,"uyan":7487,"Ġsuppl":7488,"ĠID":7489,"awaran":7490,"orts":7491,"Ġ75":7492,"Ġmagm":7493,"Ġsuspect":7494,"Ġadvis":7495,"ĠSalvi":7496,"iddle":7497,"Ġtod":7498,"inasura":7499,"Ġparaang":7500,"ĠHit":7501,"Ġcontrol":7502,"ees":7503,"Ġmach":7504,"Ġpagbisita":7505,"Ġestadong":7506,"unawa":7507,"ĠLegarda":7508,"esar":7509,"ahada":7510,"Ġpagkilos":7511,"tal":7512,"Ġbulaklak":7513,"Ġbinal":7514,"ibusyon":7515,"Ġbomb":7516,"ĠOrganization":7517,"47":7518,"ĠSamp":7519,"Ġpatungkol":7520,"ĠAbenida":7521,"ilitis":7522,"Ġnagkakaroon":7523,"Ġflight":7524,"Ġpic":7525,"alasan":7526,"Ġtangg":7527,"antala":7528,"aping":7529,"Ġnatapos":7530,"Ġdevelopment":7531,"ĠCompany":7532,"Ġtotoong":7533,"ĠChristian":7534,"ĠFort":7535,"ĠIsabel":7536,"tors":7537,"Binubuo":7538,"Pinas":7539,"ux":7540,"des":7541,"Ġnakasal":7542,"Ġ1989":7543,"ĠJoel":7544,"ability":7545,"udit":7546,"ĠVol":7547,"encies":7548,"ges":7549,"Ġrelihiyong":7550,"Ġgitnang":7551,"Ġmessage":7552,"ĠCCTV":7553,"Ġinstitusyon":7554,"ontiveros":7555,"ĠArabo":7556,"Ġunits":7557,"Ġmisis":7558,"Ġnagmumula":7559,"Ġsuch":7560,"ibre":7561,"ĠAndanar":7562,"amutan":7563,"ĠPara":7564,"Ġnagpat":7565,"ĠGeorge":7566,"chet":7567,"ĠWestern":7568,"ĠDina":7569,"'.":7570,"Ġbise":7571,"ĠKonstitusyon":7572,"Ġmist":7573,"tim":7574,"atives":7575,"other":7576,"Ġintelligence":7577,"Ġnauugnay":7578,"Ġbinuo":7579,"Ġpolicy":7580,"abuti":7581,"Ġmaganap":7582,"Ġsinimulan":7583,"Ġorg":7584,"ĠMandaluyong":7585,"Ġmong":7586,"Ġcoll":7587,"ĠPak":7588,"Ġkalim":7589,"Ġuniberso":7590,"har":7591,"Ġadministrasyong":7592,"NG":7593,"abe":7594,"Ġcrisis":7595,"Ġsubst":7596,"Ġinvest":7597,"Ġnumero":7598,"Ġli":7599,"Ġpalip":7600,"uhat":7601,"Ġkalinang":7602,"ungkahing":7603,"etto":7604,"Ġproduksiyon":7605,"Ġtaxi":7606,"'re":7607,"ilahok":7608,"Bum":7609,"hek":7610,"ĠBranch":7611,"ĠFrance":7612,"Ġpagbabagong":7613,"Ġpwedeng":7614,"Ġhome":7615,"Ġperman":7616,"Ġface":7617,"ĠOverseas":7618,"osm":7619,"Ġmetal":7620,"Ġbenepisyo":7621,"Ġopin":7622,"roll":7623,"Ġnanawagan":7624,"ĠExpress":7625,"Ġpagpupulong":7626,"Ġmotorista":7627,"Wh":7628,"ukuyin":7629,"Ġbasketball":7630,"ĠThis":7631,"hika":7632,"imok":7633,"ĠSinabi":7634,"utukan":7635,"ading":7636,"urse":7637,"Ġyunit":7638,"Ġestasyon":7639,"Ġlayo":7640,"ship":7641,"Ġsmugg":7642,"asakit":7643,"Ġrit":7644,"uhunan":7645,"Ġlabing":7646,"ĠDeng":7647,"Ġyaman":7648,"Ġdiplomat":7649,"ĠSir":7650,"ĠDet":7651,"Ġespirit":7652,"ĠUng":7653,"ĠCharles":7654,"ĠAteneo":7655,"intul":7656,"Ġkinumpirma":7657,"Ġpositibo":7658,"ĠPalaiolog":7659,"asing":7660,"omend":7661,"Ġradyo":7662,"Ġkulturang":7663,"ĠBoy":7664,"ĠHontiveros":7665,"idge":7666,"Ġmaliwanag":7667,"Ġnasasakupan":7668,"ĠJess":7669,"Ġinamin":7670,"Ġdakilang":7671,"ĠBenj":7672,"ĠMex":7673,"heng":7674,"Ġnadakip":7675,"aaralan":7676,"Ġpisika":7677,"Ġattack":7678,"Ġtiwala":7679,"Ġsame":7680,"Ġgasolina":7681,"Ġalternat":7682,"Ġdetalye":7683,"ette":7684,"Ġexpl":7685,"Mat":7686,"RMM":7687,"ĠPalaiologos":7688,"ires":7689,"Ġturista":7690,"Arroyo":7691,"Ġjoint":7692,"Ġmater":7693,"ugaliang":7694,"Ġpagtatayo":7695,"ĠGuinea":7696,"Ġsports":7697,"time":7698,"Ġpaniniwalang":7699,"Ġbinaw":7700,"ĠAbella":7701,"ferrato":7702,"ĠAtl":7703,"Ġkemikal":7704,"uktor":7705,"Ġpananag":7706,"ĠMonferrato":7707,"Ġbuwang":7708,"Ġhiling":7709,"ĠDum":7710,"ukasan":7711,"Ġpagamutan":7712,"ĠSSS":7713,"Ġagency":7714,"Ġbakal":7715,"ĠOlymp":7716,"iation":7717,"Ġpagpapas":7718,"Ġmagkakas":7719,"Ġibinibigay":7720,"iguez":7721,"Ġmalalim":7722,"Ġsenadora":7723,"SP":7724,"Ġibalik":7725,"Ġkalagitnaan":7726,"SC":7727,"Ġalpab":7728,"Patay":7729,"alungat":7730,"iyente":7731,"Ġmatataas":7732,"Ġeleksiyon":7733,"Ġgl":7734,"Ġtindahan":7735,"ift":7736,"Ġinatasan":7737,"Ġhukbong":7738,"Ġlubos":7739,"Ġnahaharap":7740,"ĠSon":7741,"samoro":7742,"Ġvide":7743,"Ġagreement":7744,"Ġnagtungo":7745,"Ġbuhok":7746,"usyonar":7747,"ĠGold":7748,"ĠConstantino":7749,"Ġsumali":7750,"Ġkinab":7751,"Ġweek":7752,"Ġkalakal":7753,"Ġkaalyado":7754,"Ġlima":7755,"ĠHari":7756,"tand":7757,"Ġark":7758,"Ġtagasunod":7759,"ipo":7760,"ĠDrugs":7761,"ĠJuly":7762,"Ġbersiyon":7763,"ocrat":7764,"Mad":7765,"Ġsign":7766,"Ġholid":7767,"Ġ1995":7768,"Ġpiraso":7769,"Ġpamantayan":7770,"Ġsuport":7771,"ĠAcadem":7772,"kuw":7773,"att":7774,"Ġforce":7775,"Ġveh":7776,"Ġpangangalaga":7777,"Ġten":7778,"Ġfour":7779,"ĠOro":7780,"Ġkahalagahan":7781,"ANG":7782,"If":7783,"iman":7784,"ops":7785,"ĠGreen":7786,"Ġalinsunod":7787,"Cor":7788,"imili":7789,"ustuhan":7790,"Comelec":7791,"Ġamin":7792,"Ġrebol":7793,"Ġmainam":7794,"Ġrekord":7795,"my":7796,"ĠHan":7797,"Ġ1998":7798,"Ġbulkan":7799,"ĠBataan":7800,"Ġnakabatay":7801,"ĠMiyerkoles":7802,"amam":7803,"Ġbumili":7804,"ĠFilipinos":7805,"Ġnangangahulugan":7806,"Ġmanatili":7807,"af":7808,"Ġbaga":7809,"ĠPCSO":7810,"Ġpetition":7811,"Ġcam":7812,"ĠOras":7813,"Ġpagkaing":7814,"RRM":7815,"Ġamp":7816,"Ġaspeto":7817,"Ġpangkasarian":7818,"Ġhous":7819,"Ġrebound":7820,"Ġanatom":7821,"Ġsource":7822,"ultural":7823,"Ġtuluyan":7824,"Ġident":7825,"Ġairport":7826,"ĠOperations":7827,"Ġdisc":7828,"Ġmanager":7829,"juana":7830,"Ġparusang":7831,"Ġtanda":7832,"upit":7833,"ĠEstado":7834,"ĠPanginoon":7835,"Ġsuso":7836,"Ġsigur":7837,"Ġtinaguriang":7838,"zone":7839,"Ġdahon":7840,"Ġchange":7841,"Ġnilalaman":7842,"eldeng":7843,"Ġinterpret":7844,"Ġdol":7845,"Ġthreat":7846,"CQ":7847,"Ġfull":7848,"kh":7849,"okras":7850,"Ġmister":7851,"imento":7852,"ĠGerman":7853,"Ġmagagamit":7854,"ĠBangsamoro":7855,"ĠBlack":7856,"Ġpanel":7857,"cc":7858,"ĠGovernor":7859,"Ġrefer":7860,"vaxia":7861,"Ġngipin":7862,"ĠOfficer":7863,"Ġpage":7864,"Ġtingin":7865,"ilty":7866,"lease":7867,"ĠPower":7868,"Ġkatutubo":7869,"avit":7870,"Ġtrib":7871,"abase":7872,"urok":7873,"aph":7874,"dong":7875,"Ġtraining":7876,"van":7877,"Ġareas":7878,"KA":7879,"til":7880,"ilitang":7881,"uev":7882,"Ġgawi":7883,"ĠPress":7884,"term":7885,"Ġprice":7886,"Ġnaghain":7887,"Ġsad":7888,"Ġkapanganakan":7889,"ĠDisaster":7890,"Ġfil":7891,"Ġidina":7892,"ĠPand":7893,"ampi":7894,"ebol":7895,"ĠMiss":7896,"Ġlumipat":7897,"ĠImmigration":7898,"atak":7899,"ĠHal":7900,"Ġnetizen":7901,"Ġdays":7902,"ĠSeb":7903,"There":7904,"Ġsee":7905,"ĠOne":7906,"ĠLet":7907,"utom":7908,"outheast":7909,"uing":7910,"Ġpanging":7911,"unsyo":7912,"Ġpenal":7913,"ĠPanl":7914,"ugtog":7915,"Pinak":7916,"Ġmade":7917,"Ġcommander":7918,"ikat":7919,"Ġfinal":7920,"ĠNas":7921,"ĠBeng":7922,"Ġmarijuana":7923,"Ġkaganapan":7924,"Ġindibiduwal":7925,"iance":7926,"Ġnilinaw":7927,"Ġsentim":7928,"Ġtiyan":7929,"Ġimbestigahan":7930,"arilin":7931,"BCP":7932,"akad":7933,"ikilos":7934,"urora":7935,"Ġkromos":7936,"peres":7937,"Ġkapal":7938,"ĠKristo":7939,"Matatandaan":7940,"NC":7941,"Ġsundalong":7942,"Ġpersonalidad":7943,"ring":7944,"Ġkaunting":7945,"yum":7946,"Ġibon":7947,"kad":7948,"Ġgulay":7949,"Ġgaganap":7950,"ieve":7951,"Ġinternas":7952,"idae":7953,"Ġdata":7954,"adist":7955,"Ġunahang":7956,"ahating":7957,"Ġnation":7958,"Ġterminal":7959,"Ġaming":7960,"Ġbant":7961,"Ġipakita":7962,"Ġtap":7963,"edom":7964,"ulatory":7965,"Ġpagbuo":7966,"Ġlahi":7967,"Ġlayuning":7968,"idro":7969,"ĠRuso":7970,"ulok":7971,"Ġlord":7972,"ĠSem":7973,"Ġarg":7974,"action":7975,"Ġtempor":7976,"angerous":7977,"Ġpaliparan":7978,"Ġnanatili":7979,"iki":7980,"ĠSte":7981,"alagaan":7982,"twitter":7983,"Ġmatandang":7984,"Ġipinas":7985,"Ġnaglalarawan":7986,"Ġsanto":7987,"ihas":7988,"Ġflo":7989,"59":7990,"Ġpast":7991,"umi":7992,"ĠAustria":7993,"arungan":7994,"Ġhinaharap":7995,"agsa":7996,"aym":7997,"Gum":7998,"Ġstart":7999,"Ġnagkas":8000,"zar":8001,"Ġalin":8002,"ining":8003,"Pum":8004,"Ġkaukulang":8005,"89":8006,"ariling":8007,"Ġpamamaraang":8008,"ĠFood":8009,"Ġalitan":8010,"ction":8011,"ĠCatholic":8012,"ĠTrade":8013,"Ġnaitalang":8014,"32":8015,"Ġmagamit":8016,"weet":8017,"Ġappro":8018,"ĠFinan":8019,"intahan":8020,"ĠMemorial":8021,"Ġfoot":8022,"ĠFund":8023,"lands":8024,"Ġnapagk":8025,"Ġkolehiyo":8026,"Ġpagw":8027,"ograpiya":8028,"Ġikaw":8029,"orso":8030,"ometr":8031,"Ġsuk":8032,"rez":8033,"ĠHon":8034,"Ġestim":8035,"Ġimahe":8036,"Ġmask":8037,"Ġpaglalagay":8038,"ĠHind":8039,"Ġpinakahuling":8040,"itim":8041,"ahanan":8042,"Ġrebeldeng":8043,"Ġmakina":8044,"But":8045,"ii":8046,"itahan":8047,"IDG":8048,"okratikong":8049,"Ġhinat":8050,"Ġcrime":8051,"Ġporm":8052,"nance":8053,"Ġquarter":8054,"ibabaw":8055,"astos":8056,"Ġorganis":8057,"omon":8058,"lock":8059,"Ġkapangyarihang":8060,"Ġmany":8061,"ĠBudget":8062,"Ġsignal":8063,"aktan":8064,"aria":8065,"ĠSara":8066,"Ġnakakulong":8067,"Ġbanggit":8068,"awing":8069,"idera":8070,"etikong":8071,"Ġpack":8072,"ĠBOC":8073,"ukump":8074,"Ġnagsasalita":8075,"Ġgag":8076,"Ġmabigat":8077,"ĠHenry":8078,"69":8079,"Tinawag":8080,"ĠFranklin":8081,"olfo":8082,"Ġterminong":8083,"Ġseleksiyon":8084,"ĠLina":8085,"Ġtumanggi":8086,"Ġmoral":8087,"ĠHim":8088,"ĠArg":8089,"Ġikin":8090,"ĠGlobal":8091,"87":8092,"ĠMoises":8093,"Ġmasyadong":8094,"Ġmali":8095,"Ġpagsisimula":8096,"Mal":8097,"zman":8098,"Ġmiss":8099,"Ġgaanong":8100,"Ġtubong":8101,"MC":8102,"ĠFoundation":8103,"Ġnegatibong":8104,"amento":8105,"ĠPortugal":8106,"ĠMil":8107,"Ġstudent":8108,"ĠMesa":8109,"ĠMartial":8110,"Ġisinal":8111,"Ġball":8112,"Ġcommit":8113,"lamong":8114,"Ġpinakama":8115,"sob":8116,"ionship":8117,"Ġtukuyin":8118,"Ġtumatanggap":8119,"Ġpagnanais":8120,"ĠGamb":8121,"olcs":8122,"inst":8123,"Ġnagpapahiwatig":8124,"hala":8125,"ĠFil":8126,"ĠAmpat":8127,"Maliban":8128,"Ġbinabay":8129,"ĠSerb":8130,"Ġgive":8131,"ĠBan":8132,"Ġidinagdag":8133,"ĠConstantinop":8134,"ĠSPO":8135,"ĠEner":8136,"Ġpampang":8137,"Ġaway":8138,"Ġbeh":8139,"Ġreprod":8140,"Ġbibl":8141,"aheng":8142,"Ġkaloob":8143,"Ġpagpapahalaga":8144,"ĠTri":8145,"uwestiyon":8146,"Ġbomba":8147,"ET":8148,"ĠAbd":8149,"angguniang":8150,"Ġnaib":8151,"Ġsumulat":8152,"Ġmahina":8153,"Ġbanda":8154,"Ġrehiyong":8155,"Ġminimum":8156,"Ġpinangalanan":8157,"Ġagrikultura":8158,"Ġkontrobersiyal":8159,"ilian":8160,"Ġwhere":8161,"Ġkasulatan":8162,"Ġkaay":8163,"Ġipinakita":8164,"ĠSoutheast":8165,"Ġmaw":8166,"Ġnuk":8167,"Ġbihag":8168,"ĠBernar":8169,"ĠHomo":8170,"ĠErm":8171,"Ġkabig":8172,"Ġinterview":8173,"emic":8174,"ustisya":8175,"Nanawagan":8176,"Ġaawit":8177,"identeng":8178,"ĠHangul":8179,"ayaw":8180,"Ġlayong":8181,"ĠPolonya":8182,"Ġkatawagang":8183,"Ġnagsabi":8184,"anggunian":8185,"Ġbuo":8186,"Ġpumayag":8187,"Ġnaglalayong":8188,"ĠMetropolitan":8189,"ĠAurora":8190,"oble":8191,"onomiya":8192,"Ġsafety":8193,"ĠGame":8194,"ĠProtection":8195,"Ġaksiyon":8196,"Yung":8197,"ĠCy":8198,"ĠNig":8199,"Ġtrade":8200,"ĠPerez":8201,"Ġbibigyan":8202,"ĠSyria":8203,"ĠSak":8204,"Ġnagtapos":8205,"akter":8206,"ĠAlas":8207,"ĠUE":8208,"Ġleeg":8209,"Ġpartic":8210,"DOH":8211,"ĠJinggoy":8212,"Ġgroups":8213,"ĠDengvaxia":8214,"ĠDigong":8215,"Ġbituin":8216,"abae":8217,"angkang":8218,"Ġsuportahan":8219,"ĠAntip":8220,"Ġfunds":8221,"ukay":8222,"Ġdisiplina":8223,"aron":8224,"Ġalisin":8225,"Ġnagsisilbing":8226,"34":8227,"ĠConference":8228,"Ġpagtitipon":8229,"ĠDefensor":8230,"ĠAmpatuan":8231,"Ġtreat":8232,"ĠGuzman":8233,"ĠKor":8234,"eri":8235,"Ġrelief":8236,"Ġpiling":8237,"ĠMorales":8238,"Ġtimbang":8239,"Ġcivil":8240,"Ġ41":8241,"Ġ187":8242,"Ġtina":8243,"aon":8244,"Ġaraling":8245,"ĠCarpio":8246,"Ġcongress":8247,"ĠQuirino":8248,"ampok":8249,"kong":8250,"Ġnakasak":8251,"ĠChristmas":8252,"ĠDaang":8253,"abago":8254,"rep":8255,"ĠLang":8256,"Ġir":8257,"Ġ..":8258,"Ġpumanaw":8259,"**":8260,"ivolcs":8261,"impapawid":8262,"ĠNFA":8263,"ĠHes":8264,"Kap":8265,"yl":8266,"Ġpasilidad":8267,"Ġdemon":8268,"angging":8269,"Ġhomoseksuwalidad":8270,"Ġpinayagan":8271,"ĠSitio":8272,"ĠSat":8273,"ogon":8274,"Ġ1960":8275,"ENR":8276,"Ġpagpapag":8277,"Ġsaksak":8278,"Ġnilal":8279,"berto":8280,"Ġdecision":8281,"Ġsom":8282,"Ġaasal":8283,"aking":8284,"Ġtula":8285,"ingay":8286,"Ġgre":8287,"Ġpagsapit":8288,"Ġ1997":8289,"iktima":8290,"Ġpreso":8291,"Ġwatch":8292,"Ġdebate":8293,"Ġtumagal":8294,"Ġtu":8295,"Ġitinakda":8296,"ĠChan":8297,"liga":8298,"Ġkapat":8299,"Ġnilagdaan":8300,"Ġkontin":8301,"langin":8302,"ĠIgles":8303,"ped":8304,"ĠGabri":8305,"?]":8306,"Ġidineklara":8307,"Ġpoints":8308,"Ġlive":8309,"ĠMalay":8310,"ĠAga":8311,"ĠAcademy":8312,"fe":8313,"Ġnanana":8314,"Ag":8315,"Ġrum":8316,"alawakan":8317,"Ġalperes":8318,"Ġipinahayag":8319,"urisd":8320,"cion":8321,"ugb":8322,"Ġdalubhasa":8323,"obile":8324,"Ġvisit":8325,"Ġinilarawan":8326,"ĠZambales":8327,"rotesta":8328,"ĠProsecut":8329,"Ġpanitikang":8330,"Ġlockdown":8331,"uit":8332,"Ġaangkin":8333,"66":8334,"Ġmosyon":8335,"Ġcour":8336,"Ġpariralang":8337,"Ġitinalaga":8338,"Ġibat":8339,"alikha":8340,"iate":8341,"ĠUk":8342,"ĠDakilang":8343,"bar":8344,"Ġaktor":8345,"ĠPuerto":8346,"31":8347,"ĠReh":8348,"Ġnatagpuang":8349,"aniel":8350,"iet":8351,"osc":8352,"Ġpareho":8353,"Ġsearch":8354,"ĠLev":8355,"ercial":8356,"ournal":8357,"Ġpagbabarilin":8358,"ĠBlue":8359,"saad":8360,"kus":8361,"inosa":8362,"iyera":8363,"Ġkapulungan":8364,"ĠBohol":8365,"Dalawang":8366,"Ġkilusang":8367,"apangulo":8368,"Ġ1978":8369,"ociety":8370,"Ġkunin":8371,"ĠMaur":8372,"pet":8373,"ayagang":8374,"angal":8375,"ĠRem":8376,"ĠRiv":8377,"Ġbigat":8378,"Ġkatamt":8379,"ble":8380,"ĠMona":8381,"ĠBenjamin":8382,"Ġana":8383,"Ġpasok":8384,"Inamin":8385,"Ġhukbo":8386,"ĠEmbass":8387,"Ġmov":8388,"ington":8389,"Ġnakapagt":8390,"Ġisagawa":8391,"Ġhukuman":8392,"unduang":8393,"eneg":8394,"abong":8395,"istahan":8396,"Ġkataga":8397,"landes":8398,"Ġcitizen":8399,"Ġ57":8400,"char":8401,"Ġnagtamo":8402,"Ġoperatiba":8403,"Ġvacc":8404,"Ġwebsite":8405,"jud":8406,"58":8407,"amanan":8408,"Ġatomo":8409,"ihing":8410,"Ġpalat":8411,"Ib":8412,"Ġkang":8413,"ING":8414,"ĠRic":8415,"zano":8416,"Ġsubs":8417,"Ġmi":8418,"Ġkateg":8419,"Ġdalhin":8420,"ĠRoy":8421,"Ġkolon":8422,"ĠBundok":8423,"ĠdzBB":8424,"Pinang":8425,"Ġbagamat":8426,"irmahan":8427,"aligt":8428,"ibbon":8429,"ĠTerm":8430,"ueteng":8431,"Ġfut":8432,"ĠPasipiko":8433,"Ġlitro":8434,"Ġdue":8435,"Ġbinaril":8436,"pong":8437,"ĠEmbassy":8438,"cr":8439,"ilipas":8440,"ĠMuna":8441,"ĠProtest":8442,"unahing":8443,"Ġwhy":8444,"Ġlight":8445,"angkat":8446,"Ġkadalasan":8447,"uj":8448,"Ġground":8449,"Ġ1993":8450,"Ġnalalaman":8451,"EL":8452,"ĠSun":8453,"Ġfarm":8454,"Ġconstruction":8455,"Ġpagpapatuloy":8456,"ĠSent":8457,"Ġtrial":8458,"Ġinaprubahan":8459,"antimp":8460,"Ġmagpah":8461,"wide":8462,"Ġkalidad":8463,"ĠKingdom":8464,"ulaanan":8465,"Ġcount":8466,"Ġnurse":8467,"Ġalon":8468,"Ġdepende":8469,"Ġvideos":8470,"Ġray":8471,"Ġfish":8472,"ubund":8473,"Muling":8474,"Ġprotest":8475,"Ġ56":8476,"abagsak":8477,"Ġsimbahang":8478,"ĠEnergy":8479,"Ġwitness":8480,"ĠPadilla":8481,"uweldo":8482,"Ġcheckpoint":8483,"Ġpaulit":8484,"Ġkaisipan":8485,"bert":8486,"anon":8487,"Ġcr":8488,"ĠLady":8489,"iwasang":8490,"Ġdistrict":8491,"LEX":8492,"ulus":8493,"indihan":8494,"ĠObispo":8495,"ĠJackson":8496,"ĠBritish":8497,"DFA":8498,"Ġpong":8499,"Ġpresyon":8500,"Ġkasanayan":8501,"Ġkatunayan":8502,"ilitar":8503,"hal":8504,"ĠMall":8505,"Ġshort":8506,"ĠReform":8507,"Ġnagdudulot":8508,"mi":8509,"Ġanom":8510,"ĠCarl":8511,"otohan":8512,"ugot":8513,"Ġpositibong":8514,"Ġkul":8515,"Ġdona":8516,"ĠTop":8517,"Ġpinili":8518,"aho":8519,"oca":8520,"Ġlangit":8521,"Ġnagbabago":8522,"Ġmakamit":8523,"isyunal":8524,"Ġcover":8525,"asanhi":8526,"ĠThey":8527,"Ġcriminal":8528,"ĠClass":8529,"anana":8530,"hana":8531,"ĠCivil":8532,"ecia":8533,"Ġkagand":8534,"Ġsinasak":8535,"Ġconduct":8536,"Ġlarong":8537,"Ġcitizens":8538,"Ġnakikitang":8539,"ĠMoreno":8540,"Ġlawa":8541,"300":8542,"Ġtim":8543,"Ġhamon":8544,"Ġcome":8545,"inidad":8546,"uag":8547,"Ġlawak":8548,"ĠPags":8549,"Ġtradisyonal":8550,"Ġinclud":8551,"Ġguilty":8552,"das":8553,"Ġhap":8554,"Ġ400":8555,"umin":8556,"adc":8557,"ential":8558,"Ġinirek":8559,"Ġtumungo":8560,"angkisa":8561,"Ġ1945":8562,"Ġhab":8563,"Ġvict":8564,"Ġauthor":8565,"alisay":8566,"Ġmotion":8567,"rado":8568,"ropri":8569,"ĠErmita":8570,"Ġmagagawa":8571,"Ġrally":8572,"yr":8573,"ubukan":8574,"untahan":8575,"ĠIka":8576,"ĠKaragatang":8577,"ying":8578,"Ġsekswal":8579,"ektang":8580,"ĠGregorio":8581,"ĠSaint":8582,"atoryo":8583,"ĠAlc":8584,"Ġitinayo":8585,"ĠShe":8586,"Nagl":8587,"Halos":8588,"Ġpagsisiyasat":8589,"Ġnanggaling":8590,"ĠPulo":8591,"ided":8592,"ĠTay":8593,"Ġiminungkahi":8594,"iklab":8595,"ĠEbreo":8596,"ĠCommand":8597,"ĠRodriguez":8598,"Ġpandar":8599,"intulutan":8600,"ĠRel":8601,"ended":8602,"Ġuring":8603,"ĠGales":8604,"chez":8605,"Ġov":8606,"igkas":8607,"akwil":8608,"ened":8609,"Ġpaggalaw":8610,"Ġnakalagay":8611,"Ġnakilalang":8612,"Ġumuwi":8613,"ĠBansa":8614,"stong":8615,"Ġbayad":8616,"Pinan":8617,"Ġmatibay":8618,"ĠRolando":8619,"Ġniyo":8620,"Ġpaghahari":8621,"AT":8622,"Ġgaano":8623,"ĠKorean":8624,"Ġartikulo":8625,"ĠHindu":8626,"Ġmalaya":8627,"Ġsinag":8628,"Ġcorruption":8629,"esulta":8630,"pok":8631,"Ġav":8632,"Ġpaglilitis":8633,"Ġmagpa":8634,"ĠZub":8635,"Ipinang":8636,"Ġmanggagamot":8637,"cing":8638,"isp":8639,"ekober":8640,"Ġpinagbab":8641,"inung":8642,"ffick":8643,"Ġappoint":8644,"ĠTaon":8645,"Ġprinsipyo":8646,"Ġbent":8647,"Ġplant":8648,"Ġpinalitan":8649,"umbong":8650,"ijing":8651,"Ġkimikal":8652,"Ġ49":8653,"Ġtanungin":8654,"Health":8655,"nil":8656,"Ġpagpapalabas":8657,"Ġsinis":8658,"edy":8659,"unsiyo":8660,"Ġhope":8661,"untunan":8662,"ĠYap":8663,"amental":8664,"ugunan":8665,"Katulad":8666,"ĠMike":8667,"ensiyahan":8668,"ĠCantos":8669,"ĠResp":8670,"Ġfranch":8671,"hay":8672,"gu":8673,"Ġhirap":8674,"ĠDP":8675,"Ġpinip":8676,"Ġnakapagp":8677,"Ġnatalo":8678,"ĠAli":8679,"Ġterorismo":8680,"iwalat":8681,"42":8682,"Ġprojects":8683,"ĠSalle":8684,"Ġharapan":8685,"Ġjack":8686,"Ġ1970":8687,"ĠBC":8688,"ukang":8689,"Ġtanggapin":8690,"Dep":8691,"Ġsachet":8692,"Ġsesyon":8693,"aland":8694,"ĠRights":8695,"iaz":8696,"Ġappl":8697,"arto":8698,"Ġbuilding":8699,"Ġministro":8700,".--":8701,"lacion":8702,"ĠDaniel":8703,"ĠPagb":8704,"Ġincrease":8705,"Ġakusasyon":8706,"Ġprobinsya":8707,"Ġpangako":8708,"essional":8709,"sunod":8710,"Ġcirc":8711,"Ġnung":8712,"Ġsaligang":8713,"ahambing":8714,"Ġrape":8715,"akatuparan":8716,"ĠBeijing":8717,"Ġprangkisa":8718,"Ġapar":8719,"ĠMer":8720,"ĠFar":8721,"Ġdeputy":8722,"Ġdolyar":8723,"ĠNoy":8724,"Ġdisenyo":8725,"ĠTokyo":8726,"rd":8727,"Kasunod":8728,"Ġinhinyer":8729,"ĠSah":8730,"Ġkalamidad":8731,"ĠSanchez":8732,"Ġty":8733,"Ġdoes":8734,"ĠHitler":8735,"ĠTaal":8736,"Ġmonitor":8737,"Ġmakatulong":8738,"alyang":8739,"ĠMunicipal":8740,"otas":8741,"Ġlumilikha":8742,"aliksik":8743,"Ġpagbabayad":8744,"ĠResources":8745,"Ġjeepney":8746,"ĠBilibid":8747,"Umabot":8748,"ĠTwitter":8749,"Ġkalahating":8750,"osyo":8751,"Ġpagtukoy":8752,"antiko":8753,"ĠPalomar":8754,"edic":8755,"Gayundin":8756,"yenteng":8757,"Ġrepubl":8758,"ĠThat":8759,"Ġber":8760,"Ġpagpapah":8761,"ĠDOLE":8762,"ĠZubiri":8763,"ĠTanak":8764,"ĠMinister":8765,"Ġkaluluwa":8766,"Ġleft":8767,"Ġroon":8768,"Ġaktibong":8769,"ĠDarwin":8770,"Di":8771,"untang":8772,"Ġbahagyang":8773,"Ġtrust":8774,"Giit":8775,"yanong":8776,"Ġcontinue":8777,"Ġipin":8778,"ĠKin":8779,"Ġtradisyong":8780,"Ġuse":8781,"arili":8782,"ĠBIR":8783,"Ġrequire":8784,"ids":8785,"ĠNazar":8786,"Ġ1984":8787,"UV":8788,"Ġproto":8789,"Ġpagbebenta":8790,"onang":8791,"Ġwithout":8792,"ĠMalabon":8793,"ĠItalyano":8794,"tar":8795,"Ġprom":8796,"Ġrekomend":8797,"Ġhustisya":8798,"elle":8799,"Ġpinakak":8800,"ĠRon":8801,"ĠVit":8802,"Ġumakyat":8803,"Ġnaghahanap":8804,"ĠAlexand":8805,"Ġyari":8806,"iesel":8807,"ĠRegulatory":8808,"ĠEspinosa":8809,"wood":8810,"Ġpayagan":8811,"ampung":8812,"enzana":8813,"Ġkumbento":8814,"evision":8815,"ĠRog":8816,"ĠSor":8817,"ĠLTO":8818,"ĠGuev":8819,"Ġnakarating":8820,"Ġnagpositibo":8821,"Ġregion":8822,"ST":8823,"Ġpalak":8824,"ontra":8825,"Ġinilipat":8826,"Ġbagkus":8827,"ĠInformation":8828,"Ġproblemang":8829,"break":8830,"ked":8831,"ĠRenato":8832,"Ġkatapusan":8833,"Ġdomestic":8834,"onic":8835,"Ġpuwede":8836,"ĠLega":8837,"Ġholiday":8838,"Ġhar":8839,"iyonal":8840,"Ġnakalilipas":8841,"ianismo":8842,"Ġsqu":8843,"ational":8844,"Ġaalis":8845,"ĠKristiyanong":8846,"ĠVenecia":8847,"ĠTre":8848,"Ġkant":8849,"Ġextra":8850,"ĠAssociate":8851,"Ġpup":8852,"landiya":8853,"inamon":8854,"adali":8855,"Ġebidensya":8856,"Ġmom":8857,"Ġlaki":8858,"Ġsector":8859,"Ġbuhat":8860,"ĠEskosya":8861,"ĠAh":8862,"Ġpinagd":8863,"Ġcommission":8864,"ĠClark":8865,"libong":8866,"Ġclos":8867,"anded":8868,"ĠVP":8869,"aktong":8870,"Ġstatus":8871,"68":8872,"ĠTam":8873,"Nagmula":8874,"Ġehers":8875,"ĠErnesto":8876,"apitan":8877,"udar":8878,"Ġtuwirang":8879,"inaryong":8880,"Ġmakapasok":8881,"LBG":8882,"Ġnananatili":8883,"agn":8884,"ĠConstitution":8885,"Bagama":8886,"Simula":8887,"Ġself":8888,"okrasya":8889,"alayan":8890,"Ġkaming":8891,"Ġtawagin":8892,"Ġiyan":8893,"Ġrescue":8894,"Ġpoll":8895,"burg":8896,"DOJ":8897,"Ġkapital":8898,"ray":8899,"Ġkalye":8900,"ampanya":8901,"mpanan":8902,"Tinatayang":8903,"Ġlut":8904,"Ġtaunang":8905,"ensity":8906,"Ġmanl":8907,"gio":8908,"Ġsch":8909,"Ġemployer":8910,"Ġann":8911,"alition":8912,"Ġjueteng":8913,"Ġmes":8914,"Ġnever":8915,"ĠAC":8916,"rect":8917,"Ġmanagement":8918,"Ġlot":8919,"etang":8920,"ĠArena":8921,"gi":8922,"Ġsev":8923,"ayaman":8924,"ĠUs":8925,"ataang":8926,"Ġposition":8927,"Ġevacuation":8928,"Ġha":8929,"ulfo":8930,"hib":8931,"ĠZar":8932,"ĠMes":8933,"Ġtrah":8934,"',":8935,"Ġsimbolo":8936,"ĠPuno":8937,"Ġmanip":8938,"Ġtestim":8939,"Ġnadiskubre":8940,"Ġindi":8941,"Ġlaging":8942,"Ġcla":8943,"Nakita":8944,"ĠLan":8945,"antry":8946,"Ġdirect":8947,"Ġincident":8948,"ipment":8949,"ume":8950,"enue":8951,"urian":8952,"agpo":8953,"ĠMinority":8954,"Ġcompet":8955,"ibal":8956,"ektor":8957,"Ġpresent":8958,"Ġrebounds":8959,"Ġdeter":8960,"Ġnapaka":8961,"Ġthird":8962,"Ġmuch":8963,"Ġmisyon":8964,"etisyon":8965,"Ġmalayo":8966,"Ġtiy":8967,"resp":8968,"Ġ59":8969,"lio":8970,"ĠTeor":8971,"maneho":8972,"intong":8973,"ĠAbad":8974,"Ġhistory":8975,"ĠEnvironment":8976,"Ġtanghali":8977,"RP":8978,"ĠJail":8979,"edo":8980,"ĠEnri":8981,"Ġproteksiyon":8982,"Ġpamayanang":8983,"rehensive":8984,"tay":8985,"organ":8986,"ĠDA":8987,"Ġnagsisimula":8988,"okno":8989,"tram":8990,"Ġpagsasa":8991,"Ġrece":8992,"Ġsirk":8993,"atras":8994,"ĠPope":8995,"Ġhinango":8996,"Ġinilunsad":8997,"ĠMajor":8998,"Ġbon":8999,"Maging":9000,"ĠJay":9001,"ceed":9002,"Ġnagpadala":9003,"Ġsingle":9004,"met":9005,"ĠDSWD":9006,"Ġpagpapalit":9007,"igting":9008,"drug":9009,"ĠCla":9010,"Ġpaglipas":9011,"Ġmagkahiwalay":9012,"Ġpinaniniwalaan":9013,"ĠGuevarra":9014,"Ġbidd":9015,"urp":9016,"Ġkaunti":9017,"Ġstandard":9018,"OFW":9019,"ĠHin":9020,"Ġbatong":9021,"Ġnasas":9022,"Ġcertificate":9023,"Ġtatanggap":9024,"Pagkaraan":9025,"Ġ52":9026,"Ġpahayagan":9027,"Ġpagsunod":9028,"Ġreklamong":9029,"ĠTum":9030,"ĠNation":9031,"bat":9032,"ĠRisk":9033,"Ġpagkakab":9034,"ĠDal":9035,"ĠND":9036,"ĠWash":9037,"ĠArea":9038,"ĠEth":9039,"loc":9040,"Ġiisa":9041,"Ġkonseho":9042,"upaan":9043,"Ġinst":9044,"Ġpinagtat":9045,"Ġpagdad":9046,"hain":9047,"ĠNK":9048,"Ġmedyo":9049,"Nakasaad":9050,"Ġkaayusan":9051,"die":9052,"pro":9053,"ĠJav":9054,"istry":9055,"Ġtradisyunal":9056,"ĠSebast":9057,"ibilang":9058,"Ġtumataas":9059,"wer":9060,"Ġbur":9061,"Ġagencies":9062,"Ġho":9063,"ĠBrune":9064,"ĠReduction":9065,"ĠTal":9066,"Ġpamamaga":9067,",'":9068,"ological":9069,"COVID":9070,"Ġpinans":9071,"Ġgoing":9072,"ĠMadr":9073,"din":9074,"Ġsynd":9075,"Ġlands":9076,"ĠJej":9077,"ĠMajority":9078,"ĠCommunity":9079,"empt":9080,"Kailangan":9081,"Ġrekomendasyon":9082,"56":9083,"oth":9084,"Ġisinama":9085,"osibleng":9086,"neg":9087,"Ġekonomiko":9088,"ĠLoc":9089,"ĠJustin":9090,"Ġkagawad":9091,"Ġenhanced":9092,"Ġlog":9093,"Ġfar":9094,"Ġkasiyahan":9095,"ataong":9096,"Ġmagpat":9097,"Ġleave":9098,"ĠCOA":9099,"BM":9100,"IDS":9101,"Ġtransportasyon":9102,"Ġextension":9103,"ukid":9104,"untis":9105,"akasuhan":9106,"ĠRodolfo":9107,"ĠEconomic":9108,"Ġkapitbahay":9109,"Ġkomunikasyon":9110,"Ġkarakter":9111,"sych":9112,"forman":9113,"ĠDiokno":9114,"Ġkust":9115,"Ġkaturuan":9116,"ambang":9117,"Ġkinik":9118,"Ġnakaligtas":9119,"Ġdetention":9120,"ĠAfrica":9121,"ĠSob":9122,"inabangan":9123,"ĠAlexander":9124,"RRMC":9125,"Ġgatas":9126,"Ġpagkam":9127,"abilidad":9128,"Ġkabut":9129,"ĠNavotas":9130,"Ġprem":9131,"ĠClara":9132,"ĠPartido":9133,"Hiniling":9134,"Ġgano":9135,"ĠJona":9136,"Ġhall":9137,"ression":9138,"Ġmagkatulad":9139,"Ġmalubhang":9140,"kis":9141,"ital":9142,"Ġkatalik":9143,"Ġsumama":9144,"person":9145,"ĠLum":9146,"ĠNob":9147,"eman":9148,"Ġpaglaki":9149,"ĠStaff":9150,")-":9151,"Ġhouse":9152,"Ġseksuwalidad":9153,"Ġmodelong":9154,"rem":9155,"Ġwomen":9156,"lar":9157,"akuha":9158,"ĠAndre":9159,"Ġbumoto":9160,"Ġaplikasyon":9161,"ĠKe":9162,"Ġpatakarang":9163,"Ġnatatangi":9164,"Ġmerk":9165,"ĠPangk":9166,"Ġreporma":9167,"Ġkasangkapang":9168,"Ġpamantasan":9169,"ĠIns":9170,"Ġpangkalusugan":9171,"ĠLorenzana":9172,"Ġdigmaang":9173,"akes":9174,"ĠVolc":9175,"Ġbagama":9176,"Ġpagtulong":9177,"Ġkuwentong":9178,"Ġtelep":9179,"Ġhusto":9180,"ĠHighway":9181,"Ġmangyayari":9182,"ĠTurkiya":9183,"akbay":9184,"Ġmedikal":9185,"ilao":9186,"ĠDinastiyang":9187,"iple":9188,"ĠBrunei":9189,"Ġpista":9190,"els":9191,"alimang":9192,"Ġeducation":9193,"Ġpagsalakay":9194,"Ġsumapit":9195,"Ġkasangkapan":9196,"ĠQui":9197,"Ġmisa":9198,"ĠRiver":9199,"unggali":9200,"unte":9201,"Ġbayang":9202,"Ġobserb":9203,"ĠWashington":9204,"ogn":9205,"lines":9206,"siyong":9207,"ĠTiy":9208,"Ġinvol":9209,"Ġprobisyon":9210,"Ġebolb":9211,"aong":9212,"arte":9213,"Ġkaaway":9214,"Ġmedisina":9215,"ĠTax":9216,"ĠThomas":9217,"alleng":9218,"ĠVat":9219,"naldo":9220,"Ġpaglabas":9221,"Ġpilosopiyang":9222,"ienza":9223,"Ġpangangasiwa":9224,"Ġfranchise":9225,"AM":9226,"uters":9227,"ilities":9228,"Ġnagdaang":9229,"Ġseries":9230,"Ġtabi":9231,"Ġbantay":9232,"Ġkatan":9233,"ĠGng":9234,"Ġnabigyan":9235,"ĠFinance":9236,"ateg":9237,"osh":9238,"road":9239,"nes":9240,"Ġpapuntang":9241,"Ġneut":9242,"Ġsto":9243,"imbento":9244,"onasan":9245,"Ġrob":9246,"Ġreporter":9247,"ĠMediter":9248,"86":9249,"asagawa":9250,"Ġbalangkas":9251,"Ġdiesel":9252,"ordan":9253,"Ġsite":9254,"Ġdim":9255,"Ġfo":9256,"Ġnagawang":9257,"Ġpressure":9258,"ĠPortug":9259,"Ġkanang":9260,"ahain":9261,"Ġpagpapakita":9262,"Ġpader":9263,"ĠTib":9264,"Ġimpro":9265,"eryo":9266,"Ġkinuk":9267,"encio":9268,"Ġpangungusap":9269,"Ġkagawaran":9270,"alooban":9271,"54":9272,"Lahat":9273,"rent":9274,"Ġhati":9275,"ukal":9276,"Ġfa":9277,"Ġikal":9278,"ĠWikipedia":9279,"ving":9280,"ĠArthur":9281,"ĠHotel":9282,"Ġlam":9283,"ĠSEA":9284,"eke":9285,"intend":9286,"Ġnabigo":9287,"Ġsiguro":9288,"Ġconsider":9289,"Ġanalisis":9290,"Ġayuda":9291,"ĠTac":9292,"Ġkabihas":9293,"Ġcomputer":9294,"ĠSmart":9295,"ĠMexico":9296,"Ġprost":9297,"Ġpinakamatandang":9298,"taong":9299,"hekut":9300,"Ġhumarap":9301,"FF":9302,"Ġmagtrabaho":9303,"ĠHonasan":9304,"ihiyon":9305,"Ġhenetiko":9306,"ĠShi":9307,"Ġgames":9308,"Ġkalooban":9309,"isenyo":9310,"Ġkomisyon":9311,"mitan":9312,"Ġkalibre":9313,"Ġpenalty":9314,"Ġdireksiyon":9315,"roseso":9316,"Ġfinancial":9317,"Ġkinabukasan":9318,"ĠTanakh":9319,"aing":9320,"Ġdag":9321,"Ġcause":9322,"gang":9323,"iyam":9324,"thing":9325,"Ġever":9326,"ĠDPWH":9327,"iop":9328,"Ġpartner":9329,"ĠBig":9330,"Ġsinapit":9331,"Ġnahih":9332,"Ġisinusulong":9333,"ĠLondon":9334,"Ġheight":9335,"Ġkampe":9336,"tiko":9337,"NBI":9338,"Ġkasab":9339,"pres":9340,"Ġ1988":9341,"Ġturn":9342,"Ġpagpapakamatay":9343,"Ġ54":9344,"Ġpaghuh":9345,"Ġnext":9346,"Ġnagsilbing":9347,"erba":9348,"Ġbirus":9349,"onde":9350,"Ġpatong":9351,"Ġtubo":9352,"ĠTo":9353,"opher":9354,"Ġpangkap":9355,"ĠKatipunan":9356,"Ġpinamunuan":9357,"Ġhah":9358,"ĠBato":9359,"Ġmagag":9360,"Ġtuk":9361,"Ġbid":9362,"inalik":9363,"Ġheter":9364,"panies":9365,"Ġekw":9366,"ĠSummit":9367,"Ġpagbabawal":9368,"Ġselulang":9369,"ĠAlaska":9370,"ĠAnth":9371,"Ġtitulo":9372,"ĠLiberation":9373,"Ġmonar":9374,"Ġginang":9375,"Ġastr":9376,"Ġbigkas":9377,"Ġalamin":9378,"Ġtotal":9379,"Ġestadist":9380,"yunan":9381,"Ġnakatat":9382,"Ġtagapagt":9383,"iazon":9384,"undong":9385,"Ġpinangunahan":9386,"ĠWorkers":9387,"ĠGin":9388,"ĠPonce":9389,"Ġmanusk":9390,"ĠJapanese":9391,"Ġsindik":9392,"ĠDinam":9393,"ĠValte":9394,"Ġpatayin":9395,"Ġlagnat":9396,"Ġinalis":9397,"ĠMiriam":9398,"Ġpalapag":9399,"ulate":9400,"Ġsinibak":9401,"WWA":9402,"Ġ51":9403,"Ġpangamba":9404,"Ġmaaga":9405,"alaganap":9406,"!\"":9407,"Ġmilya":9408,"rin":9409,"Ġisama":9410,"Or":9411,"Ġstop":9412,"Itinat":9413,"ibersaryo":9414,"Ġanyos":9415,"ĠVirg":9416,"ford":9417,"Ġtrak":9418,"NL":9419,"Ġantib":9420,"Inaasahan":9421,"uklok":9422,"ĠDes":9423,"Ipina":9424,"ilaan":9425,"ĠAtienza":9426,"Ġnakatakda":9427,"ĠInfantry":9428,"olanda":9429,"ĠDiaz":9430,"oka":9431,"mission":9432,"Ġpatas":9433,"Ġwanted":9434,"rey":9435,"Ġmanalo":9436,"tulungan":9437,"Ġtrono":9438,"Ġ1975":9439,"Ġmatit":9440,"Ġpwede":9441,"Ġhinihintay":9442,"Ġilagay":9443,"ĠAntipolo":9444,"ĠMA":9445,"Ġnagpakita":9446,"Ġshop":9447,"Ġespasyo":9448,"Ġworking":9449,"Ġatin":9450,"den":9451,"Ġgiyera":9452,"stos":9453,"ĠCastell":9454,"ĠFed":9455,"Ġ1973":9456,"Ġpaglilinaw":9457,"ĠCriminal":9458,"Ġkawal":9459,"Hanggang":9460,"ĠTen":9461,"Ġakadem":9462,"Ġwhile":9463,"ordinates":9464,"Ġbinibigyan":9465,"ĠSalced":9466,"ĠNoynoy":9467,"Ġkaarawan":9468,"Ġopen":9469,"Ġyun":9470,"Ġsince":9471,"ĠNau":9472,"Ġkasags":9473,"araos":9474,"ĠGDP":9475,"Ġbumisita":9476,"Ġbilihin":9477,"Ġnaglalaro":9478,"Ġkillings":9479,"ĠPap":9480,"vi":9481,"Ġpropos":9482,"Ġmaterial":9483,"Ġbidding":9484,"ĠGrab":9485,"tory":9486,"ĠMur":9487,"ĠAmbass":9488,"aherong":9489,"ĠRap":9490,"Ġalways":9491,"cy":9492,"olekta":9493,"Ġaddress":9494,"intendent":9495,"usig":9496,"ĠLeb":9497,"Ġdoktrina":9498,"ĠVar":9499,"ĠFelipe":9500,"Do":9501,"SU":9502,"Ġhul":9503,"ĠMundo":9504,"emonya":9505,"itas":9506,"ĠDor":9507,"Ġnagpatuloy":9508,"Ġkasuhan":9509,"alanang":9510,"Ġhinal":9511,"Ġpagkatao":9512,"Ġdepart":9513,"Ġsagisag":9514,"Ġkasagsagan":9515,"formance":9516,"onood":9517,"ĠEk":9518,"Ġbayani":9519,"rero":9520,"Ġtable":9521,"ĠLGU":9522,"odes":9523,"Ġnakasulat":9524,"ipp":9525,"insalang":9526,"Ġ67":9527,"Kina":9528,"iction":9529,"Ġpetsang":9530,"ĠDaigdig":9531,"Ġcrew":9532,"yaw":9533,"Ġwage":9534,"ĠUl":9535,"Ġmabawasan":9536,"Ġtestimonya":9537,"abahala":9538,"ĠAD":9539,"Ġputok":9540,"For":9541,"riya":9542,"Ġunting":9543,"Ġgar":9544,"fire":9545,"ĠBiazon":9546,"Ġrules":9547,"98":9548,"Ġboy":9549,"ababang":9550,"awaan":9551,"babala":9552,"eksiyong":9553,"ĠKastilang":9554,"Ġplayer":9555,"Ġblack":9556,"tramuros":9557,"Ġresponsibilidad":9558,"Ġkritikal":9559,"ectoral":9560,"ĠIndustry":9561,"Ġpananalita":9562,"Ġiniimbestigahan":9563,"Ġnanguna":9564,"chn":9565,"ĠMased":9566,"ĠEleazar":9567,"fect":9568,"Ġsim":9569,"ĠMod":9570,"Ġbany":9571,"Ġ1950":9572,"ĠTiyago":9573,"ĠGam":9574,"Ġbakbakan":9575,"Ġmitolohiyang":9576,"Ġire":9577,"ĠJejomar":9578,"ui":9579,"Ġaction":9580,"ipi":9581,"Ġikatlo":9582,"Ġnukle":9583,"Ġfederal":9584,"ĠAut":9585,"ĠNino":9586,"CM":9587,"Ġanibersaryo":9588,"Ġmalamig":9589,"iza":9590,"ĠScience":9591,"Ġchampion":9592,"ukaw":9593,"ĠTransit":9594,"Ġport":9595,"ĠCub":9596,"Ġsimbol":9597,"nate":9598,"Ġpolis":9599,"ĠPetron":9600,"eus":9601,"Ġkatinig":9602,"ĠJoey":9603,"irasyon":9604,"Ġshoot":9605,"ĠKagaw":9606,"Ġiniwan":9607,"Ġkaparehong":9608,"aang":9609,"Ġkausap":9610,"Ġyum":9611,"Ġlubhang":9612,"Binanggit":9613,"ĠCastillo":9614,".'":9615,"inct":9616,"ilig":9617,"inans":9618,"Ġdalang":9619,"Kanyang":9620,"Ġpulang":9621,"Ġpataas":9622,"Ġparing":9623,"apar":9624,"wika":9625,"Ġiral":9626,"ĠPena":9627,"arters":9628,"Ġ1999":9629,"ĠRussian":9630,"ĠBam":9631,"Ġreaksiyon":9632,"Ġmakaka":9633,"asawang":9634,"Ġpagbaha":9635,"Ġhukom":9636,"ĠChristopher":9637,"ĠHukuman":9638,"Ġagarang":9639,"ennis":9640,"Ġblood":9641,"ĠDinamarka":9642,"Ġgabin":9643,"Ġ1996":9644,"angalang":9645,"ĠAz":9646,"ĠBraz":9647,"ĠRico":9648,"Ġ1982":9649,"Ġcommercial":9650,"Ġpangkatawan":9651,"ĠReynaldo":9652,"Ġceremon":9653,"abanan":9654,"Ġhot":9655,"natasan":9656,"Ġactivities":9657,"Ġmunang":9658,"ĠBirhen":9659,"Ġekonomika":9660,"position":9661,"ileen":9662,"Ġpandemic":9663,"ĠAth":9664,"Ġtrabah":9665,"ited":9666,"elang":9667,"Nad":9668,"Ġtinig":9669,"thers":9670,"achers":9671,"Ġcounter":9672,"WS":9673,"ĠHom":9674,"Ġpagkakaisa":9675,"Ġplayers":9676,"ĠAwit":9677,"Ġpagsasama":9678,"ĠAw":9679,"ĠDanilo":9680,"ĠTy":9681,"Ġlokasyon":9682,"mosp":9683,"year":9684,"endorso":9685,"onsider":9686,"arms":9687,"ĠAmbassador":9688,"Ġsuweldo":9689,"Ġmatter":9690,"inete":9691,"Ġ1994":9692,"ĠRain":9693,"ĠConstantinople":9694,"Ġhike":9695,"olba":9696,"icles":9697,"ĠTechnology":9698,"Ġpartidong":9699,"Ġ1979":9700,"Nangang":9701,"Ġpula":9702,"ĠRP":9703,"uhos":9704,"Ġorganismong":9705,"Ġmapanganib":9706,"ised":9707,"Ġpagpip":9708,"Ġfind":9709,"Coordinates":9710,"ipagp":9711,"Ġnakabase":9712,"ĠIntramuros":9713,"Ġasido":9714,"Ġnakapagpap":9715,"Ġkalimitang":9716,"Ġbinago":9717,"Ġlane":9718,"ĠUK":9719,"Ġsekw":9720,"Ġpagnanakaw":9721,"Ġpaminsan":9722,"Ġpagtutol":9723,"Ġpanggagamot":9724,"Ġtraffick":9725,"Ġplace":9726,"Ġbinuksan":9727,"Ġnanatiling":9728,"Ġoks":9729,"Ġpagded":9730,"Ġpumatay":9731,"Ġnakasuot":9732,"atar":9733,"Ġsumusuporta":9734,"Ġstrong":9735,"Ġserbisyong":9736,"ĠTra":9737,"Ġnapip":9738,"istics":9739,"Ġkapans":9740,"Ġpangkaraniwan":9741,"Ġclear":9742,"ĠOlimpiko":9743,"ĠSebastian":9744,"Ġlunas":9745,"ĠTad":9746,"oton":9747,"Ġfee":9748,"asama":9749,"ĠCrispin":9750,"nin":9751,"Ġibibigay":9752,"Ġipaliwanag":9753,"Ġpagpapaunlad":9754,"mel":9755,"Ġgabinete":9756,"umal":9757,"ĠVelasco":9758,"Ġhuw":9759,"Ġibinasura":9760,"ĠChild":9761,"Ġste":9762,"ĠQuiapo":9763,"Ġnasaktan":9764,"Ġcommand":9765,"ĠReyna":9766,"uugnay":9767,"ĠRaul":9768,"anghali":9769,"ĠSONA":9770,"ĠMend":9771,"Ġbom":9772,"Ġposisyong":9773,"Ġkarera":9774,"uluyan":9775,"Ġproyektong":9776,"Ġipinakilala":9777,"Ġbirth":9778,"Ġguw":9779,"Ġpagpapahayag":9780,"Ġofficers":9781,"Ġpananagutan":9782,"bate":9783,"Ġsure":9784,"ilar":9785,"Ġkuk":9786,"Ġ180":9787,"Ġya":9788,"amsam":9789,"ĠPam":9790,"unungan":9791,"Ġnabuhay":9792,"uhod":9793,"ĠJuli":9794,"agpas":9795,"Ġpanan":9796,"ĠStand":9797,"Ġkadahil":9798,"ĠHo":9799,"manuel":9800,"Ġpagbasa":9801,"Ġdaliri":9802,"Pinal":9803,"Ġnapansin":9804,"Ġfun":9805,"ĠElectr":9806,"Ġmaih":9807,"ĠYear":9808,"Ġnagsasabi":9809,"Kam":9810,"Man":9811,"Ġhatol":9812,"Ġkain":9813,"ĠBenguet":9814,"itional":9815,"ĠSison":9816,"Ġupuan":9817,"Ġimah":9818,"LN":9819,"Ġpig":9820,"Ġkast":9821,"ĠHernan":9822,"Ġnatatanggap":9823,"Ġproducts":9824,"Ġlalim":9825,"wag":9826,"ĠRub":9827,"Ġkabuhayan":9828,"ĠDion":9829,"Ġsaksi":9830,"Ġwakas":9831,"ilino":9832,"Ġpares":9833,"odigo":9834,"ecially":9835,"Ġtinapay":9836,"ĠSho":9837,"ĠPhilHealth":9838,"Ġaaralan":9839,"urol":9840,"Ġpartylist":9841,"Ġbok":9842,"Ġrat":9843,"ĠPamantasan":9844,"ĠNauchn":9845,"ĠNauchnij":9846,"ateral":9847,"Ġkasuot":9848,"mith":9849,"alakayin":9850,"Ġipinatupad":9851,"57":9852,"mod":9853,"Idin":9854,"ĠRepresentatives":9855,"LI":9856,"ignan":9857,"ĠPasc":9858,"Ġapektadong":9859,"GB":9860,"dote":9861,"Ġpaanong":9862,"Ġnamuno":9863,"Ġpwersa":9864,"Ġpapaano":9865,"ĠCrime":9866,"yado":9867,"Ġpederal":9868,"Ġpopulasyong":9869,"serv":9870,"Ġphysical":9871,"ĠLuna":9872,"ege":9873,"Ġserious":9874,"roon":9875,"arma":9876,"Ġharing":9877,"Ġpagbibitiw":9878,"Ġtul":9879,"ĠAko":9880,"ream":9881,"Ġgub":9882,"Ġprutas":9883,"tero":9884,"Ġ64":9885,"orsogon":9886,"Ġoperator":9887,"Ġpagkatalo":9888,"So":9889,"ĠDag":9890,"inggan":9891,"Ġnangungunang":9892,"ĠTourism":9893,"untunin":9894,"Ġkabiguan":9895,"ĠNam":9896,"ĠBoul":9897,"ĠCord":9898,"abayaan":9899,"RI":9900,"ampakan":9901,"onsidera":9902,"Ġabsol":9903,"ĠIndiya":9904,"dro":9905,"ĠCle":9906,"ulaan":9907,"Ġpagsisikap":9908,"Ġrehabilitasyon":9909,"ĠLour":9910,"ipid":9911,"Ġpatunay":9912,"Ġ53":9913,"Ġnaglalakad":9914,"Ġresolution":9915,"ĠNik":9916,"ĠBudismo":9917,"Ġable":9918,"abatang":9919,"Ġtugt":9920,"Ġinterpretasyon":9921,"ibut":9922,"ĠRu":9923,"Ġevidence":9924,"iramdam":9925,"Ġisinugod":9926,"Kasalukuyang":9927,"ispo":9928,"Ġkayarian":9929,"panyang":9930,"Ġpinunong":9931,"Ġmatagpuan":9932,"Ġspot":9933,"Ġtalks":9934,"Ġparatang":9935,"ĠOcampo":9936,"Ġtagapagtatag":9937,"ĠSel":9938,"ansom":9939,"They":9940,"Ġindustry":9941,"Ġbersyon":9942,"Ġsuportado":9943,"Ġsust":9944,"esty":9945,"ĠMasedonya":9946,"cor":9947,"Ġnakaranas":9948,"ĠLeonar":9949,"hih":9950,"ĠPersian":9951,"Ġincome":9952,"Ġmerkado":9953,"edes":9954,"Ġtigil":9955,"ĠHap":9956,"ĠFP":9957,"Ġkliyente":9958,"ĠCongo":9959,"ĠMataas":9960,"Ġnakam":9961,"ains":9962,"Ġpaglipat":9963,"uv":9964,"Ġkayamanan":9965,"Ġmananatili":9966,"ampasigan":9967,"Ġarestado":9968,"Ġpangkasalukuyang":9969,"HO":9970,"Ġmagbitiw":9971,"Ġsolon":9972,"Ġnamamatay":9973,"Ġpaghihiwalay":9974,"ĠBah":9975,"urant":9976,"ĠRomeo":9977,"ĠLabanan":9978,"Ġsunud":9979,"ators":9980,"Ġdy":9981,"Ġtumit":9982,"Ġdepartment":9983,"Ġequipment":9984,"ĠSher":9985,"oming":9986,"ĠNagp":9987,"Ġdumad":9988,"Ġ160":9989,"Ġsug":9990,"ersion":9991,"ĠOk":9992,"Ġngayo":9993,"Ġpagtakbo":9994,"rad":9995,"Ġwat":9996,"anggan":9997,"Ġkumain":9998,"awakan":9999,"ĠAlbert":10000,"based":10001,"Pinaniniwala":10002,"Ġhustong":10003,"uss":10004,"ĠBatan":10005,"Ġkaugalian":10006,"ĠAquilino":10007,"ĠResolution":10008,"intang":10009,"Ġdako":10010,"Ġdemand":10011,"Ibin":10012,"olia":10013,"uhol":10014,"emen":10015,"Ġtumigil":10016,"ĠBelhika":10017,"Ġmakatanggap":10018,"Ġbola":10019,"Ġalong":10020,"Ġpagdur":10021,"Ġnakatalaga":10022,"ĠFidel":10023,"Ġsinuman":10024,"ĠEdwin":10025,"omang":10026,"Ġfail":10027,"Ġ58":10028,"Ġpagdar":10029,"unsel":10030,"ĠNgunit":10031,"kuwentro":10032,"Ġsektang":10033,"uluhang":10034,"Ġmagbayad":10035,"ĠGabinete":10036,"ĠSangguniang":10037,"Ġcy":10038,"ubay":10039,"Ġfirm":10040,"istration":10041,"ĠKris":10042,"Ġpakikipagk":10043,"ĠMov":10044,"ĠTemp":10045,"Ġlinyang":10046,"ĠAnthony":10047,"ĠCro":10048,"Ġnakag":10049,"Ġumunlad":10050,"Ġmaghain":10051,"Ġambag":10052,"Ġhita":10053,"ging":10054,"Ġenc":10055,"isher":10056,"Ġglobal":10057,"Ġkarangalan":10058,"Ġmarunong":10059,"ĠAgustin":10060,"Ġpuwersang":10061,"Ġnakikilalang":10062,"Ġmamamayang":10063,"Ġnobela":10064,"Ġklasikong":10065,"ĠASG":10066,"Ġcamera":10067,"ĠUA":10068,"Ġ[?]":10069,"LP":10070,"Ġvisa":10071,"Ġikalawa":10072,"ugad":10073,"Ġpagsasalin":10074,"ĠLourdes":10075,"encia":10076,"obomba":10077,"Ġmakukuha":10078,"Ġ&#":10079,"Ġtemplo":10080,"ĠPri":10081,"ĠCesar":10082,"Ġmedalya":10083,"Ġenvironment":10084,"Ġorganiz":10085,"ĠSuperintendent":10086,"Ġpinagbabaril":10087,"Ġekst":10088,"ĠRudy":10089,"Ġmagsalita":10090,"Ġdirektiba":10091,"ayin":10092,"Kum":10093,"Bong":10094,"ME":10095,"UN":10096,"hand":10097,"ĠHor":10098,"Ġ1977":10099,"ĠArabe":10100,"Ġpamantayang":10101,"77":10102,"Ġpangangatawan":10103,"Ġkumakain":10104,"Ġnalaman":10105,"Ġbuntis":10106,"sobispo":10107,"ĠHukbong":10108,"ipad":10109,"Ġpagsasaliksik":10110,"Ġpahina":10111,"Ġdemokrasya":10112,"jin":10113,"anging":10114,"ĠTom":10115,"Ġfake":10116,"ĠJordan":10117,"Ġespecially":10118,"Ġfacility":10119,"ĠInspector":10120,"oa":10121,"ĠMPD":10122,"Ġfound":10123,"udeta":10124,"ically":10125,"Ġgaganapin":10126,"ĠKit":10127,"Ġaccess":10128,"Ġpundamental":10129,"Ġnaghihintay":10130,"ĠSorsogon":10131,"Ġcel":10132,"inakip":10133,"Ġemployees":10134,"ĠAstr":10135,"alimuot":10136,"Ġ1983":10137,"Ġpampubliko":10138,"Pinay":10139,"Ġruta":10140,"Ġmagkabilang":10141,"Ġmamalya":10142,"Ġmagsasagawa":10143,"Ġsep":10144,"Ġpaunang":10145,"ĠAlejano":10146,"De":10147,"Magk":10148,"Ġaward":10149,"Ġpampasaherong":10150,"Ġarkit":10151,"Ġname":10152,"Ġpagpapanatili":10153,"Magugunita":10154,"ae":10155,"Umaasa":10156,"Ġkabana":10157,"Ġjail":10158,"Ġkomunista":10159,"zada":10160,"utier":10161,"eklar":10162,"Ġartip":10163,"Ġcenters":10164,"Ġenforc":10165,"Ġpagganap":10166,"ibili":10167,"ĠLibya":10168,"Ġgoods":10169,"Ġumuunlad":10170,"Ġcourse":10171,"Ġmagsimula":10172,"alamity":10173,"ĠPandaigdigang":10174,"ĠAfrican":10175,"Ġdivision":10176,"Ġnagwagi":10177,"Ġpinakas":10178,"lying":10179,"laza":10180,"hekutibo":10181,"Ġlibo":10182,"ĠOng":10183,"Ġwel":10184,"Ġaralan":10185,"Ġpinakamaraming":10186,"ĠTsek":10187,"Ġsayaw":10188,"ĠSudan":10189,"ĠUnggarya":10190,"Ġpamim":10191,"ĠTerminal":10192,"Ġbre":10193,"Ġpaningin":10194,"ĠCPP":10195,"Ġvote":10196,"Ġpababa":10197,"Ġmayaman":10198,"ĠClub":10199,"Ġmabilisang":10200,"amilya":10201,"nacio":10202,"Binigyan":10203,"Ġsindikato":10204,"lide":10205,"idal":10206,"ĠAmerica":10207,"Ġnakapaloob":10208,"Ġmaari":10209,"Ġmapay":10210,"Ġkapulisan":10211,"agupa":10212,"Nam":10213,"enna":10214,"chi":10215,"Ġkinar":10216,"Ġpinsan":10217,"ĠAran":10218,"umanhin":10219,"Ġkabataang":10220,"relihiyon":10221,"Nagd":10222,"Ġrangg":10223,"Ġumanoy":10224,"Ġimperyong":10225,"Ġpagmamahal":10226,"aries":10227,"ayuhan":10228,"iring":10229,"Ġinyong":10230,"Ġmakah":10231,"Ġbarilin":10232,"adcast":10233,"Pinap":10234,"ignat":10235,"ĠTao":10236,"Ġnakukuha":10237,"Ġpaaralang":10238,"Ġbilangg":10239,"ĠApol":10240,"Ġpampagtatalik":10241,"ĠLocsin":10242,"Ġmungkahi":10243,"Ġcompanies":10244,"Ġpropeta":10245,"ĠMasbate":10246,"Ġdirektor":10247,"Ġamang":10248,"illes":10249,"Ġpagkakamali":10250,"Ġsuspension":10251,"ĠHerm":10252,"ĠKomun":10253,"ulosis":10254,"ĠMariano":10255,"Ġakdang":10256,"Ġpaglilipat":10257,"umba":10258,"udyo":10259,"Ġsabihing":10260,"Ġconsult":10261,"Ġprior":10262,"Ġsupling":10263,"Ġtumutulong":10264,"Ġsala":10265,"ĠNatural":10266,"Ġpagsusulat":10267,"Ġparangal":10268,"Ġipinatutupad":10269,"Ġiwas":10270,"ĠDangerous":10271,"Ġmabagal":10272,"Ġmatatanda":10273,"ĠOlanda":10274,"ĠPagl":10275,"95":10276,"Ġalm":10277,"ambag":10278,"Ġlumapit":10279,"ĠGl":10280,"Ġcancer":10281,"Ġmarahil":10282,"Ġphone":10283,"Ġmakapags":10284,"Ġlic":10285,"Ġbaguhin":10286,"Ġ121":10287,"Ġpumapayag":10288,"mal":10289,"ĠOplan":10290,"hold":10291,"ming":10292,"rio":10293,"Ġpagsulat":10294,"Ġnatutulog":10295,"UP":10296,"ĠChamp":10297,"Ġlumaki":10298,"Ġnagbago":10299,"Ġmolekula":10300,"Ġsuntok":10301,"ambot":10302,"ĠAction":10303,"Ġboth":10304,"ĠMagsaysay":10305,"ĠSonny":10306,"ĠAf":10307,"DAF":10308,"Kaagad":10309,"ĠGutier":10310,"Ġrespect":10311,"weep":10312,"RAIN":10313,"Ġnatitira":10314,"ikular":10315,"andog":10316,"ĠLouis":10317,"ĠPlan":10318,"Un":10319,"tuloy":10320,"ĠBun":10321,"Ġmahaba":10322,"Ipinak":10323,"Ġlitrato":10324,"operate":10325,"Ġleaders":10326,"41":10327,"63":10328,"onald":10329,"ĠJean":10330,"Ġimplementasyon":10331,"Pa":10332,"alakalan":10333,"Ġ1976":10334,"Ġmutasyon":10335,"inter":10336,"Ġ1985":10337,"Ġkontrobersiya":10338,"ĠLy":10339,"het":10340,"ĠYah":10341,"Ġseremonya":10342,"ibutan":10343,"estion":10344,"alinga":10345,"Ġisinasagawang":10346,"Ġmemorandum":10347,"Ġalternatibong":10348,"anhi":10349,"Ġdalag":10350,"Ġfive":10351,"Ġhenerasyon":10352,"Ġlos":10353,"ĠTar":10354,"alanin":10355,"Ġkosm":10356,"inebra":10357,"Ġstock":10358,"yone":10359,"Ġshall":10360,"Ġsuspend":10361,"ĠOce":10362,"Ġkapistahan":10363,"Ġsigarilyo":10364,"No":10365,"ĠTulfo":10366,"ataya":10367,"Ġebidensiyang":10368,"Ġmis":10369,"Ġpaglaban":10370,"Ġforces":10371,"ĠDomin":10372,"Ġopinyon":10373,"RS":10374,"aloc":10375,"ĠCha":10376,"abahay":10377,"Ġkahalintulad":10378,"Ġestablis":10379,"TU":10380,"ayunman":10381,"Ġincluding":10382,"Ġkagustuhan":10383,"Ġeffect":10384,"esya":10385,"Ġsekta":10386,"ĠSingson":10387,"amasid":10388,"ĠCorinto":10389,"PDEA":10390,"Ġreferences":10391,"Ġsandali":10392,"Ġnagbabala":10393,"ĠRicardo":10394,"ĠPortuges":10395,"ĠProsecutor":10396,"ĠSalceda":10397,"61":10398,"Ġkalawakan":10399,"Ġipinagd":10400,"ĠSenadora":10401,"Ġpahintulot":10402,"body":10403,"Ġcease":10404,"onomous":10405,"Ġepis":10406,"ĠLinares":10407,"gam":10408,"orry":10409,"ĠNi":10410,"Ġbinibig":10411,"ĠApp":10412,"Ġpilak":10413,"Ġmotorc":10414,"Ġmahih":10415,"uce":10416,"Ġcrit":10417,"Ġump":10418,"unton":10419,"ahilig":10420,"ĠAdvis":10421,"Tumut":10422,"ĠDemokratikong":10423,"PI":10424,"irt":10425,"Ġsituation":10426,"ĠSAF":10427,"Ġnamataan":10428,"Ġmananaliksik":10429,"mpahan":10430,"itikan":10431,"akya":10432,"ĠPi":10433,"Ġhurisd":10434,"ugma":10435,"Ġperformance":10436,"bishop":10437,"mam":10438,"ulag":10439,"uments":10440,"ĠMalak":10441,"ĠMababang":10442,"Ġkatauhan":10443,"ĠNan":10444,"Ġgumagalaw":10445,"ĠGutierrez":10446,"Ġtakbo":10447,"ĠMaling":10448,"uban":10449,"oroonan":10450,"urisima":10451,"Ġimbestigador":10452,"iens":10453,"Ġpaumanhin":10454,"Ġpract":10455,"Ġordinaryong":10456,"ihag":10457,"untain":10458,"Ġdinukot":10459,"Ġprinc":10460,"Ġpandagat":10461,"Ġaktres":10462,"Ġkandidatura":10463,"ĠCabinet":10464,"uming":10465,"ignal":10466,"estival":10467,"Ġpakiramdam":10468,"ords":10469,"Ġhonor":10470,"Alam":10471,"Ġcamp":10472,"opter":10473,"ĠRomulo":10474,"ĠUg":10475,"trans":10476,"Ġpulitiko":10477,"Ġspeech":10478,"eros":10479,"ĠLut":10480,"ĠDetection":10481,"Ġmoment":10482,"ilyon":10483,"ĠNaga":10484,"Ġrecruit":10485,"Ġkorap":10486,"Ġrestr":10487,"ĠPCG":10488,"Ġprayoridad":10489,"Ġtrahedya":10490,"ĠSamantala":10491,"Ġmakarating":10492,"Ġpinangalanang":10493,"Ġsexual":10494,"unist":10495,"embly":10496,"ĠOsmena":10497,"Ġkalinangan":10498,"ĠGall":10499,"Ġaver":10500,"ĠNoong":10501,"Ġfriend":10502,"Ġcompound":10503,"ĠKabataan":10504,"ware":10505,"arantine":10506,"ĠKil":10507,"Ġumiral":10508,"Ġlibu":10509,"Ġsober":10510,"akbong":10511,"Ġpagrer":10512,"stand":10513,"ived":10514,"Ġanother":10515,"Ġtechnical":10516,"ĠPent":10517,"ĠPurisima":10518,"oses":10519,"usog":10520,"Ġkarga":10521,"Ġlabag":10522,"ĠBrazil":10523,"Le":10524,"ĠMahal":10525,"ĠCBN":10526,"ĠEric":10527,"Ġisdang":10528,"Ġilarawan":10529,"owers":10530,"Ġ85":10531,"ĠMercado":10532,"ci":10533,"alubong":10534,"umpleto":10535,"ihis":10536,"vid":10537,"ĠSabi":10538,"Ġ1972":10539,"ĠAndaya":10540,"ermo":10541,"Ġputi":10542,"antiya":10543,"Ġgampan":10544,"ĠLagman":10545,"ĠNab":10546,"alez":10547,"Ġviral":10548,"Ġnararanas":10549,"ingkod":10550,"ĠKaz":10551,"Ġkomento":10552,"Ġpartikulo":10553,"Ani":10554,"aning":10555,"Ġinvestig":10556,"Ġnakamit":10557,"ripisyo":10558,"entina":10559,"anood":10560,"Ġikalimang":10561,"ĠAgusan":10562,"Ġjackpot":10563,"amili":10564,"62":10565,"Namatay":10566,"Ġanghel":10567,"Ġsinam":10568,"Ġbelieve":10569,"erang":10570,"olos":10571,"ĠWomen":10572,"Ġyelo":10573,"Ġregalo":10574,"Ġkontribusyon":10575,"alot":10576,"angkilik":10577,"Ġnaming":10578,"83":10579,"Ġguhit":10580,"ĠIndian":10581,"charge":10582,"aler":10583,"ĠKrus":10584,"Ġbinti":10585,"elih":10586,"Ġpamangkin":10587,"Ġkailanman":10588,"urt":10589,"Ġnagng":10590,"Ġanomalya":10591,"ĠRespons":10592,"Ġkonstr":10593,"umbalik":10594,"ĠMinistro":10595,"ught":10596,"ued":10597,"Ġsouth":10598,"Ġpist":10599,"Ġhub":10600,"Ġgang":10601,"urgo":10602,"ĠSubic":10603,"Ġrider":10604,"Ġsambay":10605,"ineering":10606,"Ġidineklarang":10607,"ĠEuropean":10608,"rera":10609,"estor":10610,"Ġvess":10611,"ĠBasil":10612,"ellow":10613,"acer":10614,"ĠYo":10615,"ĠSeptuag":10616,"ĠKapuluang":10617,"Ġtoday":10618,"erty":10619,"Ġguward":10620,"Ġangg":10621,"Ġnec":10622,"ugi":10623,"Ġabala":10624,"Ġdepensa":10625,"Ġliberal":10626,"ĠSeptuagint":10627,"Ġgiven":10628,"ĠDigmaan":10629,"Ġmagtungo":10630,"Ġaktuwal":10631,"ĠFPJ":10632,"entil":10633,"ĠTB":10634,"ayaang":10635,"Ngayon":10636,"HIN":10637,"Ġduty":10638,"Ġpamas":10639,"mpalatayang":10640,"ĠRum":10641,"ĠLig":10642,"Ġpinakamalaki":10643,"Ġnarinig":10644,"Ġokasyon":10645,"ĠAdd":10646,"ĠBernard":10647,"Inatasan":10648,"aboy":10649,"ĠSist":10650,"indalawang":10651,"Ġpagkad":10652,"ĠBak":10653,"ĠRomual":10654,"Ġtagapagp":10655,"Ġflu":10656,"ĠKalihim":10657,"Ġnagreresulta":10658,"Ġmonitoring":10659,"Kad":10660,"Ġangkin":10661,"ĠGinebra":10662,"bak":10663,"atian":10664,"agdan":10665,"Ġpagharap":10666,"ĠCanav":10667,"Ġbandido":10668,"Ġiwasan":10669,"ĠBrig":10670,"Itinuturing":10671,"iingat":10672,"Ġmangh":10673,"ĠPalest":10674,"nie":10675,"Ġzone":10676,"Ġtulak":10677,"Ġbetter":10678,"Ġilipat":10679,"Ġpagkag":10680,"Ġpagtugon":10681,"Ġdouble":10682,"ĠObama":10683,"Ġsmuggling":10684,"ĠBatanes":10685,"Ġsanggunian":10686,"Ġkun":10687,"Ġsuot":10688,"ĠCBCP":10689,"ĠIsidro":10690,"ĠSentral":10691,"Laban":10692,"Ġpiy":10693,"Ġpasyenteng":10694,"Ġapo":10695,"Ġenter":10696,"usad":10697,"uking":10698,"ify":10699,"Ġdiv":10700,"apt":10701,"Ġnegosyanteng":10702,"ĠCanavese":10703,"post":10704,"yahan":10705,"Ġdism":10706,"idavit":10707,"uhuli":10708,"Ġmagpak":10709,"ĠInternal":10710,"Ġdefense":10711,"Ġmapigilan":10712,"ĠPrime":10713,"Ġpunsiyon":10714,"Ġelementong":10715,"),\"":10716,"come":10717,"ĠMass":10718,"Ġtumawag":10719,"Ġdepos":10720,"Tinang":10721,"Ġnasawing":10722,"iwalaan":10723,"lamation":10724,"isidad":10725,"Ġrevol":10726,"opol":10727,"Ġgramo":10728,"ĠAppe":10729,"su":10730,"Ġreform":10731,"ĠWolf":10732,"Ġpaksang":10733,"Ġpilosopo":10734,"Ġmasusing":10735,"Ġuli":10736,"oros":10737,"Ġprakt":10738,"ĠHilaga":10739,"Ġmoralidad":10740,"angel":10741,"ipik":10742,"enan":10743,"Ġadministratibo":10744,"Ġdalampasigan":10745,"istor":10746,"Ġpit":10747,"agawan":10748,"uate":10749,"Ġpanrelihiyon":10750,"Ġ69":10751,"Ġnagka":10752,"ĠPDP":10753,"ĠAlfredo":10754,"Ġchildren":10755,"ĠAstronom":10756,"uusap":10757,"Ġsix":10758,"akailang":10759,"abawas":10760,"Ġedukasyong":10761,"Ġitinaas":10762,"Ġnakaraan":10763,"ĠMonteneg":10764,"atayong":10765,"Ġnagsus":10766,"unication":10767,"Ġminamaneho":10768,"Ġmax":10769,"Ġauthority":10770,"don":10771,"Ġmasaya":10772,"ĠPahayag":10773,"ĠLar":10774,"stan":10775,"ĠBasketball":10776,"Ġiniutos":10777,"iana":10778,"ĠGood":10779,"Ġkabay":10780,"Ġhomo":10781,"ĠTak":10782,"uriin":10783,"Ġpinapayagan":10784,"milyong":10785,"Ġhaz":10786,"ubig":10787,"Ġsumabog":10788,"atagan":10789,"Ġitigil":10790,"ured":10791,"Ġipagb":10792,"Ġinm":10793,"Ġlumahok":10794,"aneo":10795,"ĠDapat":10796,"Ġdiffer":10797,"Ġnakakapag":10798,"ĠBatasan":10799,"Ġplaneta":10800,"Tulad":10801,"alitanghali":10802,"ĠPaolo":10803,"arro":10804,"Ġmalal":10805,"ĠProject":10806,"ĠCora":10807,"Ġpagmamay":10808,"lish":10809,"Ġtweet":10810,"ĠMV":10811,"Ġkabayo":10812,"irerek":10813,"duct":10814,"Ġepektibong":10815,"Ġkontinente":10816,"Ġprotocol":10817,"part":10818,"Ġlulan":10819,"ĠNCRPO":10820,"Ġkumpirmadong":10821,"judicial":10822,"anger":10823,"Kahapon":10824,"Ġistruktura":10825,"Rudy":10826,"Ġsaser":10827,"Ġbisita":10828,"iform":10829,"Ġalamat":10830,"Bagamat":10831,"bos":10832,"Ġpi":10833,"Ġimportant":10834,"Ġkinaroroonan":10835,"Ġmagnet":10836,"Ġpagkakasangkot":10837,"ĠNep":10838,"ĠYu":10839,"Ġmigr":10840,"gabi":10841,"ĠEsper":10842,"Ġdumadaan":10843,"alalahanan":10844,"Ġembahada":10845,"ĠSev":10846,"ĠSmith":10847,"ĠYahw":10848,"kahulugan":10849,"rano":10850,"Ġdinal":10851,"evard":10852,"ĠMalou":10853,"Ġpagkah":10854,"Ġpagsasanib":10855,"Ġnagmam":10856,"Ġtalampakan":10857,"Ġlimitado":10858,"Ġipatutupad":10859,"ician":10860,"Ġnagbub":10861,"impluwensiya":10862,"ĠZarate":10863,"Ġklima":10864,"ween":10865,"Ġkatanungan":10866,"lip":10867,"sahan":10868,"Ġkatawang":10869,"izon":10870,"Ġcontain":10871,"ĠValent":10872,"Ġtanggalin":10873,"ĠJov":10874,"ĠUson":10875,"inant":10876,"Ġawt":10877,"Ġlikido":10878,"Ġtranspar":10879,"Ġaccounts":10880,"Ġcost":10881,"Ġpanatil":10882,"aleon":10883,"Ġpangp":10884,"ĠPhivolcs":10885,"Ġkumilos":10886,"pektura":10887,"ĠArchbishop":10888,"ĠIglesia":10889,"Part":10890,"akang":10891,"Ġkompanyang":10892,"alakasin":10893,"MB":10894,"Ġcalamity":10895,"ĠKabilang":10896,"COO":10897,"ahalal":10898,"ĠIngglatera":10899,"ugbog":10900,"Ġvaccine":10901,"ektado":10902,"Ġpinamagatang":10903,"Ġanatomiya":10904,"fort":10905,"Ġpagsulong":10906,"Ġprus":10907,"ĠSampaloc":10908,"Kan":10909,"Ġmobile":10910,"Ġsundin":10911,"Ġniy":10912,"ibol":10913,"Ġmau":10914,"ĠOt":10915,"ĠMarquez":10916,"Ġnahalal":10917,"Ġetniko":10918,"Ġsed":10919,"Ġasukal":10920,"Ġnamumuno":10921,"Ġped":10922,"orin":10923,"Ġacting":10924,"Ġimmed":10925,"Ġmeasures":10926,"anse":10927,"ucture":10928,"Ġhighway":10929,"Ġmajor":10930,"Ġpagkuk":10931,"Ġkapara":10932,"Ġnakatakas":10933,"alisasyon":10934,"Ġsoft":10935,"ĠLorenzo":10936,"wirang":10937,"Ġdiwang":10938,"Ġrelig":10939,"ĠEmmanuel":10940,"ĠTeoriya":10941,"Ġinspirasyon":10942,"ĠGuill":10943,"irl":10944,"ĠWhite":10945,"ĠAyala":10946,"Ġbranch":10947,"Ġsumis":10948,"Ġorganization":10949,"Ġnakasalalay":10950,"inger":10951,"ĠDENR":10952,"Ġprotina":10953,"arangang":10954,"Ġnagbitiw":10955,"ierda":10956,"ĠTorre":10957,"79":10958,"aris":10959,"ĠFe":10960,"Ġmabuhay":10961,"Ġpangunahin":10962,"ĠJeff":10963,"DI":10964,"ĠIntelligence":10965,"awasak":10966,"olod":10967,"84":10968,"Ġkomb":10969,"82":10970,"Ġlalam":10971,"change":10972,"ĠChe":10973,"ehistro":10974,"Ġkumikilos":10975,"ĠECQ":10976,"langan":10977,"Ġteroristang":10978,"ĠMontenegro":10979,"IBA":10980,"ĠId":10981,"ĠLinyang":10982,"ĠProtestante":10983,"81":10984,"nament":10985,"Ġkind":10986,"ĠLotto":10987,"tenance":10988,"ĠDOTr":10989,"Ġbari":10990,"ĠPio":10991,"Ġkanser":10992,"Ġrock":10993,"Ġumaayon":10994,"RE":10995,"Ġsanang":10996,"Ġibasura":10997,"ahasa":10998,"ube":10999,"Ġitat":11000,"Ġkabuo":11001,"ĠAllan":11002,"Ġantrop":11003,"Ġnagpapatuloy":11004,"Ġeksperto":11005,"Ġrelations":11006,"elyn":11007,"impluwensiyahan":11008,"MO":11009,"agana":11010,"ehal":11011,"ĠCubao":11012,"ker":11013,"ĠSeg":11014,"estong":11015,"Ġkakaibang":11016,"Ġtagasuporta":11017,"Ġpossible":11018,"Ġtemporary":11019,"itasyon":11020,"Ġbalitang":11021,"Ġinyo":11022,"Ġinan":11023,"ĠLacierda":11024,"Ġnanging":11025,"'ll":11026,"Ġsinusuportahan":11027,"ĠSuarez":11028,"ĠBoulevard":11029,"ĠThere":11030,"Ġriles":11031,"Ġproceed":11032,"inate":11033,"Ġgro":11034,"Ġpagdami":11035,"Ġsegundo":11036,"ĠInggles":11037,"ĠCorazon":11038,"Ġbreak":11039,"ĠIgnacio":11040,"Ġtema":11041,"Ġnabatid":11042,"risto":11043,"Ġeksperimento":11044,"bor":11045,"Ġtagal":11046,"ĠComprehensive":11047,"oor":11048,"isf":11049,"ĠMap":11050,"400":11051,"report":11052,"ĠDen":11053,"Ġpagsasabing":11054,"ĠBuild":11055,"ĠAtlantiko":11056,"Ġmer":11057,"ibayan":11058,"Ġren":11059,"Ġrace":11060,"Ġkinok":11061,"Ġnakakita":11062,"atatag":11063,"bibigay":11064,"Ġpuro":11065,"ipika":11066,"Ġ62":11067,"elecomm":11068,"Ġinflation":11069,"ĠPont":11070,"Ġwhe":11071,"ubaya":11072,"acre":11073,"Ġpampan":11074,"Ġkatanggap":11075,"undukan":11076,"Ġhango":11077,"ĠVictoria":11078,"Ġmakinang":11079,"Ġkabaligt":11080,"Ġtekstong":11081,"dep":11082,"Ġtonel":11083,"ĠPob":11084,"ĠRong":11085,"ĠDios":11086,"than":11087,"Ġpalad":11088,"Alba":11089,"Ġitinuring":11090,"Ġanaly":11091,"Ġkagandahan":11092,"abs":11093,"Ġhula":11094,"Ġinaalam":11095,"ĠProvince":11096,"ufact":11097,"alad":11098,"ĠMich":11099,"andal":11100,"Ġceremony":11101,"date":11102,"Ġhating":11103,"Ġpumapasok":11104,"Ġnapaulat":11105,"Ġmachine":11106,"lig":11107,"lao":11108,"Madalas":11109,"ĠAraneta":11110,"iones":11111,"Ġilaw":11112,"ĠCommon":11113,"Ġprostit":11114,"Ġhumiwalay":11115,"Ġmagdulot":11116,"Ġpinaslang":11117,"just":11118,"Ġgul":11119,"ĠLes":11120,"Ġpagkapangulo":11121,"Ġpaghahain":11122,"Ġpananalapi":11123,"Ġmanuskrito":11124,"Ġteorya":11125,"ĠBise":11126,"ubatan":11127,"empre":11128,"Ġespesy":11129,"ĠSimon":11130,"Ġmatulungan":11131,"tan":11132,"Ġgold":11133,"Ġkategorya":11134,"Ġbinabaybay":11135,"host":11136,"ĠDoc":11137,"Ġrisk":11138,"ĠHout":11139,"Ġprok":11140,"Ġnalalapit":11141,"MPD":11142,"fi":11143,"ĠAT":11144,"ĠBest":11145,"Ġkatulong":11146,"Ġpaggalang":11147,"DILG":11148,"ĠBy":11149,"ĠMalolos":11150,"Ġpinangang":11151,"ĠKanluranin":11152,"Ġraid":11153,"ĠAppeals":11154,"aganda":11155,"arga":11156,"ampu":11157,"Ġsandat":11158,"ocratic":11159,"ismis":11160,"Ġroom":11161,"Ġunt":11162,"Ġsanga":11163,"ione":11164,"endahan":11165,"Ġtreatment":11166,"Ġtre":11167,"Ġkatiyak":11168,"Katumbas":11169,"&#":11170,"Ġtick":11171,"ĠPN":11172,"ĠEliz":11173,"ĠWorks":11174,"Ġpuwang":11175,"Ġobliga":11176,"ript":11177,"Ġgastusin":11178,"Ġblock":11179,"quarters":11180,"azz":11181,"Ġlohika":11182,"Ġkolonya":11183,"edad":11184,"Ġbayaran":11185,"Ġpinakaunang":11186,"Ġkidnapping":11187,"ĠConcep":11188,"Ġnakasakay":11189,"ĠMiddle":11190,"oco":11191,"Ġapela":11192,"ĠFranch":11193,"Ġpagkakataong":11194,"Ġitinuro":11195,"ĠManag":11196,"ĠZone":11197,"Ġkumplet":11198,"Ġphen":11199,"Ġunders":11200,"Ġ`":11201,"Ġkudeta":11202,"ĠNot":11203,"oda":11204,"Ġsinak":11205,"Ġilabas":11206,"ĠYolanda":11207,"Ġpinup":11208,"ĠLozada":11209,"agos":11210,"ĠBukod":11211,"Ġinumin":11212,"Ġweather":11213,"Ġprusisyon":11214,"abeth":11215,"ĠMot":11216,"asin":11217,"anayang":11218,"ĠTito":11219,"indow":11220,"ĠLito":11221,"ehiya":11222,"Ġsakup":11223,"ahangad":11224,"Ġnegatibo":11225,"Ġparok":11226,"Ġobserbasyon":11227,"Ġham":11228,"igen":11229,"Ġikinam":11230,"Ġpanlaban":11231,"ĠMagdalo":11232,"Ġpermanenteng":11233,"ements":11234,"Ġmekaniks":11235,"Ġ1930":11236,"Ġ66":11237,"Ġgulo":11238,"upok":11239,"uyod":11240,"Ġkontrobersyal":11241,"Ġhistorikal":11242,"ĠAstronomical":11243,"ĠCop":11244,"odiya":11245,"Nakapag":11246,"ĠMoh":11247,"Ġritwal":11248,"iganti":11249,"ĠGrade":11250,"ĠTorres":11251,"aEURoe":11252,"Ġeskuwel":11253,"Ġpagtataas":11254,"ayunin":11255,"Ġtitulong":11256,"Ġpanggag":11257,"ĠKer":11258,"ambuhay":11259,"Ġtiyakin":11260,"Ġrequest":11261,"gol":11262,"Ġold":11263,"ĠMatapos":11264,"illera":11265,"Ġoutbreak":11266,"uls":11267,"Ġmakalipas":11268,"Ġtaglay":11269,"ynth":11270,"Ġless":11271,"Ġbiyolohiya":11272,"board":11273,"Ġpagbabawas":11274,"Ġprepar":11275,"43":11276,"ĠAudit":11277,"uper":11278,"ugay":11279,"Ġsumasal":11280,"Ġpinagp":11281,"ĠZealand":11282,"MMDA":11283,"Ġpito":11284,"Ġkasunduang":11285,"ĠConcepcion":11286,"atasan":11287,"stiya":11288,"YA":11289,"bl":11290,"ĠPop":11291,"Ġhid":11292,"Ġituloy":11293,"Ġmakasaysayang":11294,"Nakatakdang":11295,"eklarasyon":11296,"Ġmakagawa":11297,"amaan":11298,"ĠShia":11299,"Ġmanggagawang":11300,"ĠIlang":11301,"ĠRaym":11302,"antino":11303,"ĠUt":11304,"Ġpanuntunan":11305,"neum":11306,"Ġassistant":11307,"Ġpositive":11308,"ĠCur":11309,"ĠDiv":11310,"ĠGom":11311,"ibigang":11312,"Ġconcerned":11313,"unlaran":11314,"Iba":11315,"zam":11316,"trato":11317,"Ġedisyon":11318,"estaurant":11319,"ĠText":11320,"ahilaga":11321,"yansa":11322,"Ġpagsamba":11323,"Ġpagkakal":11324,"Inaasahang":11325,"Ġsentral":11326,"Ipinanganak":11327,"ĠYahweh":11328,"BL":11329,"apano":11330,"enang":11331,"Ġpagsuporta":11332,"Ġnasira":11333,"Ġbigyang":11334,"Ġebolusyonar":11335,"ĠPulse":11336,"Ġsea":11337,"Ġmalayong":11338,"Ġnagmungkahi":11339,"ĠCambod":11340,"Ġmakakatulong":11341,"Ġnagngangalang":11342,"Ġresort":11343,"eoph":11344,"Ġpaggunita":11345,"Ġamong":11346,"atwiran":11347,"Ġlif":11348,"Ġhinirang":11349,"ĠRoberto":11350,"Ġprofessional":11351,"MU":11352,"ĠChi":11353,"Ġpinakamalapit":11354,"Ġpuwit":11355,"Ġistasyon":11356,"dos":11357,"uslit":11358,"ĠDZ":11359,"ogen":11360,"ĠShine":11361,"yari":11362,"ĠCun":11363,"Ġrepl":11364,"Ġpapayagan":11365,"Ġaplik":11366,"Ġbakas":11367,"Ġnya":11368,"Ġdoing":11369,"ĠBayani":11370,"Ġmangangalakal":11371,"ĠExpressway":11372,"otong":11373,"urel":11374,"ĠGreat":11375,"ĠAirlines":11376,"Ġtanod":11377,"ĠMol":11378,"ibution":11379,"ĠNasa":11380,"ĠBerna":11381,"ĠKomn":11382,"Ġder":11383,"Ġnasus":11384,"Ġmahinang":11385,"ĠTangway":11386,"ĠDatu":11387,"ĠYam":11388,"Ġ95":11389,"ĠBA":11390,"ĠLao":11391,"riors":11392,"Ġabroad":11393,"Ġpagkasira":11394,"Narito":11395,"ĠEslobakya":11396,"ĠHow":11397,"uhanan":11398,"Ġmagpahanggang":11399,"yla":11400,"ĠSWS":11401,"ĠARMM":11402,"Ġpinto":11403,"Ġhit":11404,"ĠMedia":11405,"ĠRivera":11406,"Ġimahen":11407,"ters":11408,"ĠTu":11409,"Ġnakatayo":11410,"atauhan":11411,"ovo":11412,"heric":11413,"Ġnahulog":11414,"Noynoy":11415,"Ġkred":11416,"Ġwalo":11417,"Ġpauwi":11418,"Ġalleg":11419,"Ġpagpapadala":11420,"Ġkuwarto":11421,"Ġharapin":11422,"pt":11423,"ĠTrop":11424,"ĠTsip":11425,"Ġaktibo":11426,"Ġesc":11427,"ĠAbante":11428,"abilanggo":11429,"ĠHudyong":11430,"ĠPeace":11431,"ĠFinals":11432,"Ġresearch":11433,"ekusyon":11434,"ried":11435,"Ġnapatunayan":11436,"ĠHouten":11437,"ĠFu":11438,"Ġaksyon":11439,"ĠDio":11440,"ugpo":11441,"Ġmakilala":11442,"Ġisailalim":11443,"Ġpagtanggi":11444,"Ġnaiulat":11445,"ĠEdgardo":11446,"light":11447,"endo":11448,"Ġitut":11449,"ambahay":11450,"tainment":11451,"iliman":11452,"Ġheart":11453,"Ġ76":11454,"Aminado":11455,"nanakaw":11456,"anz":11457,"Ġginagamitan":11458,"ĠRadyo":11459,"92":11460,"Ġungg":11461,"Ġmilitanteng":11462,"Ġbabalik":11463,"Ġbalota":11464,"amasapano":11465,"Ġmetr":11466,"Ġkr":11467,"akar":11468,"Ġkumuk":11469,"andidato":11470,"ĠJoint":11471,"ramento":11472,"Ġnangunguna":11473,"Ġnakamamatay":11474,"elda":11475,"Ġmaunlad":11476,"Ġmasiguro":11477,"Ġcountries":11478,"Ġsuc":11479,"itin":11480,"ĠBana":11481,"Ġnaghah":11482,"Ġregistration":11483,"Ġ1935":11484,"Ġkuha":11485,"akers":11486,"Ġkansel":11487,"Ġpagkakap":11488,"Ġbakla":11489,"ĠColoma":11490,"Ġmakakapag":11491,"ĠMisamis":11492,"ĠBriga":11493,"Dumating":11494,"Ġtans":11495,"awis":11496,"ĠNoli":11497,"Ġgumaling":11498,"ĠEnter":11499,"Ġmulti":11500,"awin":11501,"Ġtrain":11502,"Ġpalatandaan":11503,"ilitary":11504,"ĠPambansa":11505,"ĠKataas":11506,"operation":11507,"Ġpaglitaw":11508,"Ġyet":11509,"ĠRevenue":11510,"acteria":11511,"Ġpolisiya":11512,"ĠTsipre":11513,"ns":11514,"entr":11515,"ĠImp":11516,"Ġmalay":11517,"Ġarestuhin":11518,"ahinga":11519,"ĠSinas":11520,"ĠGeoph":11521,"estra":11522,"Ġanuman":11523,"Ġordinan":11524,"ĠVilla":11525,"ĠBacolod":11526,"Ġurban":11527,"ĠSuwesya":11528,"Ġsaserdote":11529,"Naka":11530,"Ġlove":11531,"enas":11532,"Ġpangkultura":11533,"Ġpambobomba":11534,"Ġtask":11535,"Ġforum":11536,"Ġpagtatalo":11537,"ova":11538,"ĠJaime":11539,"mospheric":11540,"Ġharang":11541,"ocor":11542,"Ġdrivers":11543,"Ġqualif":11544,"Ġcharge":11545,"Ġterrorist":11546,"ilong":11547,"Ġchalleng":11548,"Ġnagdadala":11549,"Ġbeter":11550,"ĠTasyo":11551,"Ġpangarap":11552,"Ġnapunta":11553,"ĠArturo":11554,"Ġindependent":11555,"Ġfrontlin":11556,"ĠKomnenos":11557,"ayber":11558,"Ġdilaw":11559,"imar":11560,"ĠRal":11561,"Ġalign":11562,"Ġkagaya":11563,"iseum":11564,"Ġipinagk":11565,"Malou":11566,"Ġhtt":11567,"angking":11568,"Ġresist":11569,"ĠStud":11570,"Ġsadyang":11571,"ĠBukid":11572,"Ġreaksyon":11573,"Ġtrafficking":11574,"Ġbotohan":11575,"etic":11576,"Ġmaglal":11577,"Ġlumubog":11578,"ĠAntio":11579,"ĠAnderson":11580,"Ġsumasakop":11581,"Ġpagkakatuklas":11582,"ĠPakistan":11583,"intindihan":11584,"ĠMalta":11585,"ĠCardinal":11586,"aku":11587,"Ġransom":11588,"ĠHay":11589,"Ġkarunungan":11590,"onsumo":11591,"mm":11592,"agin":11593,"ĠBeda":11594,"Ġetika":11595,"water":11596,"ĠMamasapano":11597,"ĠBik":11598,"Ġmapanatili":11599,"Ġmagsisimula":11600,"yenda":11601,"ĠLight":11602,"Ġpasado":11603,"ancy":11604,"Ġmawala":11605,"Ġpilit":11606,"Ġtell":11607,"ĠKur":11608,"inez":11609,"Ġmamimili":11610,"ĠCoalition":11611,"Natagpuan":11612,"usta":11613,"Ġ600":11614,"Ġsubject":11615,"ĠJV":11616,"ĠInternet":11617,"Ġinakusahan":11618,"alerios":11619,"asyonal":11620,"ĠCirc":11621,"Ġkamakailang":11622,"Ġliter":11623,"Ġaverage":11624,"ĠGeophysical":11625,"Ġaid":11626,"wealth":11627,"Ġbetween":11628,"gular":11629,"ĠEqu":11630,"Ġnakakaraan":11631,"islative":11632,"ĠPMA":11633,"Ġhorm":11634,"abawasan":11635,"Ġallowance":11636,"Ġikinamatay":11637,"alamang":11638,"Ġdadal":11639,"ocus":11640,"ĠCommander":11641,"Ġmaglabas":11642,"Ġtenyente":11643,"Ġpamamahagi":11644,"ĠXi":11645,"ĠEnglish":11646,"Ġpagwaw":11647,"iot":11648,"Ġbug":11649,"ĠToy":11650,"ett":11651,"Ġmakar":11652,"arlika":11653,"Mahigit":11654,"Ġeskuwelahan":11655,"US":11656,"Ġkalipunan":11657,"Ġnagtagal":11658,"Ġihayag":11659,"Ġmakapangyarihang":11660,"Ġkapansanan":11661,"ori":11662,"ĠLove":11663,"Ġnagkaka":11664,"Ġleast":11665,"Ġliga":11666,"iping":11667,"ĠHy":11668,"try":11669,"Ġvalid":11670,"Ġtagapang":11671,"ĠJerem":11672,"Ġnagtataglay":11673,"alap":11674,"Ġuugnay":11675,"Ġpinagsamang":11676,"Ġimpormasyong":11677,"Ġelectric":11678,"Ġsosy":11679,"Ġpagtatangka":11680,"Ġkwantum":11681,"LD":11682,"PE":11683,"Ġkayong":11684,"Ġreview":11685,"ensis":11686,"Ġplac":11687,"Ġbilog":11688,"Ngayong":11689,"ahon":11690,"Ġgulong":11691,"irya":11692,"Ġ1920":11693,"Ġkaratig":11694,"Nagbabala":11695,"Ġelekt":11696,"Ġfeel":11697,"Ġrif":11698,"Ġnangako":11699,"Ġpatunayan":11700,"ĠAbalos":11701,"talion":11702,"ĠKagawaran":11703,"ĠNLEX":11704,"Ġexecut":11705,"Ġdrayber":11706,"ĠAtmospheric":11707,"Ġkabutihan":11708,"iwanan":11709,"Ġpagbigkas":11710,"Ġpaghahati":11711,"ĠEmilio":11712,"Ġdeboto":11713,"Ġvalue":11714,"Ġsumasaklaw":11715,"Ġindivid":11716,"talik":11717,"Ġibinalik":11718,"oice":11719,"Ġbayag":11720,"ĠGad":11721,"Ġsumakay":11722,"Ġreturn":11723,"Ġbuksan":11724,"ĠNicol":11725,"Ġmaingat":11726,"Ġtitle":11727,"Ġnoo":11728,"ĠAlliance":11729,"Ġtinanggal":11730,"Ġtelepono":11731,"tad":11732,"eptong":11733,"Ġarrival":11734,"Ġkorup":11735,"Ġappointment":11736,"ĠVis":11737,"ĠColiseum":11738,"ĠAwards":11739,"Ġmawalan":11740,"Ġpension":11741,"abihin":11742,"Ġtaliwas":11743,"Ġengkuwentro":11744,"ĠPantaleon":11745,"ĠRongalerios":11746,"pay":11747,"Ġatb":11748,"aprubahan":11749,"Ġscre":11750,"arinlan":11751,"Ġmatematikal":11752,"alawigin":11753,"ĠPagd":11754,"Ġkayat":11755,"Ġtumpak":11756,"Ġisyung":11757,"Ġdiskrim":11758,"Ġmalag":11759,"ĠSK":11760,"ĠHawa":11761,"Ġmusikang":11762,"Ġpaglalaro":11763,"Ġschools":11764,"NN":11765,"ĠAIDS":11766,"Ġipak":11767,"ĠTrinidad":11768,"Ġnakakalipas":11769,"Ġunivers":11770,"Ġkurso":11771,"Ġbintana":11772,"Ġmakapangyarihan":11773,"ĠGas":11774,"Ġpalibot":11775,"Ġkandidatong":11776,"itus":11777,"erve":11778,"alangitan":11779,"ĠElizabeth":11780,"ores":11781,"ĠEh":11782,"Ġpinakamahalagang":11783,"heno":11784,"Ġdone":11785,"istikong":11786,"ĠPho":11787,"ĠZoro":11788,"aksiyong":11789,"Ġkahalili":11790,"Ġpinagtibay":11791,"ĠPatay":11792,"Ġtribo":11793,"ĠHelen":11794,"ĠGermany":11795,"Ġlarangang":11796,"reto":11797,"Ġsays":11798,"Ġwrit":11799,"ĠPersa":11800,"ĠBarbers":11801,"ned":11802,"Ġminam":11803,"unot":11804,"apatuloy":11805,"Ġkinilalang":11806,"ĠAutonomous":11807,"ingil":11808,"Ġasa":11809,"Ġpagdid":11810,"Ġpred":11811,"ĠTimot":11812,"ean":11813,"ece":11814,"Ġmaan":11815,"Ġstudents":11816,"ĠPinlandiya":11817,"Ġhinihingi":11818,"Ġhostage":11819,"ĠEmp":11820,"anoorin":11821,"ansk":11822,"ĠAklan":11823,"inian":11824,"ĠCross":11825,"Ġpumalit":11826,"Ġhits":11827,"ĠOdis":11828,"Ġisasagawa":11829,"ĠPamantasang":11830,"Ġkatamtamang":11831,"Ġles":11832,"ĠTN":11833,"ehiyong":11834,"Ġmans":11835,"urb":11836,"ĠTob":11837,"ĠHis":11838,"600":11839,"cinct":11840,"Ġsement":11841,"ĠPatuloy":11842,"ads":11843,"taon":11844,"Ġmekanismo":11845,"opya":11846,"Ġmajority":11847,"Ġfamili":11848,"Ġlumabag":11849,"Ġpagtingin":11850,"Ġsinulat":11851,"rome":11852,"Ġnagtit":11853,"Ġawiting":11854,"ESDA":11855,"ged":11856,"imat":11857,"Ġtumatakbo":11858,"Ġboxing":11859,"Ġpintuan":11860,"Ġmulta":11861,"ubuti":11862,"Ġpagsasampa":11863,"Ipinap":11864,"ĠRalph":11865,"Ġpabahay":11866,"Ġkagabi":11867,"ĠResearch":11868,"Ġnakapagtala":11869,"ĠBilang":11870,"inatnan":11871,"ĠCommonwealth":11872,"Ġnatukoy":11873,"Ġpaglusob":11874,"Ġstress":11875,"Ġpakikit":11876,"alaban":11877,"Ġage":11878,"sanib":11879,"nilad":11880,"ĠRumanya":11881,"Ġuntil":11882,"Ġtiw":11883,"Ġtinuturing":11884,"oras":11885,"upang":11886,"Ġrelease":11887,"ĠFour":11888,"Ġlamb":11889,"unidad":11890,"Ġmalalang":11891,"Ġvend":11892,"Ġinteraksiyon":11893,"ugas":11894,"Ġ1939":11895,"Ġconvict":11896,"ĠManalo":11897,"Ġpagpasa":11898,"Ġcontact":11899,"Ġconfirm":11900,"ĠElectric":11901,"med":11902,"pinde":11903,"Ġmagawa":11904,"Ġmagaganap":11905,"Ġimprastr":11906,"Ġlikuran":11907,"Ġmesiyas":11908,"EU":11909,"Ġtrack":11910,"Ġpaghinga":11911,"ĠSwed":11912,"Ġguwardiya":11913,"has":11914,"Ġlola":11915,"ĠRTC":11916,"ĠMalakanyang":11917,"ehold":11918,"Ġresident":11919,"Ġahente":11920,"Ġmonths":11921,"ĠRomualdez":11922,"ĠHep":11923,"Ġpinagmum":11924,"ĠPing":11925,"Ġriding":11926,"otea":11927,"ĠSamuel":11928,"iola":11929,"asag":11930,"Ġmapan":11931,"Ġamn":11932,"hati":11933,"Nakilala":11934,"Ġmikro":11935,"IG":11936,"ahinang":11937,"ĠNeri":11938,"Ġgrab":11939,"Ġprevent":11940,"ĠCharity":11941,"Ġmic":11942,"alili":11943,"ems":11944,"ĠKasi":11945,"ĠNoruw":11946,"Ġkorona":11947,"ĠAgainst":11948,"gia":11949,"Ġkph":11950,"Ġdraft":11951,"Ġdinakip":11952,"Ġkonst":11953,"ĠAgreement":11954,"Ġneuro":11955,"ĠBab":11956,"ĠKag":11957,"Ġkapas":11958,"Ġkultural":11959,"Ġpick":11960,"Ġinutusan":11961,"ĠJanet":11962,"ners":11963,"ĠSiya":11964,"Ġplaka":11965,"Ġisinumite":11966,"Ġlaws":11967,"ĠCad":11968,"ugos":11969,"Ġstar":11970,"Ġisinaad":11971,"Ġ130":11972,"Ġcondom":11973,"Ġbantog":11974,"ĠDonald":11975,"ĠRNA":11976,"Ġnand":11977,"Ġpaglilinis":11978,"Ġmaintenance":11979,"tap":11980,"ibus":11981,"ĠTalip":11982,"ugu":11983,"qualif":11984,"Ġhaligi":11985,"Ġkilusan":11986,"orough":11987,"ĠJonathan":11988,"Malaki":11989,"Ġbod":11990,"Ġjournal":11991,"okus":11992,"mento":11993,"Ġarmado":11994,"ĠGuillermo":11995,"arangani":11996,"Tumutukoy":11997,"ĠUST":11998,"liminary":11999,"Ġpandama":12000,"ĠAlehand":12001,"Ġbibliya":12002,"bes":12003,"Naganap":12004,"Ġnanirahan":12005,"Ġninak":12006,"Ġnakahanda":12007,"ville":12008,"ĠGina":12009,"lyn":12010,"Ġheometr":12011,"Ġdonasyon":12012,"ef":12013,"ten":12014,"Ġtatakbo":12015,"udyat":12016,"ĠPalarong":12017,"umaong":12018,"ground":12019,"arus":12020,"Ġisulong":12021,"Ġkasintahan":12022,"Ġilong":12023,"ĠNether":12024,"Ġvehicle":12025,"ĠNicolas":12026,"aper":12027,"uwiran":12028,"uspinde":12029,"Ġwinning":12030,"west":12031,"Ġroll":12032,"ansela":12033,"lash":12034,"ĠConvention":12035,"istancing":12036,"ĠViz":12037,"ewala":12038,"ĠSaf":12039,"Ġawitin":12040,"urulot":12041,"Ġfur":12042,"Ġpakete":12043,"Ġlipunang":12044,"can":12045,"je":12046,"Ġkand":12047,"epensa":12048,"Ġestilo":12049,"Ġprotektahan":12050,"itay":12051,"Ġlumaban":12052,"Nakuha":12053,"Ġlibre":12054,"ĠCambodia":12055,"Ġnight":12056,"aca":12057,"Ġview":12058,"isipang":12059,"ĠVin":12060,"ologong":12061,"Ġsmall":12062,"CoV":12063,"ĠBurg":12064,"ibakin":12065,"Inak":12066,"zpi":12067,"angay":12068,"Ġmental":12069,"ungh":12070,"Ġrap":12071,"lamig":12072,"ĠMalaysian":12073,"amora":12074,"anahon":12075,"Ġibayong":12076,"Ġmadilim":12077,"ĠRomanong":12078,"ĠCre":12079,"Ġprotect":12080,"Ġrunning":12081,"Ġindividual":12082,"ĠSarangani":12083,"endaryong":12084,"insula":12085,"Ġ1941":12086,"Ġmagkakat":12087,"Ġagent":12088,"Ġpasahe":12089,"retiro":12090,"NAIA":12091,"Ġgreat":12092,"imbitahan":12093,"Ġwithin":12094,"Ġpagsasalita":12095,"ryo":12096,"ĠSociety":12097,"Ġfair":12098,"Ġnamamahala":12099,"ĠPrinsip":12100,"ĠBosnia":12101,"Ġpigilan":12102,"ĠPaz":12103,"aving":12104,"Ġpakikipaglaban":12105,"ĠWarriors":12106,"Ġhumihingi":12107,"Ġmagkakaibang":12108,"Ġsinasakyan":12109,"yero":12110,"Ġsimulan":12111,"uly":12112,"ibat":12113,"ĠLilia":12114,"Ġnakumpiska":12115,"onso":12116,"ething":12117,"ĠTheodos":12118,"ĠAlexandria":12119,"Ġlalamunan":12120,"ĠDTI":12121,"ersonal":12122,"ĠMarie":12123,"Ġtataas":12124,"Ġdinam":12125,"irito":12126,"emo":12127,"Ġopt":12128,"Ġhomicide":12129,"ĠIslamiko":12130,"Ġkababaihang":12131,"Ġhousing":12132,"Kadalasang":12133,"Ġibina":12134,"ayao":12135,"arden":12136,"Ġabot":12137,"Ġmakapagt":12138,"Ġdinad":12139,"Ġnut":12140,"Ġeksaktong":12141,"Ġtelevision":12142,"ĠBunye":12143,"Ġmagw":12144,"Ġkatibayan":12145,"Ġpagdalo":12146,"ĠKatolikong":12147,"ĠRein":12148,"ĠObando":12149,"ĠNigeria":12150,"ĠNev":12151,"Ġformer":12152,"Ġpakinabang":12153,"ĠBudista":12154,"hah":12155,"Ġlihim":12156,"Ġcaliber":12157,"igin":12158,"Ġgland":12159,"Ġmatanggap":12160,"Ġmalalakas":12161,"ubliko":12162,"Ġnakapags":12163,"Ġpinansiyal":12164,"Ġsimulang":12165,"unk":12166,"Ġspes":12167,"eoples":12168,"Ġhigher":12169,"Ġekwasyong":12170,"ĠHot":12171,"Ġkalahok":12172,"53":12173,"ench":12174,"Ġgrow":12175,"Ikinat":12176,"ĠAst":12177,"Ġrule":12178,"ĠGor":12179,"ĠEf":12180,"ĠMalate":12181,"Ġipinagp":12182,"CAA":12183,"Ġsched":12184,"Ġpaghahambing":12185,"ĠBattalion":12186,"ĠPascual":12187,"Ġoport":12188,"Ġmakaiwas":12189,"Ġcontrac":12190,"Ġeconom":12191,"Ġkimika":12192,"ĠAssistance":12193,"ĠBangko":12194,"Ġmaanom":12195,"leta":12196,"ĠTiya":12197,"ĠTime":12198,"Ġruling":12199,"Ġkabundukan":12200,"ĠPhilip":12201,"ĠAsh":12202,"ĠAngelo":12203,"igti":12204,"Ġbitbit":12205,"Ġpagkakakulong":12206,"ĠUmali":12207,"Partikular":12208,"uusapan":12209,"Ġside":12210,"Ġnorth":12211,"mann":12212,"Ġsinakop":12213,"Ġlinggong":12214,"Ġinternasyonal":12215,"Ġkaas":12216,"ĠNoel":12217,"Ġkapalaran":12218,"ĠPlaza":12219,"ĠVan":12220,"abangga":12221,"Ġmonote":12222,"Ġnanay":12223,"Ġteknikal":12224,"Ġmaibalik":12225,"97":12226,"ĠWat":12227,"Ġconstitutional":12228,"Ġbatid":12229,"Ġbasic":12230,"Ġkorpor":12231,"Ġipinaliwanag":12232,"Ġmandatory":12233,"ĠDelf":12234,"Ġkabab":12235,"Ġyumaong":12236,"Ġ1971":12237,"Ġistraktura":12238,"Ġletter":12239,"Karaniwan":12240,"del":12241,"agnet":12242,"icitor":12243,"Ġkaliwang":12244,"Ġamoy":12245,"Ġkonseptong":12246,"Ġpinangg":12247,"ĠFaj":12248,"ĠCongressman":12249,"ĠMec":12250,"ĠBulgarya":12251,"ĠGolden":12252,"Ġartipisyal":12253,"Ġpraktikal":12254,"Ġdistancing":12255,"ĠFin":12256,"watan":12257,"ĠPier":12258,"ikipag":12259,"ipunang":12260,"engke":12261,"That":12262,"Ġkinikilalang":12263,"Ġkagubatan":12264,"ĠImelda":12265,"Ġmeans":12266,"Ġ1940":12267,"Ġautom":12268,"ĠaEURoe":12269,"Ġpsych":12270,"ataw":12271,"Ġdaga":12272,"Ġkanta":12273,"ĠKum":12274,"Ġpaglilingkod":12275,"Ġkinondena":12276,"Ġpuntong":12277,"ĠWeather":12278,"Ġnalalabing":12279,"ĠLeonardo":12280,"ĠNestor":12281,"Ġparticular":12282,"ĠNetherlands":12283,"Ġhandang":12284,"Ġproced":12285,"ĠVillage":12286,"ĠVerde":12287,"ĠOdiseo":12288,"ox":12289,"Ġnurs":12290,"ĠCu":12291,"ubundukin":12292,"ĠFranchising":12293,"nanais":12294,"usong":12295,"ĠBuhay":12296,"Ġisinailalim":12297,"Ġaffidavit":12298,"Ġhig":12299,"Ġdisp":12300,"ĠCalida":12301,"Bato":12302,"unch":12303,"ugol":12304,"Ġasal":12305,"Ġbear":12306,"And":12307,"ĠPagpap":12308,"ĠChern":12309,"alacia":12310,"Ġpakikipagtulungan":12311,"Mabilis":12312,"Ġlalabas":12313,"ĠBob":12314,"Ġkarn":12315,"Ġheteroseksuwal":12316,"aabuso":12317,"Ġmapatay":12318,"yanig":12319,"Ġnapili":12320,"ierra":12321,"Ġmassacre":12322,"ĠZeus":12323,"ĠHip":12324,"alakihang":12325,"Ġmilag":12326,"Ġselebr":12327,"ality":12328,"Ġ1948":12329,"Ġhelic":12330,"OL":12331,"St":12332,"Ġaprub":12333,"entaryo":12334,"Pinayuhan":12335,"Ġatbp":12336,"Ġprovince":12337,"Ġnagtulak":12338,"ĠGonzalez":12339,"ĠKoko":12340,"Ġnagbebenta":12341,"Ġvolunte":12342,"Ġlatest":12343,"itime":12344,"Ġbabas":12345,"Ġipinangalan":12346,"Ġresponsibility":12347,"ĠFelic":12348,"Ġearth":12349,"Ġlandslide":12350,"Ġkumpletong":12351,"etika":12352,"Ġpagmim":12353,"Ġalipin":12354,"ĠAnim":12355,"Ġkilalanin":12356,"icky":12357,"Ġceasefire":12358,"Ġniyan":12359,"ache":12360,"Ġpinasok":12361,"Ġkaramdamang":12362,"Pinat":12363,"jos":12364,"Ġtinanong":12365,"ully":12366,"ĠMayon":12367,"ĠDeuter":12368,"ĠLatb":12369,"ĠAdviser":12370,"ĠRio":12371,"ĠTat":12372,"abasan":12373,"Ġbalikat":12374,"ĠVIII":12375,"asahan":12376,"Ġ1949":12377,"uron":12378,"Ġparap":12379,"Ġmakuk":12380,"Ġensure":12381,"Ġscholar":12382,"ismaya":12383,"700":12384,"Ġtapusin":12385,"0000":12386,"Ġmatugunan":12387,"Ġnawawalang":12388,"Ġpangmatag":12389,"ĠEar":12390,"iva":12391,"Ġgubat":12392,"Ġgumaganap":12393,"ĠKalye":12394,"Ġpassport":12395,"Ġmerong":12396,"ĠMarket":12397,"aves":12398,"ĠMaynilad":12399,"Ġtalata":12400,"Ġprosekusyon":12401,"itive":12402,"ips":12403,"Ġmatigas":12404,"Ġpaktor":12405,"Ġpagsasaayos":12406,"ĠPoblacion":12407,"Dinala":12408,"Imin":12409,"vious":12410,"alisa":12411,"Ġmakakas":12412,"ivia":12413,"ivery":12414,"Ġnagsilbi":12415,"Ġ1946":12416,"ikling":12417,"ĠDev":12418,"Ġkabahagi":12419,"Ġused":12420,"Ġdeploy":12421,"Ġhangganang":12422,"Ġnagpapakitang":12423,"ĠDennis":12424,"Ġnagpalabas":12425,"Ġbarkong":12426,"Ġ1965":12427,"51":12428,"Tatlong":12429,"ikil":12430,"ansiyang":12431,"Ġnakaupo":12432,"ĠBatikano":12433,"Ġadvisory":12434,"Ġatleta":12435,"limate":12436,"naryo":12437,"Ġnagsisilbi":12438,"Ġenerhiyang":12439,"Ġrespondents":12440,"adrado":12441,"ĠTatlong":12442,"Ġpersons":12443,"Ġnaramdaman":12444,"Ġinilaan":12445,"Ġcharges":12446,"heme":12447,"ĠRomb":12448,"Itinatag":12449,"Ġkatiyakan":12450,"You":12451,"agham":12452,"ĠBart":12453,"ontin":12454,"ĠSilvest":12455,"Ġhipot":12456,"Ġ1969":12457,"ĠFlorida":12458,"atro":12459,"Ġdeklarasyon":12460,"ĠTuga":12461,"Cl":12462,"Ġmala":12463,"akl":12464,"Ġath":12465,"ahim":12466,"Ġnakapasok":12467,"Ġbilangguan":12468,"iyolohiya":12469,"ĠTawi":12470,"Ġmaabot":12471,"arance":12472,"Ġlehislat":12473,"Ġsomething":12474,"Ġvictims":12475,"Ġmotorcycle":12476,"got":12477,"sen":12478,"Ġtuld":12479,"ĠSabah":12480,"ĠLine":12481,"ĠOWWA":12482,"Tinukoy":12483,"Ġdalagita":12484,"ĠPilosop":12485,"Ġsummit":12486,"Ġclaim":12487,"self":12488,"ihi":12489,"ampahan":12490,"Ġask":12491,"Ġ79":12492,"Ġhanapbuhay":12493,"Ġsubstansiya":12494,"Ġsubsid":12495,"file":12496,"Ġpanda":12497,"ĠPia":12498,"ĠSuz":12499,"ĠAch":12500,"ĠRh":12501,"Ġupon":12502,"Ġakit":12503,"akatuwid":12504,"ĠNavarro":12505,"rekober":12506,"Ġhours":12507,"Ġauthorities":12508,"ĠPlay":12509,"umen":12510,"Ġtumangging":12511,"Ġhinikayat":12512,"Ġdikt":12513,"Ġpangd":12514,"ĠPhoen":12515,"ahiwatig":12516,"Ġaangkop":12517,"ohan":12518,"Ġusa":12519,"Ġphot":12520,"Ġpangmilitar":12521,"ĠNags":12522,"Pangunahing":12523,"Ġikinasawi":12524,"800":12525,"Ġalahas":12526,"Ġkahina":12527,"lasyong":12528,"erh":12529,"Ġpagpaslang":12530,"Ġpanggagahasa":12531,"Dakong":12532,"fall":12533,"akalat":12534,"Ġduktor":12535,"oks":12536,"Ġpagkakah":12537,"Ġtahimik":12538,"Ġpagkabuhay":12539,"Ġmakabalik":12540,"Ġill":12541,"heb":12542,"Ġdeterm":12543,"ĠDelfin":12544,"OR":12545,"SG":12546,"oku":12547,"Ġasidong":12548,"Ġnagpunta":12549,"Ġlibro":12550,"ĠCalamba":12551,"intayin":12552,"ĠIcel":12553,"ĠAbr":12554,"Ġeksk":12555,"Ġkinakatawan":12556,"biga":12557,"Ġcelebr":12558,"ĠRomblon":12559,"bery":12560,"Ġpaghingi":12561,"ĠKomisyon":12562,"//":12563,"Ġtisyu":12564,"ĠTrib":12565,"Ġscheme":12566,"Umaabot":12567,"Ġbonus":12568,"ĠSeism":12569,"Ġgumanap":12570,"ĠMountain":12571,"ĠSoriano":12572,"Ġmaterials":12573,"ĠManager":12574,"siyo":12575,"ĠPamahalaan":12576,"Ġligaw":12577,"ĠAdan":12578,"Ġinihaing":12579,"Ġsandata":12580,"Ġbenefits":12581,"ĠChannel":12582,"Ġkasuotan":12583,"VA":12584,"Ġdamb":12585,"ĠConf":12586,"areha":12587,"Ġpreliminary":12588,"conf":12589,"Ġtoll":12590,"ulas":12591,"Ġayusin":12592,"Ġmaterya":12593,"Ġhalf":12594,"Ġmateryales":12595,"Ġkabihasnan":12596,"Ġfamilies":12597,"atikos":12598,"ilbihan":12599,"ĠTig":12600,"ĠHuwag":12601,"Ġnagpapag":12602,"Ġlumagda":12603,"Ġumpisa":12604,"kuwa":12605,"Ġmission":12606,"Ġnu":12607,"ĠGent":12608,"Ġipapat":12609,"ahatang":12610,"unahin":12611,"abilities":12612,"Ġpotensiyal":12613,"gres":12614,"uari":12615,"ĠTher":12616,"ĠEslobenya":12617,"agap":12618,"Ġproc":12619,"Ġipinam":12620,"Ġnagdala":12621,"ĠEvangel":12622,"ĠGalacia":12623,"achi":12624,"Ġcorpor":12625,"Lumabas":12626,"Ġpusher":12627,"Ġbinawian":12628,"ĠLegazpi":12629,"ĠPurok":12630,"Ġisp":12631,"Ġcop":12632,"ĠRO":12633,"ĠRebol":12634,"Ġkahih":12635,"Ġlupaing":12636,"Ġpagpapalaya":12637,"Ġlaganap":12638,"estado":12639,"Ġgabay":12640,"ĠYouth":12641,"Ġstep":12642,"Ġ1898":12643,"Ġlandas":12644,"ĠSilvestre":12645,"Tinut":12646,"Ġkn":12647,"uhing":12648,"itain":12649,"amangan":12650,"ĠMarind":12651,"Ġalpabetong":12652,"Ġkasambahay":12653,"Ġkahon":12654,"ernong":12655,"Ġ63":12656,"Ġlupang":12657,"mark":12658,"rotektahan":12659,"ĠGamotea":12660,"ĠBiz":12661,"ĠNG":12662,"Ġ1917":12663,"ĠItim":12664,"Ġfacilities":12665,"rastructure":12666,"jada":12667,"ĠDating":12668,"Ġ250":12669,"ĠJust":12670,"Ġmapak":12671,"abayaran":12672,"VI":12673,"Ġpagpop":12674,"perensiya":12675,"erald":12676,"Ġbring":12677,"idelines":12678,"Ġpinayuhan":12679,"Ġnapatunayang":12680,"ĠTugade":12681,"ĠKel":12682,"ĠWal":12683,"Ġ72":12684,"apasok":12685,"Ġkaliwa":12686,"Ġmapapat":12687,"crim":12688,"alpok":12689,"ĠBeth":12690,"ĠTed":12691,"ĠFestival":12692,"Ġsumiklab":12693,"erv":12694,"ĠBad":12695,"ĠNakat":12696,"Ġpoor":12697,"iritu":12698,"Ġretir":12699,"alop":12700,"Ġtampok":12701,"Ġdasal":12702,"Ġhentil":12703,"Ġisol":12704,"ĠLic":12705,"ĠLuk":12706,"etes":12707,"ĠMedina":12708,"ĠHawaii":12709,"Ġselebrasyon":12710,"CH":12711,"ians":12712,"igd":12713,"ĠEstonya":12714,"Hinikayat":12715,"NLF":12716,"ykh":12717,"lusion":12718,"Ġpanunungkulan":12719,"ww":12720,"Ġiyo":12721,"ĠKudar":12722,"Ġros":12723,"Layunin":12724,"ĠRose":12725,"Ġver":12726,"angkas":12727,"Ġgranada":12728,"Ġallele":12729,"ĠOcean":12730,"ĠFajardo":12731,"ĠAdam":12732,"ĠPOGO":12733,"ĠAdministrator":12734,"oleon":12735,"Ġtigdas":12736,"Ġbinatilyo":12737,"Ġbiglaang":12738,"Ġkanan":12739,"avor":12740,"Ġkompetisyon":12741,"://":12742,"ĠDeb":12743,"Ġkard":12744,"Ġnagdad":12745,"ĠBusiness":12746,"Ġgampanin":12747,"ĠRibbon":12748,"Ġidinaos":12749,"ukha":12750,"Ġsalamin":12751,"Ġpagpapalawig":12752,"Ġgawang":12753,"Manila":12754,"pon":12755,"Ġatr":12756,"Ġvar":12757,"Ġsusi":12758,"Ġnagtala":12759,"Ġnakabin":12760,"rellano":12761,"DepEd":12762,"alayaan":12763,"ĠPAL":12764,"Ġteams":12765,"ĠArticle":12766,"ĠVolcan":12767,"ĠKudarat":12768,"76":12769,"ĠKant":12770,"Ġdistritong":12771,"Re":12772,"zz":12773,"Ġpinangyarihan":12774,"MM":12775,"Ġmant":12776,"ungunahan":12777,"Nakak":12778,"Ipinah":12779,"Ġtutol":12780,"ĠHighways":12781,"iniguro":12782,"Ġiniisip":12783,"ĠBlg":12784,"Ġmakabuo":12785,"ipagpulong":12786,"weepst":12787,"@-@":12788,"ties":12789,"acher":12790,"Ġmatatapos":12791,"ĠMario":12792,"Ġnagbabayad":12793,"ĠLatbiya":12794,"ĠIceland":12795,"ĠKro":12796,"ĠNaz":12797,"Ġperang":12798,"Ġchairperson":12799,"Ġuugali":12800,"muth":12801,"ĠAlam":12802,"Ġpanghih":12803,"Ġaplikante":12804,"ĠBell":12805,"Ġeach":12806,"ernity":12807,"Ġpagpapaliwanag":12808,"Ġmagkakapatid":12809,"ulaklak":12810,"Ġkinakain":12811,"Ġlob":12812,"amitang":12813,"adya":12814,"Ġaal":12815,"Ġkart":12816,"Ġkonsehal":12817,"weight":12818,"Ġnauukol":12819,"Ġanggulo":12820,"ibe":12821,"ĠTana":12822,"Ġhumahantong":12823,"165":12824,"ĠEhipsiyo":12825,"Ġdamdaming":12826,"Ġkustodiya":12827,"ĠChampionship":12828,"aged":12829,"Ġkit":12830,"abis":12831,"imika":12832,"ĠKings":12833,"Ġnobelang":12834,"Ġngang":12835,"istic":12836,"Ġforward":12837,"alayong":12838,"ĠBacoor":12839,"Ġdiskriminasyon":12840,"weepstakes":12841,"oran":12842,"idem":12843,"ĠNBP":12844,"Ġvon":12845,"Ġnagpasya":12846,"Ġipagpatuloy":12847,"Ġtimes":12848,"President":12849,"bano":12850,"asis":12851,"ulum":12852,"ĠDona":12853,"Ġmakulong":12854,"Ġmahah":12855,"Ġpaglaganap":12856,"Ġmagkakahiwalay":12857,"ĠGalv":12858,"Ġnagagamit":12859,"aliano":12860,"Ġ140":12861,"Ġmayorya":12862,"Ġipinapakita":12863,"Ġrebelyon":12864,"GMA":12865,"Ġmort":12866,"ĠMill":12867,"Ġpangpag":12868,"Ġmakad":12869,"Ġmagpatupad":12870,"Ġburol":12871,"Ġlear":12872,"ĠLord":12873,"Ġmanufact":12874,"Ġmakapagbigay":12875,"ropriations":12876,"ĠTsekya":12877,"Mary":12878,"arr":12879,"Ġreason":12880,"ĠBerlin":12881,"Ġkromosoma":12882,"PH":12883,"inus":12884,"Ġdug":12885,"Ġpaglawak":12886,"Ġsaling":12887,"Ġrehim":12888,"andona":12889,"resign":12890,"Ġdeadline":12891,"uwesto":12892,"ĠEnrique":12893,"ĠRomero":12894,"ĠAprikano":12895,"udyok":12896,"Ġrenew":12897,"rain":12898,"Ġnarekober":12899,"ether":12900,"Ġpagmaman":12901,"retong":12902,"Ġcandidates":12903,"Ġlolo":12904,"emma":12905,"ianus":12906,"Ġmananak":12907,"ĠWeek":12908,"ĠSolicitor":12909,"hu":12910,"ĠJolo":12911,"Ġdiperensiyal":12912,"Ġtuktok":12913,"ĠGomez":12914,"Ġangkan":12915,"ĠMam":12916,"Ġpangalawa":12917,"Ġumaas":12918,"Ġpagtatanggol":12919,"Ġaccus":12920,"Ġhydro":12921,"Ġlay":12922,"ĠArellano":12923,"ĠDol":12924,"Ġpagdud":12925,"Ġsangkatauhan":12926,"PU":12927,"Ġpel":12928,"itions":12929,"Ġexpress":12930,"Lumitaw":12931,"Ġintegral":12932,"sk":12933,"ikatura":12934,"Ġrural":12935,"Ġmaapektuhan":12936,"Ġkatarungan":12937,"Ġinsurance":12938,"Ġbraso":12939,"Ġissues":12940,"friend":12941,"Ġ800":12942,"ĠJohann":12943,"Ġhinahanap":12944,"Ġfirearms":12945,"Kalim":12946,"itiko":12947,"ared":12948,"ĠMega":12949,"Ġpangulong":12950,"Ġmasalimuot":12951,"Ġkagamitang":12952,"Ġproteksyon":12953,"Ġpribado":12954,"Ġavail":12955,"Ġpagkakad":12956,"Ġrecruitment":12957,"Ġnasis":12958,"ĠPrison":12959,"ĠDagdag":12960,"uwis":12961,"Ġversion":12962,"ĠTadeo":12963,"Ġpistol":12964,"CIDG":12965,"Ġrestaurant":12966,"Ġinv":12967,"Ġpaghihirap":12968,"aligid":12969,"Ġpagtutuli":12970,"Ġkolonyal":12971,"Ġsinabihan":12972,"Ġmahuli":12973,"Ġkuwal":12974,"ilay":12975,"ivity":12976,"Ġnagsasanhi":12977,"Ġpahinang":12978,"Ġlisensiya":12979,"Ġrumesp":12980,"ĠTRAIN":12981,"Ġkahariang":12982,"Ġpagmum":12983,"Ġsikolohiya":12984,"igdigan":12985,"Pinab":12986,"Ġpinai":12987,"ĠFDA":12988,"Ġmagpakita":12989,"Ġenforcement":12990,"COR":12991,"Ġalit":12992,"Ġbutil":12993,"Ġbalakang":12994,"uunan":12995,"ĠInsurance":12996,"Ġunderstand":12997,"Ginamit":12998,"ĠHesuk":12999,"lia":13000,"Ġinisyu":13001,"unitang":13002,"ĠImee":13003,"Ġitinakdang":13004,"Ġpinakamahusay":13005,"Ġkastila":13006,"ĠVolcanology":13007,"Ġisus":13008,"urer":13009,"isto":13010,"Ġumapela":13011,"alago":13012,"Ġuusap":13013,"ĠMilitary":13014,"icine":13015,"aco":13016,"Ġitinuturo":13017,"Ġtinal":13018,"Ġparking":13019,"irates":13020,"ĠRepresentantes":13021,"Ġbased":13022,"ĠNapoleon":13023,"Ġtournament":13024,"ĠChernykh":13025,"Ġretired":13026,"ĠPrepektura":13027,"Ġnagbabawal":13028,"Ġcouncil":13029,"Ġworth":13030,"estigo":13031,"Ġtalk":13032,"Ġmakaagham":13033,"Ġturismo":13034,"Sinasabi":13035,"Ġmikrob":13036,"ĠBishops":13037,"ĠBukidnon":13038,"ĠSeismology":13039,"Ġporma":13040,"isl":13041,"Ġrady":13042,"Ġsampahan":13043,"Ġviolation":13044,"Ġhatinggabi":13045,"aryang":13046,"ĠLA":13047,"ĠNah":13048,"ĠUna":13049,"Ġblue":13050,"Philipp":13051,"Sak":13052,"ĠTeo":13053,"Ġtoo":13054,"loban":13055,"Ġnaiwan":13056,"ĠBahay":13057,"Ġimmigration":13058,"ĠHoly":13059,"BU":13060,"ĠPor":13061,"Nagsis":13062,"ĠAlexios":13063,"Ġpinagsama":13064,"ĠObserv":13065,"ĠSierra":13066,"Ġmaaresto":13067,"Ġlumaon":13068,"Ġ1938":13069,"Ġnationwide":13070,"ĠLuther":13071,"Ġmadugong":13072,"ĠMit":13073,"ĠFree":13074,"alitaan":13075,"Ġisinilang":13076,"ango":13077,"ĠDy":13078,"Ġinutos":13079,"ĠKatolisismo":13080,"ĠLapu":13081,"ĠToyota":13082,"ĠSweepstakes":13083,"ĠDim":13084,"Ġopport":13085,"angailangang":13086,"agsikang":13087,"ĠReinmuth":13088,"upunan":13089,"ĠJane":13090,"Dating":13091,"ĠDas":13092,"ĠHuling":13093,"uksa":13094,"Ġnakuhang":13095,"Ġdadalo":13096,"ynthia":13097,"len":13098,"tag":13099,"alena":13100,"ortion":13101,"ĠInqu":13102,"Ġpolls":13103,"ĠIndiyano":13104,"ĠBritaniko":13105,"Ġ}.":13106,"ĠKahit":13107,"amihang":13108,"ĠMarine":13109,"Ġsagutin":13110,"Makikita":13111,"Ġmaanomalyang":13112,"Ġkathang":13113,"ĠUy":13114,"pahinang":13115,"Ġkusang":13116,"Ġog":13117,"yanmar":13118,"ugao":13119,"ĠAguilar":13120,"Ġcurrent":13121,"ĠNoruwega":13122,"icam":13123,"ĠYugos":13124,"inigarilyo":13125,"Ġfreedom":13126,"ĠFab":13127,"Ġkamalayan":13128,"Ġpabuya":13129,"ĠTurkey":13130,"ĠMisuari":13131,"Ġoksih":13132,"ĠCordillera":13133,"ai":13134,"alast":13135,"Ġdun":13136,"ĠSime":13137,"ĠMondo":13138,"Ġrey":13139,"Ġsimple":13140,"ĠSuwisa":13141,"astr":13142,"sailalim":13143,"raine":13144,"Ġrecords":13145,"ĠFederation":13146,"Ġsaw":13147,"ĠIre":13148,"Ġibinab":13149,"Ġpolitikal":13150,"Ġnakalap":13151,"ĠLupang":13152,"Ġinflu":13153,"high":13154,"ĠOur":13155,"ĠTaong":13156,"Ġsasabihin":13157,"ĠConstantius":13158,"64":13159,"adyang":13160,"ĠGobernador":13161,"Ġikinat":13162,"Ġginagamot":13163,"ĠBuilding":13164,"uktot":13165,"Ġmagkaibang":13166,"Ġpinaghihinal":13167,"Ġexplos":13168,"ignation":13169,"leman":13170,"ĠISIS":13171,"ĠLook":13172,"Ġmukhang":13173,"Ġbuntot":13174,"Ġrom":13175,"ĠYule":13176,"empor":13177,"Ġsapatos":13178,"Ġsiyentipikong":13179,"division":13180,"rence":13181,"Ġgantimp":13182,"Ġbuwanang":13183,"Ġnagtagumpay":13184,"ĠMondovi":13185,"ĠNewton":13186,"epende":13187,"asalukuyan":13188,"78":13189,"Ġpalakasin":13190,"Ġmadla":13191,"Ġkabuoan":13192,"foot":13193,"ĠSilla":13194,"Ġpanalangin":13195,"Ġinaak":13196,"Ġchan":13197,"Ġnakaugaliang":13198,"Ġwarning":13199,"Ġkasabwat":13200,"Ġkron":13201,"ayson":13202,"elikula":13203,"ĠEspiritu":13204,"Ġhandog":13205,"apiya":13206,"ĠCand":13207,"ĠBow":13208,"Ġprize":13209,"alamak":13210,"ĠGamboa":13211,"abar":13212,"ĠPDAF":13213,"ĠCastel":13214,"Ġarian":13215,"Ġcommon":13216,"Gan":13217,"Ġpowers":13218,"Ġkuts":13219,"uwersa":13220,"brid":13221,"Ġsuriin":13222,"ĠMi":13223,"Ġsermon":13224,"Ġaccept":13225,"Ġehersisyong":13226,"ĠMarinduque":13227,"Ġpakpak":13228,"Ġpagsasara":13229,"ughaw":13230,"Ġrepublika":13231,"Ġhitsura":13232,"field":13233,"Ġkakasuhan":13234,"ĠJin":13235,"ĠOd":13236,"dea":13237,"ondong":13238,"roso":13239,"ĠIndonesian":13240,"Ġorgano":13241,"Ġticket":13242,"NCRPO":13243,"ghan":13244,"Ġmurang":13245,"ĠMyanmar":13246,"Ġkasaysayang":13247,"Ġminor":13248,"Ġeskwel":13249,"Ġcareer":13250,"alahan":13251,"Ġrelasyong":13252,"Ġpasasalamat":13253,"Ġpagdukot":13254,"Ġstay":13255,"ĠArmen":13256,"Ġpangangaral":13257,"Ġhomos":13258,"Ġvessel":13259,"Our":13260,"pus":13261,"rine":13262,"Ġtam":13263,"ĠPinak":13264,"ĠLegal":13265,"Ġther":13266,"Ġdelivery":13267,"Ġtagapagb":13268,"Ġpropors":13269,"ĠTi":13270,"Ġgrave":13271,"ĠEmb":13272,"Ġnawasak":13273,"ĠThai":13274,"ananampalataya":13275,"Ġpanatilihin":13276,"Ġsatisf":13277,"Sam":13278,"Ġpurs":13279,"Ġkeep":13280,"asiya":13281,"Ġgalak":13282,"ĠNac":13283,"ĠAndron":13284,"ĠBabilonia":13285,"Ġkabaligtaran":13286,"mos":13287,"Naglal":13288,"Ġalaala":13289,"Ġpneum":13290,"Ġ68":13291,"Ġpagdadala":13292,"ĠLondres":13293,".)":13294,"mad":13295,"Ġnauwi":13296,"andar":13297,"irinig":13298,"oyd":13299,"Ġkaib":13300,"ĠTurko":13301,"Ġlimitadong":13302,"Ġstore":13303,"Ġfutbol":13304,"ayamang":13305,"oty":13306,"ĠKanluraning":13307,"Ġisinalin":13308,"war":13309,"Ġborder":13310,"Ġ700":13311,"Ġmomentum":13312,"Ġsaloob":13313,"ĠGro":13314,"Ġkalk":13315,"Ġekwasyon":13316,"Ġenergy":13317,"ĠCynthia":13318,"Ġaround":13319,"avy":13320,"Ġimpluw":13321,"ĠArist":13322,"limang":13323,"Ġtsan":13324,"Ġnit":13325,"ĠSky":13326,"Ġcredit":13327,"Ġrand":13328,"Ġkaugaliang":13329,"Ġabuse":13330,"Ġplane":13331,"Ġkalangitan":13332,"Ġtaasang":13333,"Ġretire":13334,"ansing":13335,"ĠMarcel":13336,"Ġdumi":13337,"Ġambush":13338,"Ġmakikitang":13339,"ĠAndronikos":13340,"last":13341,"onwel":13342,"enso":13343,"Ġ61":13344,"lingkod":13345,"Ġsyn":13346,"ĠCharter":13347,"Ġorganisasyong":13348,"Ġkub":13349,"Ġkaninang":13350,"istika":13351,"Ġopposition":13352,"Ġ71":13353,"ĠHesukristo":13354,"Ġprivil":13355,"Ġklin":13356,"Ġihi":13357,"ĠNazareno":13358,"Ġmol":13359,"orum":13360,"ĠBSP":13361,"Ġmakalabas":13362,"Ġmasis":13363,"Ġresources":13364,"Ġproperty":13365,"tapresyon":13366,"ĠPay":13367,"ubigan":13368,"ĠEdward":13369,"Butch":13370,"iers":13371,"Ġiwan":13372,"ĠINC":13373,"ĠLam":13374,"Ġ1929":13375,"Ġhanging":13376,"indows":13377,"Higit":13378,"irez":13379,"lamasyon":13380,"romagnet":13381,"Ġcarbon":13382,"Ġnagnanais":13383,"Ġshot":13384,"Ġmonark":13385,"Ġsementeryo":13386,"71":13387,"xy":13388,"Ġtulang":13389,"Ġmaunawaan":13390,"Ġbahagdan":13391,"ĠKatimugang":13392,"Ġpansariling":13393,"Kapwa":13394,"74":13395,"iento":13396,"Ġpapat":13397,"Ġpagyanig":13398,"Ġfinals":13399,"opot":13400,"Ġteolohiya":13401,"Ġkatayuang":13402,"SH":13403,"enza":13404,"anduan":13405,"Ġ1936":13406,"Ġkorupsiyon":13407,"72":13408,"waan":13409,"Ġsya":13410,"ĠPR":13411,"Ġakala":13412,"Ġmedal":13413,"Ġinvolved":13414,"Ġnecess":13415,"Supt":13416,"bian":13417,"Ġipinasa":13418,"ĠGuing":13419,"Ġregulasyon":13420,"Ġbullet":13421,"aksi":13422,"ĠLebanon":13423,"Ġkama":13424,"Ġkasarinlan":13425,"askuhan":13426,"Ġcasino":13427,"ĠSining":13428,"Ġsepar":13429,"rout":13430,"antang":13431,"ĠProc":13432,"Ġlawyer":13433,"Ġmapagm":13434,"Ġpagluluto":13435,"Ġnuclear":13436,"Ġhanapin":13437,"Ġlagay":13438,"cher":13439,"Ġsumasailalim":13440,"Ġpagtatatag":13441,"Ġreput":13442,"ertebr":13443,"Ġrobbery":13444,"usi":13445,"iliz":13446,"Ġkonkl":13447,"Ġpinakamal":13448,"Ġreconsider":13449,"Ġnagkasala":13450,"isyunan":13451,"Ġtagapagl":13452,"ĠAlejandro":13453,"Ġtape":13454,"ĠLad":13455,"Ġparis":13456,"ĠGlob":13457,"ukala":13458,"Ġpanang":13459,"Ġabiso":13460,"Ġnagpapa":13461,"Ġaparatong":13462,"vass":13463,"Ġdadaan":13464,"ĠHad":13465,"ĠEch":13466,"ĠQatar":13467,"ĠCommunist":13468,"alamig":13469,"ĠGuer":13470,"ĠDemocratic":13471,"Ġexamination":13472,"Ġlicense":13473,"Joy":13474,"hap":13475,"ĠCD":13476,"ĠKos":13477,"ĠIndo":13478,"Ġstrike":13479,"ĠSafety":13480,"ĠObservatory":13481,"Ġbiro":13482,"Ġsakuna":13483,"ĠLeague":13484,"Ġnegot":13485,"ĠGenesis":13486,"Ġprovide":13487,"Ġsentimos":13488,"Ġkabanata":13489,"imit":13490,"quin":13491,"Ġthings":13492,"Ġsarado":13493,"ĠProb":13494,"Ġassess":13495,"ĠEfeso":13496,"ogether":13497,"Ġkalamangan":13498,"Ġdisorder":13499,"phoon":13500,"Ġpundasyon":13501,"ĠGuingona":13502,"Ġbandid":13503,"ĠGary":13504,"Ġmagsumite":13505,"Ġaccom":13506,"Ġtinangka":13507,"ĠBriton":13508,"oo":13509,"amahagi":13510,"inaya":13511,"Ġvic":13512,"Ġestr":13513,"Ġflag":13514,"Ġ1916":13515,"ulatang":13516,"ahaging":13517,"Ġpangkab":13518,"Ġpulm":13519,"Tumanggi":13520,"ĠRadio":13521,"iisip":13522,"ulig":13523,"ĠBakit":13524,"ĠLaro":13525,"oking":13526,"ĠLapid":13527,"Ġhumihiling":13528,"Ġdocuments":13529,"ĠAbraham":13530,"150":13531,"Con":13532,"arb":13533,"oni":13534,"ĠLaz":13535,"ĠKop":13536,"Ġibong":13537,"Ġpalengke":13538,"Ġing":13539,"ĠMO":13540,"iry":13541,"ulitika":13542,"Ġautoridad":13543,"Ġmagkakasunod":13544,"Ġpusa":13545,"icate":13546,"Ġaltapresyon":13547,"Ġprovis":13548,"Ġkursong":13549,"Ġbiyolohikal":13550,"Ġfees":13551,"ĠMovement":13552,"umat":13553,"ĠKalayaan":13554,"Ġmakaraan":13555,"Ġmabibigyan":13556,"ĠAbra":13557,"ĠLPG":13558,"Ġprosecution":13559,"Ġpalawigin":13560,"estiya":13561,"Ġinvestment":13562,"ĠACT":13563,"arusahan":13564,"Ġtaba":13565,"Ġcoming":13566,"Ġtransaksyon":13567,"ĠGabriel":13568,"Ġtuhod":13569,"pler":13570,"Ġpagtatanghal":13571,"Ġ110":13572,"Ġnararamdaman":13573,"ĠMediteraneo":13574,"Ġbandidong":13575,"ĠDong":13576,"umpisa":13577,"phy":13578,"anduanes":13579,"ĠBrown":13580,"Ġchampionship":13581,"Ġganoon":13582,"Ġcode":13583,"ĠNil":13584,"ĠNCR":13585,"ĠEug":13586,"Ġfast":13587,"Ġreward":13588,"tao":13589,"Ġehekutibo":13590,"Ġbinili":13591,"Ġnaitatag":13592,"Ġharm":13593,"Ġlabindalawang":13594,"ĠBriones":13595,"lusive":13596,"Ġdiperensiya":13597,"Ġmel":13598,"ĠSund":13599,"Ġpambabae":13600,"ĠPenal":13601,"ĠTacloban":13602,"Ġninakaw":13603,"lanong":13604,"iramay":13605,"acity":13606,"Ġmarahas":13607,"Ġtuberc":13608,"Ġexcise":13609,"itimong":13610,"vic":13611,"asy":13612,"Ġayos":13613,"Ġchimp":13614,"Ġbinub":13615,"Ġhud":13616,"Ġkamalian":13617,"ĠZamora":13618,"reklamo":13619,"Ġsukd":13620,"Ġbad":13621,"ulations":13622,"ocabe":13623,"ĠMedial":13624,"Ġbisig":13625,"Ġlaboratoryo":13626,"ĠAddress":13627,"Ġmona":13628,"ĠGarin":13629,"Ġcommissioner":13630,"Wika":13631,"Ġtimb":13632,"uwan":13633,"orse":13634,"Ġnagkamit":13635,"Ġcoup":13636,"Ġ1933":13637,"akpan":13638,"ĠPetro":13639,"Ġpangatlong":13640,"ĠMari":13641,"Ġkumukuha":13642,"Ġdokumentong":13643,"Ġunawa":13644,"agsikan":13645,"onwelt":13646,"Ġkabat":13647,"Ġikina":13648,"Ġpananam":13649,"otohanang":13650,"ĠCHR":13651,"Ġmaximum":13652,"BOC":13653,"NE":13654,"rika":13655,"ige":13656,"Ġitinago":13657,"Ġekonomiyang":13658,"ĠMaced":13659,"Ġoportunidad":13660,"alisyon":13661,"ĠTun":13662,"ĠGayunman":13663,"ĠTaft":13664,"Itinanggi":13665,"Ġpinalaya":13666,"Ġsafe":13667,"Ġearly":13668,"asik":13669,"ĠHous":13670,"ĠArn":13671,"ĠBelarus":13672,"Ġihahambing":13673,"Ġpadding":13674,"Kamakailan":13675,"ĠFinal":13676,"ensiyong":13677,"Ġkonserb":13678,"Ġagric":13679,"Ġpagkakaibang":13680,"Magugunitang":13681,"inungalingan":13682,"Ġhero":13683,"ĠHam":13684,"Ġkatuwang":13685,"ektibong":13686,"Ġdiyosa":13687,"roskop":13688,"Ġsikolohikal":13689,"ĠFreedom":13690,"olan":13691,"Ġreports":13692,"Ġdegree":13693,"etrong":13694,"Ġmakikipag":13695,"Ġarkitekt":13696,"ĠMedialdea":13697,"Ġpalagay":13698,"Ġpangkalakalan":13699,"Ġdumami":13700,"aceae":13701,"Ġinjury":13702,"Ġwon":13703,"Ġprobabilidad":13704,"Ġmagtayo":13705,"Ġpinagtatal":13706,"Ġestablisim":13707,"Ġlotto":13708,"leum":13709,"Ġdrama":13710,"Ġhib":13711,"Ġmamamatay":13712,"Ġsapiens":13713,"Ġideyang":13714,"Ġkre":13715,"ĠLong":13716,"Ġpangka":13717,"Ġnothing":13718,"Nangako":13719,"ĠBatocabe":13720,"Ġmultiple":13721,"ĠTimes":13722,"Ġipinagdiriwang":13723,"Ġumaasang":13724,"Samantalang":13725,"olasco":13726,"ĠWin":13727,"icanor":13728,"ĠBuCor":13729,"Ġmakapal":13730,"illance":13731,"Ġefforts":13732,"house":13733,"ĠMt":13734,"riarka":13735,"Ġgamb":13736,"Ġtourist":13737,"ĠEthiop":13738,"ms":13739,"Ġmahilig":13740,"Ġtumira":13741,"ohen":13742,"ĠIsko":13743,"ĠColomb":13744,"elasyon":13745,"Ġkanto":13746,"veillance":13747,"Ġranggo":13748,"ĠSansk":13749,"Ġgintong":13750,"ĠHum":13751,"Ġmakatutulong":13752,"ĠKasunduan":13753,"Ġorganong":13754,"elecommunications":13755,"iliin":13756,"Ġsambit":13757,"ĠQuejada":13758,"ĠIfugao":13759,"ĠAM":13760,"hernal":13761,"Ġanyang":13762,"ĠCorrect":13763,"ercise":13764,"Ġsagupaan":13765,"52":13766,"Bina":13767,"iyet":13768,"election":13769,"Ġ1918":13770,"Ġappe":13771,"anzee":13772,"Ġdeployment":13773,"iasyon":13774,"itation":13775,"orio":13776,"ĠGSIS":13777,"uhong":13778,"Ġkatas":13779,"Ġmineral":13780,"Ġganun":13781,"graft":13782,"Ġtalakayin":13783,"Ġgi":13784,"ĠUSA":13785,"Ġpinakab":13786,"ĠDoming":13787,"Ġbolunt":13788,"Ġpinakamaagang":13789,"Ġmos":13790,"aprub":13791,"Ġsalary":13792,"Ġnakakaapekto":13793,"umpisk":13794,"ĠHernandez":13795,"Ġirek":13796,"Ġkatapatan":13797,"Ġmarinig":13798,"Ġbatikos":13799,"ĠAmar":13800,"Ġquo":13801,"Ġtugtugin":13802,"Ġsection":13803,"alima":13804,"ĠBers":13805,"torney":13806,"alathala":13807,"KB":13808,"krip":13809,"yor":13810,"angi":13811,"amag":13812,"aporte":13813,"Ġgayun":13814,"Ġnakalaan":13815,"Ġkapasidad":13816,"ĠYugoslav":13817,"IP":13818,"ĠNTC":13819,"load":13820,"Ġory":13821,"Ġpresensiya":13822,"Ġ1974":13823,"Ġgusaling":13824,"adaloy":13825,"ĠPeninsula":13826,"ased":13827,"Ġfare":13828,"Ġmabuo":13829,"Ġmining":13830,"Ġkuwest":13831,"Ġtumatagal":13832,"'ve":13833,"viral":13834,"ĠSri":13835,"ĠNicanor":13836,"Ġpagkaraang":13837,"thal":13838,"instein":13839,"umbins":13840,"ĠVictorina":13841,"Ġpananim":13842,"Ġlahing":13843,"Ġsamb":13844,"ĠMartinez":13845,"Ġpinapat":13846,"Ġlutuing":13847,"ĠTimoteo":13848,"Ġparaphernal":13849,"Ġhabag":13850,"ĠSus":13851,"ĠMana":13852,"ĠKalinga":13853,"Ġyugtong":13854,"Ġmagpalabas":13855,"Ġsuicide":13856,"Ġdenom":13857,"ĠLigure":13858,"LTFRB":13859,"Ġtorn":13860,"Ġgrant":13861,"Nait":13862,"egas":13863,"Ġbinabantayan":13864,"ĠVargas":13865,"wela":13866,"ively":13867,"Ġmarka":13868,"ĠFlores":13869,"ĠJacob":13870,"Ġespiritu":13871,"ĠAP":13872,"Ġloan":13873,"rier":13874,"Ġdireksyon":13875,"On":13876,"awn":13877,"ovel":13878,"Ġprotection":13879,"Ġpiloto":13880,"unghayan":13881,"Il":13882,"gada":13883,"ĠCasal":13884,"Ġlumisan":13885,"iangco":13886,"monitor":13887,"ĠMaxim":13888,"ĠMagdalena":13889,"Ġinternasyunal":13890,"ĠTaliping":13891,"ahiya":13892,"idnap":13893,"ersh":13894,"insp":13895,"ihinto":13896,"lower":13897,"Ġchimpanzee":13898,"Ġekt":13899,"ently":13900,"eder":13901,"uwas":13902,"Ġsinap":13903,"ĠMrs":13904,"Ġargumento":13905,"Ġdemonstr":13906,"cal":13907,"Ġbanc":13908,"ĠKatolika":13909,"umpisal":13910,"ĠJulius":13911,"ĠAlehandriya":13912,"bs":13913,"Ġhika":13914,"ĠSk":13915,"ĠYas":13916,"Ġassists":13917,"ĠCatanduanes":13918,"ginip":13919,"ĠNobel":13920,"Kala":13921,"Ġmagnanakaw":13922,"Ġnakagawa":13923,"poena":13924,"adalasan":13925,"Ġsosyal":13926,"Ġoksiheno":13927,"Ġeth":13928,"anin":13929,"Ġinaangkin":13930,"Ġ92":13931,"Ġkaramihang":13932,"ĠPinol":13933,"Ġ%.":13934,"Ġchem":13935,"Ġgumagana":13936,"Ġmapagkukunan":13937,"Ġpangkapayapaan":13938,"Ġkaparaanan":13939,"Ġfurther":13940,"ĠLGB":13941,"abangon":13942,"Ġarkeolohikal":13943,"ulla":13944,"Ġdila":13945,"ĠSac":13946,"roke":13947,"costa":13948,"Ġpananampalatayang":13949,"Ġheadquarters":13950,"ĠBurgos":13951,"Ġpumili":13952,"Ġsapilitang":13953,"onian":13954,"rea":13955,"indig":13956,"allanes":13957,"Itin":13958,"Ġseryosong":13959,"Ġapproval":13960,"ulgar":13961,"ikim":13962,"ebar":13963,"fully":13964,"Ġmasasamang":13965,"zzo":13966,"Ġbumib":13967,"Ġsinalakay":13968,"rick":13969,"elect":13970,"ĠKA":13971,"Ġituring":13972,"Ġasin":13973,"Ġpatut":13974,"ĠPanahong":13975,"Ġprosecutor":13976,"Mahalaga":13977,"ĠKn":13978,"Ġsako":13979,"Ġhangarin":13980,"Ġmaghanap":13981,"inario":13982,"dado":13983,"uage":13984,"isia":13985,"Ġtribong":13986,"ormasyon":13987,"Ġgrap":13988,"Ġpumip":13989,"Ġtinangay":13990,"Ġpasseng":13991,"NCR":13992,"iff":13993,"ĠDise":13994,"ĠRene":13995,"lathala":13996,"Ġmagtut":13997,"Ġdemonyo":13998,"Ġpampanitikan":13999,"bad":14000,"Ġmunicipal":14001,"ĠPost":14002,"iwakal":14003,"angkaso":14004,"ĠBrill":14005,"Ġsinuspinde":14006,"Ġemployment":14007,"tibay":14008,"Ġbungo":14009,"Ġnasusulat":14010,"Ġhimpapawid":14011,"Ġkonklusyon":14012,"nast":14013,"Ġkost":14014,"Ġded":14015,"enses":14016,"onesyo":14017,"Ġrehabilitation":14018,"Ġhinati":14019,"emap":14020,"antig":14021,"Ġawtor":14022,"Ġpambata":14023,"Sinimulan":14024,"ĠComplex":14025,"ĠGabriela":14026,"ĠSweden":14027,"yendahan":14028,"umers":14029,"ĠDur":14030,"Ġnasangkot":14031,"Ġpagtatalaga":14032,"ĠXII":14033,"Ġresponse":14034,"Ġsaloobin":14035,"Ġnayon":14036,"Ġkanina":14037,"Ġbasis":14038,"inisin":14039,"Ġinabot":14040,"ĠVatican":14041,"Ġpiyansa":14042,"apy":14043,"ĠRyan":14044,"ĠFIBA":14045,"ĠUnido":14046,"Ġ9165":14047,"Inaalam":14048,"routemap":14049,"Reg":14050,"Ġpon":14051,"Ġge":14052,"Ġkooper":14053,"ĠTsinong":14054,"Ġprodukt":14055,"ĠMarcion":14056,"ĠDagupan":14057,"Ġdigit":14058,"Ġgagawa":14059,"Ġtumugon":14060,"rix":14061,"NAG":14062,"noun":14063,"Ġapplication":14064,"cle":14065,"ĠBase":14066,"ĠWHO":14067,"Ġaprubahan":14068,"ĠTagapag":14069,"Ġkainin":14070,"Ġalis":14071,"Ġnasunog":14072,"erall":14073,"Ġdisaster":14074,"ĠRosales":14075,"ĠChildren":14076,"Ġdu":14077,"Ġkayum":14078,"Ġipinad":14079,"Ġnagdeklara":14080,"Ġisinusulat":14081,"Ġpanghimpapawid":14082,"National":14083,"ĠBanglad":14084,"Ġitinuturong":14085,"ĠCim":14086,"ĠCIDG":14087,"uway":14088,"Ġpasaporte":14089,"Nagpahayag":14090,"Tinanong":14091,"With":14092,"Ġubo":14093,"upil":14094,"ĠOtt":14095,"Ġlumutang":14096,"ĠZoroastr":14097,"Ġibabang":14098,"eba":14099,"Ġpantalan":14100,"ĠMagallanes":14101,"ĠRazon":14102,"Ġpandaraya":14103,"Ġreconsideration":14104,"ĠRow":14105,"ĠQuran":14106,"Ġabus":14107,"Ġabstr":14108,"Aileen":14109,"To":14110,"Ġkana":14111,"ĠSarm":14112,"usbong":14113,"Ġcab":14114,"Ġiregular":14115,"ĠTraffic":14116,"ĠKob":14117,"Ġkatunggali":14118,"Ġmapip":14119,"ĠBelg":14120,"ĠHudaismong":14121,"ĠSobiyet":14122,"ĠGalvez":14123,"aal":14124,"idigma":14125,"Ġkaunlaran":14126,"Ġkonteksto":14127,"Ġexpect":14128,"Ġ1896":14129,"ĠVitaliano":14130,"Ġbinatikos":14131,"Nahaharap":14132,"opotam":14133,"Pinam":14134,"anna":14135,"Ġnerb":14136,"Ġpananatili":14137,"Ġpagpigil":14138,"Ġ2022":14139,"overty":14140,"ĠSALN":14141,"Ġnagtuturo":14142,"Ġenforcer":14143,"ĠGaz":14144,"Ġoryent":14145,"96":14146,"akto":14147,"Ġpagkakaloob":14148,"Ġikas":14149,"Ġusok":14150,"ĠPagh":14151,"Ġinfection":14152,
[...]
